{
  "vocab": {
    "<PAD>": 0,
    "<BOS>": 1,
    "<EOS>": 2,
    "<UNK>": 3,
    "我": 4,
    "他": 5,
    "你": 6,
    "这": 7,
    "人": 8,
    "不": 9,
    "多": 10,
    "是": 11,
    "有": 12,
    "要": 13,
    "好": 14,
    "1": 15,
    "我们": 16,
    "没有": 17,
    "看": 18,
    "去": 19,
    "想": 20,
    "房子": 21,
    "什么": 22,
    "自己": 23,
    "不行": 24,
    "可以": 25,
    "吃": 26,
    "工作": 27,
    "今天": 28,
    "说": 29,
    "时间": 30,
    "做": 31,
    "钱": 32,
    "会": 33,
    "小": 34,
    "买": 35,
    "在": 36,
    "全部": 37,
    "到": 38,
    "老师": 39,
    "妈妈": 40,
    "对": 41,
    "喜欢": 42,
    "爸爸": 43,
    "事情": 44,
    "给": 45,
    "好了": 46,
    "学": 47,
    "2": 48,
    "年": 49,
    "还": 50,
    "但是": 51,
    "病": 52,
    "快": 53,
    "他们": 54,
    "东西": 55,
    "喝": 56,
    "大": 57,
    "来": 58,
    "朋友": 59,
    "不好": 60,
    "一直": 61,
    "找": 62,
    "为": 63,
    "多少": 64,
    "孩子": 65,
    "书": 66,
    "身体": 67,
    "晚上": 68,
    "明天": 69,
    "走": 70,
    "美丽": 71,
    "帮助": 72,
    "学校": 73,
    "写": 74,
    "新": 75,
    "最": 76,
    "感觉": 77,
    "早": 78,
    "手机": 79,
    "努力": 80,
    "生活": 81,
    "天": 82,
    "带": 83,
    "不喜欢": 84,
    "方法": 85,
    "不是": 86,
    "中国": 87,
    "公司": 88,
    "每": 89,
    "和": 90,
    "心": 91,
    "难": 92,
    "各种": 93,
    "必须": 94,
    "让": 95,
    "每天": 96,
    "成功": 97,
    "旅游": 98,
    "用": 99,
    "变": 100,
    "医生": 101,
    "拿": 102,
    "电影": 103,
    "考试": 104,
    "女": 105,
    "增加": 106,
    "睡觉": 107,
    "因为": 108,
    "后": 109,
    "像": 110,
    "那": 111,
    "学生": 112,
    "路": 113,
    "组": 114,
    "前": 115,
    "大家": 116,
    "简单": 117,
    "你们": 118,
    "错误": 119,
    "同学": 120,
    "准备": 121,
    "点": 122,
    "一样": 123,
    "如果": 124,
    "请": 125,
    "一起": 126,
    "知道": 127,
    "别": 128,
    "情况": 129,
    "驾驶": 130,
    "听": 131,
    "教": 132,
    "道理": 133,
    "火车": 134,
    "运动": 135,
    "读书": 136,
    "真": 137,
    "外": 138,
    "重要": 139,
    "害怕": 140,
    "上海": 141,
    "衣服": 142,
    "员工": 143,
    "开始": 144,
    "跳舞": 145,
    "应该": 146,
    "超市": 147,
    "玩": 148,
    "方便": 149,
    "车": 150,
    "菜": 151,
    "改变": 152,
    "电脑": 153,
    "等": 154,
    "大概": 155,
    "坏": 156,
    "水": 157,
    "高": 158,
    "3": 159,
    "下雨": 160,
    "课": 161,
    "失败": 162,
    "上": 163,
    "大学": 164,
    "技术": 165,
    "医院": 166,
    "检查": 167,
    "里": 168,
    "男": 169,
    "接受": 170,
    "签名": 171,
    "骄傲": 172,
    "联系": 173,
    "外国": 174,
    "感冒": 175,
    "聪明": 176,
    "票": 177,
    "不会": 178,
    "北京": 179,
    "领导": 180,
    "发现": 181,
    "亲属": 182,
    "决定": 183,
    "信": 184,
    "下": 185,
    "发展": 186,
    "热": 187,
    "发生": 188,
    "影响": 189,
    "注意": 190,
    "要求": 191,
    "少": 192,
    "经常": 193,
    "问题": 194,
    "得": 195,
    "问": 196,
    "脸": 197,
    "年龄": 198,
    "老": 199,
    "远": 200,
    "慢": 201,
    "一般": 202,
    "刚才": 203,
    "比": 204,
    "以前": 205,
    "老板": 206,
    "炒": 207,
    "叫": 208,
    "地铁": 209,
    "飞机": 210,
    "怎么": 211,
    "担心": 212,
    "高兴": 213,
    "药": 214,
    "送": 215,
    "酒": 216,
    "王": 217,
    "选择": 218,
    "中": 219,
    "天气": 220,
    "银行": 221,
    "地方": 222,
    "分": 223,
    "站": 224,
    "安静": 225,
    "姐姐": 226,
    "研究": 227,
    "比赛": 228,
    "手语": 229,
    "5": 230,
    "结婚": 231,
    "美国": 232,
    "记得": 233,
    "互相": 234,
    "们": 235,
    "尊重": 236,
    "丢": 237,
    "世界": 238,
    "日期": 239,
    "发送": 240,
    "饭店": 241,
    "忘记": 242,
    "经验": 243,
    "十": 244,
    "人们": 245,
    "谁": 246,
    "越": 247,
    "缺少": 248,
    "放": 249,
    "模仿": 250,
    "工资": 251,
    "崇拜": 252,
    "花": 253,
    "红": 254,
    "认识": 255,
    "分钟": 256,
    "社会": 257,
    "坐": 258,
    "把": 259,
    "白天": 260,
    "第一": 261,
    "处理": 262,
    "哥哥": 263,
    "长": 264,
    "进": 265,
    "星期": 266,
    "山": 267,
    "完成": 268,
    "纸": 269,
    "结果": 270,
    "开": 271,
    "女儿": 272,
    "负责": 273,
    "安全": 274,
    "交流": 275,
    "昨天": 276,
    "付": 277,
    "定": 278,
    "股票": 279,
    "护照": 280,
    "冬天": 281,
    "爷爷": 282,
    "贵": 283,
    "包": 284,
    "水果": 285,
    "保护": 286,
    "国家": 287,
    "品": 288,
    "期": 289,
    "肯定": 290,
    "客": 291,
    "先": 292,
    "不懂": 293,
    "表格": 294,
    "穿": 295,
    "强": 296,
    "提高": 297,
    "赚": 298,
    "否认": 299,
    "出租车": 300,
    "倒霉": 301,
    "重复": 302,
    "百": 303,
    "租": 304,
    "礼物": 305,
    "生日": 306,
    "过去": 307,
    "商店": 308,
    "电视": 309,
    "近": 310,
    "会议": 311,
    "榜样": 312,
    "查询": 313,
    "猫": 314,
    "跑步": 315,
    "不够": 316,
    "小时": 317,
    "月": 318,
    "告诉": 319,
    "爱护": 320,
    "广告": 321,
    "快递": 322,
    "饱": 323,
    "发": 324,
    "根据": 325,
    "几": 326,
    "不同": 327,
    "6": 328,
    "出": 329,
    "最后": 330,
    "只": 331,
    "封面": 332,
    "法律": 333,
    "部分": 334,
    "累": 335,
    "生": 336,
    "不管": 337,
    "差不多": 338,
    "红包": 339,
    "茶叶": 340,
    "周": 341,
    "牛奶": 342,
    "高铁": 343,
    "迟到": 344,
    "自然": 345,
    "了解": 346,
    "除了": 347,
    "收": 348,
    "节省": 349,
    "颜色": 350,
    "熟悉": 351,
    "样子": 352,
    "年轻": 353,
    "后悔": 354,
    "身份证": 355,
    "预防": 356,
    "清楚": 357,
    "哭": 358,
    "拒绝": 359,
    "劳动": 360,
    "核磁共振": 361,
    "宾馆": 362,
    "通过": 363,
    "警察": 364,
    "系统": 365,
    "咖啡": 366,
    "妹妹": 367,
    "危险": 368,
    "过敏": 369,
    "嘲笑": 370,
    "工": 371,
    "服务": 372,
    "痛": 373,
    "卡": 374,
    "微信": 375,
    "休息": 376,
    "公交车": 377,
    "舒服": 378,
    "参加": 379,
    "名字": 380,
    "为什么": 381,
    "堵车": 382,
    "排队": 383,
    "传染": 384,
    "白": 385,
    "害羞": 386,
    "不知道": 387,
    "儿子": 388,
    "店": 389,
    "方式": 390,
    "算": 391,
    "祝福": 392,
    "7": 393,
    "试": 394,
    "指": 395,
    "贴": 396,
    "桌子": 397,
    "打算": 398,
    "裙子": 399,
    "观众": 400,
    "力量": 401,
    "代表": 402,
    "卖": 403,
    "急诊": 404,
    "张": 405,
    "从": 406,
    "弟弟": 407,
    "精神": 408,
    "欺负": 409,
    "急": 410,
    "死": 411,
    "艾滋": 412,
    "沟通": 413,
    "总结": 414,
    "代替": 415,
    "故障": 416,
    "养": 417,
    "报名": 418,
    "斑马线": 419,
    "科学": 420,
    "惊吓": 421,
    "感动": 422,
    "差点": 423,
    "过": 424,
    "爬": 425,
    "来往": 426,
    "随便": 427,
    "班长": 428,
    "保险": 429,
    "音乐": 430,
    "离婚": 431,
    "明": 432,
    "中午": 433,
    "怎么样": 434,
    "网": 435,
    "介绍": 436,
    "变化": 437,
    "奇怪": 438,
    "原来": 439,
    "标准": 440,
    "声音": 441,
    "成绩": 442,
    "队": 443,
    "怀疑": 444,
    "班级": 445,
    "次": 446,
    "下午": 447,
    "希望": 448,
    "降": 449,
    "蓝牙": 450,
    "合作": 451,
    "承认": 452,
    "理解": 453,
    "流行": 454,
    "作弊": 455,
    "搬": 456,
    "处罚": 457,
    "刺激": 458,
    "办理": 459,
    "冷": 460,
    "环境": 461,
    "方向": 462,
    "钥匙": 463,
    "起床": 464,
    "胖": 465,
    "风": 466,
    "电": 467,
    "毕业": 468,
    "计划": 469,
    "追": 470,
    "哪": 471,
    "请假": 472,
    "平时": 473,
    "涨": 474,
    "奶奶": 475,
    "特别": 476,
    "笔记本": 477,
    "估计": 478,
    "生产": 479,
    "抵挡": 480,
    "抱怨": 481,
    "懂": 482,
    "团": 483,
    "愿意": 484,
    "借口": 485,
    "过节": 486,
    "经济": 487,
    "连": 488,
    "生气": 489,
    "惭愧": 490,
    "货": 491,
    "道歉": 492,
    "导航": 493,
    "片子": 494,
    "吃饭": 495,
    "讨论": 496,
    "灯": 497,
    "爱": 498,
    "被": 499,
    "回答": 500,
    "禁止": 501,
    "挂": 502,
    "换": 503,
    "认真": 504,
    "宣传": 505,
    "勇敢": 506,
    "阑尾": 507,
    "知识": 508,
    "绷带": 509,
    "质量": 510,
    "安装": 511,
    "公": 512,
    "提前": 513,
    "吃不消": 514,
    "娃娃": 515,
    "赋": 516,
    "关节": 517,
    "苹果": 518,
    "蛋糕": 519,
    "不用": 520,
    "著名": 521,
    "餐巾": 522,
    "严重": 523,
    "分别": 524,
    "复印": 525,
    "解决": 526,
    "牛": 527,
    "万": 528,
    "政府": 529,
    "能力": 530,
    "短信息": 531,
    "答案": 532,
    "地图": 533,
    "面包": 534,
    "就": 535,
    "准确": 536,
    "口": 537,
    "辞职": 538,
    "还是": 539,
    "合肥": 540,
    "癌": 541,
    "脉搏": 542,
    "拍照": 543,
    "梦想": 544,
    "插": 545,
    "嫌弃": 546,
    "阻拦": 547,
    "字幕": 548,
    "卑": 549,
    "遗憾": 550,
    "没": 551,
    "夫妻": 552,
    "附近": 553,
    "机器": 554,
    "骗": 555,
    "付出": 556,
    "动物": 557,
    "兼职": 558,
    "游戏": 559,
    "活动": 560,
    "树": 561,
    "打": 562,
    "八宝粥": 563,
    "反对": 564,
    "便宜": 565,
    "雪": 566,
    "机场": 567,
    "种": 568,
    "难过": 569,
    "力": 570,
    "爱-1": 571,
    "恋爱": 572,
    "配合": 573,
    "登记": 574,
    "定居": 575,
    "成熟": 576,
    "委屈": 577,
    "预定": 578,
    "性": 579,
    "坚持": 580,
    "减": 581,
    "弱": 582,
    "升": 583,
    "项目": 584,
    "考": 585,
    "支持": 586,
    "破坏": 587,
    "强调": 588,
    "画画": 589,
    "吵架": 590,
    "彻底": 591,
    "超过": 592,
    "借款": 593,
    "复习": 594,
    "按照": 595,
    "过程": 596,
    "修": 597,
    "产品": 598,
    "接触": 599,
    "踢足球": 600,
    "面": 601,
    "鱼": 602,
    "裤子": 603,
    "糖": 604,
    "黑": 605,
    "规定": 606,
    "句子": 607,
    "还有": 608,
    "幸福": 609,
    "碰": 610,
    "冠军": 611,
    "方": 612,
    "联想": 613,
    "记仇": 614,
    "狗": 615,
    "眼睛": 616,
    "最近": 617,
    "伞": 618,
    "好吃": 619,
    "号码": 620,
    "任务": 621,
    "又": 622,
    "认为": 623,
    "输液": 624,
    "茫然": 625,
    "安慰": 626,
    "抽血": 627,
    "所以": 628,
    "生病": 629,
    "楼": 630,
    "住": 631,
    "效果": 632,
    "空": 633,
    "证明": 634,
    "宣布": 635,
    "当面": 636,
    "4": 637,
    "游泳": 638,
    "上网": 639,
    "照顾": 640,
    "存折": 641,
    "集中": 642,
    "多媒体": 643,
    "圆": 644,
    "差别": 645,
    "区": 646,
    "躲": 647,
    "称赞": 648,
    "承包": 649,
    "厨师": 650,
    "弹幕": 651,
    "亲切": 652,
    "偶": 653,
    "杯子": 654,
    "汽车": 655,
    "见面": 656,
    "作业": 657,
    "箱子": 658,
    "喊": 659,
    "通宵": 660,
    "设计": 661,
    "行为": 662,
    "管理": 663,
    "申请": 664,
    "仔细": 665,
    "二维码": 666,
    "彩票": 667,
    "处方": 668,
    "班": 669,
    "进步": 670,
    "国": 671,
    "阶段": 672,
    "消灭": 673,
    "军": 674,
    "个月": 675,
    "打扮": 676,
    "玻璃": 677,
    "得罪": 678,
    "沉迷": 679,
    "忙": 680,
    "手术": 681,
    "程序": 682,
    "严格": 683,
    "骂": 684,
    "突然": 685,
    "抢": 686,
    "题目": 687,
    "偷": 688,
    "侥幸": 689,
    "担架": 690,
    "重": 691,
    "深": 692,
    "农村": 693,
    "足够": 694,
    "固定": 695,
    "救": 696,
    "怪不得": 697,
    "信息": 698,
    "门": 699,
    "笑": 700,
    "表情": 701,
    "敌人": 702,
    "专门": 703,
    "论文": 704,
    "味道": 705,
    "跟": 706,
    "请客": 707,
    "城市": 708,
    "主": 709,
    "干": 710,
    "治疗": 711,
    "存": 712,
    "习惯": 713,
    "火": 714,
    "个": 715,
    "录取": 716,
    "失望": 717,
    "吸取": 718,
    "肯德基": 719,
    "冷场": 720,
    "健康": 721,
    "倒": 722,
    "一些": 723,
    "停止": 724,
    "活": 725,
    "电话": 726,
    "文": 727,
    "对象": 728,
    "过期": 729,
    "手": 730,
    "辣": 731,
    "演讲": 732,
    "企业": 733,
    "场合": 734,
    "表示": 735,
    "大雨": 736,
    "翻脸": 737,
    "乏味": 738,
    "西瓜": 739,
    "春天": 740,
    "同事": 741,
    "米": 742,
    "合适": 743,
    "动": 744,
    "感情": 745,
    "无": 746,
    "惩罚": 747,
    "穷": 748,
    "圈": 749,
    "动车": 750,
    "追求": 751,
    "精彩": 752,
    "操心": 753,
    "机会": 754,
    "也": 755,
    "鼓励": 756,
    "吃亏": 757,
    "意见": 758,
    "硬": 759,
    "椅子": 760,
    "妻子": 761,
    "同意": 762,
    "丑": 763,
    "聋": 764,
    "房间": 765,
    "文章": 766,
    "方面": 767,
    "决赛": 768,
    "福气": 769,
    "谢谢": 770,
    "元": 771,
    "邮件": 772,
    "白内障": 773,
    "防止": 774,
    "厂": 775,
    "千": 776,
    "逃": 777,
    "放弃": 778,
    "语言": 779,
    "跑": 780,
    "把握": 781,
    "老实": 782,
    "金融": 783,
    "标志": 784,
    "手表": 785,
    "借": 786,
    "仍然": 787,
    "放假": 788,
    "配": 789,
    "拍": 790,
    "合同": 791,
    "旧": 792,
    "包括": 793,
    "或者": 794,
    "权力": 795,
    "战争": 796,
    "反": 797,
    "报告": 798,
    "人生": 799,
    "礼貌": 800,
    "离开": 801,
    "火锅": 802,
    "行李": 803,
    "接": 804,
    "故事": 805,
    "受伤": 806,
    "气": 807,
    "草稿": 808,
    "话": 809,
    "车站": 810,
    "晚": 811,
    "废": 812,
    "草": 813,
    "犯罪": 814,
    "退": 815,
    "市场": 816,
    "同": 817,
    "工厂": 818,
    "减肥": 819,
    "节日": 820,
    "艺术": 821,
    "饭": 822,
    "9": 823,
    "可爱": 824,
    "爱好": 825,
    "干净": 826,
    "拖延": 827,
    "篮球": 828,
    "抄": 829,
    "没关系": 830,
    "欢迎": 831,
    "满意": 832,
    "回家": 833,
    "面条": 834,
    "交通": 835,
    "护士": 836,
    "历史": 837,
    "紧张": 838,
    "优秀": 839,
    "本领": 840,
    "交": 841,
    "竞争": 842,
    "局部": 843,
    "包装": 844,
    "粉": 845,
    "结束": 846,
    "适合": 847,
    "流量": 848,
    "法": 849,
    "始终": 850,
    "读": 851,
    "性格": 852,
    "教训": 853,
    "光": 854,
    "英语": 855,
    "反调": 856,
    "伤害": 857,
    "摸鱼": 858,
    "兴趣": 859,
    "碗": 860,
    "发明": 861,
    "海": 862,
    "积极": 863,
    "行动": 864,
    "富贵": 865,
    "关心": 866,
    "避孕": 867,
    "这样": 868,
    "脏": 869,
    "缺点": 870,
    "意思": 871,
    "破": 872,
    "今": 873,
    "规律": 874,
    "团结": 875,
    "丈夫": 876,
    "陌生": 877,
    "分析": 878,
    "空调": 879,
    "新闻": 880,
    "比较": 881,
    "发烧": 882,
    "心跳": 883,
    "炎": 884,
    "装": 885,
    "文化": 886,
    "教室": 887,
    "正确": 888,
    "终于": 889,
    "理想": 890,
    "默": 891,
    "位置": 892,
    "旁边": 893,
    "或": 894,
    "说谎": 895,
    "足球": 896,
    "违反": 897,
    "流": 898,
    "本": 899,
    "留": 900,
    "逼": 901,
    "打胎": 902,
    "恶心": 903,
    "分之": 904,
    "快乐": 905,
    "厕所": 906,
    "运": 907,
    "陪": 908,
    "看不起": 909,
    "期待": 910,
    "血": 911,
    "石": 912,
    "伤": 913,
    "农民": 914,
    "半": 915,
    "错": 916,
    "原谅": 917,
    "呕吐": 918,
    "预报": 919,
    "推荐": 920,
    "鞋子": 921,
    "吸烟": 922,
    "按": 923,
    "乱": 924,
    "抓住": 925,
    "边": 926,
    "批评": 927,
    "向": 928,
    "各": 929,
    "桥": 930,
    "安排": 931,
    "低头": 932,
    "兴奋": 933,
    "回": 934,
    "争取": 935,
    "经理": 936,
    "着急": 937,
    "靠": 938,
    "秒": 939,
    "水平": 940,
    "幸运": 941,
    "生命": 942,
    "数": 943,
    "心理": 944,
    "思考": 945,
    "周围": 946,
    "买卖": 947,
    "温暖": 948,
    "跳": 949,
    "对不起": 950,
    "字": 951,
    "30": 952,
    "瘦": 953,
    "冰箱": 954,
    "超": 955,
    "黄": 956,
    "达到": 957,
    "放松": 958,
    "建立": 959,
    "诱惑": 960,
    "继续": 961,
    "师傅": 962,
    "总": 963,
    "调查": 964,
    "电子": 965,
    "看法": 966,
    "感谢": 967,
    "忍受": 968,
    "不好吃": 969,
    "打针": 970,
    "鬼": 971,
    "热情": 972,
    "限制": 973,
    "关闭": 974,
    "引起": 975,
    "距离": 976,
    "事故": 977,
    "遇到": 978,
    "无聊": 979,
    "脑子": 980,
    "辛苦": 981,
    "差": 982,
    "河": 983,
    "乒乓球": 984,
    "南": 985,
    "客气": 986,
    "只好": 987,
    "暖": 988,
    "短": 989,
    "饿": 990,
    "条": 991,
    "花钱": 992,
    "手指": 993,
    "长大": 994,
    "条件": 995,
    "不幸": 996,
    "不理": 997,
    "呼吸": 998,
    "批准": 999,
    "管子": 1000,
    "吸引": 1001,
    "传统": 1002,
    "病历": 1003,
    "猜": 1004,
    "笨": 1005,
    "视频": 1006,
    "共产党": 1007,
    "左": 1008,
    "怎么办": 1009,
    "趋势": 1010,
    "控制": 1011,
    "段": 1012,
    "洪水": 1013,
    "空气": 1014,
    "验": 1015,
    "出门": 1016,
    "犹豫": 1017,
    "友谊": 1018,
    "内": 1019,
    "低": 1020,
    "指导": 1021,
    "表现": 1022,
    "晕": 1023,
    "久": 1024,
    "8": 1025,
    "球": 1026,
    "正常": 1027,
    "皮肤": 1028,
    "步": 1029,
    "恨": 1030,
    "虫": 1031,
    "线": 1032,
    "50": 1033,
    "其实": 1034,
    "聊天": 1035,
    "秘密": 1036,
    "建议": 1037,
    "商业": 1038,
    "烦": 1039,
    "符合": 1040,
    "事业": 1041,
    "顺利": 1042,
    "运动会": 1043,
    "反应": 1044,
    "唠叨": 1045,
    "分数": 1046,
    "下载": 1047,
    "头": 1048,
    "背后": 1049,
    "肚子": 1050,
    "神": 1051,
    "幸好": 1052,
    "出院": 1053,
    "洗": 1054,
    "北": 1055,
    "完": 1056,
    "咬": 1057,
    "窗": 1058,
    "见": 1059,
    "笔": 1060,
    "单": 1061,
    "客户": 1062,
    "星星": 1063,
    "实践": 1064,
    "网络": 1065,
    "资源": 1066,
    "回忆": 1067,
    "遇": 1068,
    "体育": 1069,
    "表": 1070,
    "干部": 1071,
    "练习": 1072,
    "满足": 1073,
    "船": 1074,
    "一辈子": 1075,
    "扫": 1076,
    "正好": 1077,
    "纪律": 1078,
    "古": 1079,
    "寄": 1080,
    "通知": 1081,
    "鸟": 1082,
    "事物": 1083,
    "能": 1084,
    "消息": 1085,
    "勉强": 1086,
    "邻居": 1087,
    "保持": 1088,
    "展示": 1089,
    "盒子": 1090,
    "夹": 1091,
    "词语": 1092,
    "安全套": 1093,
    "腿": 1094,
    "李": 1095,
    "阴": 1096,
    "选": 1097,
    "公园": 1098,
    "绿": 1099,
    "帽子": 1100,
    "身份": 1101,
    "严肃": 1102,
    "成长": 1103,
    "抱": 1104,
    "华": 1105,
    "建设": 1106,
    "目的": 1107,
    "老鼠": 1108,
    "利用": 1109,
    "飞": 1110,
    "平": 1111,
    "有趣": 1112,
    "资料": 1113,
    "运行": 1114,
    "马虎": 1115,
    "没用": 1116,
    "想法": 1117,
    "主动": 1118,
    "网站": 1119,
    "盲": 1120,
    "招": 1121,
    "特色": 1122,
    "不见": 1123,
    "好不好": 1124,
    "饺子": 1125,
    "十字路": 1126,
    "按键": 1127,
    "取消": 1128,
    "翻": 1129,
    "明星": 1130,
    "作为": 1131,
    "稳定": 1132,
    "矛盾": 1133,
    "锻炼": 1134,
    "部": 1135,
    "删除": 1136,
    "自由": 1137,
    "充分": 1138,
    "麻烦": 1139,
    "躺": 1140,
    "套": 1141,
    "500": 1142,
    "报复": 1143,
    "报纸": 1144,
    "甜": 1145,
    "香蕉": 1146,
    "酒店": 1147,
    "打折": 1148,
    "战斗": 1149,
    "地球": 1150,
    "理": 1151,
    "人流": 1152,
    "金": 1153,
    "这样子": 1154,
    "床": 1155,
    "感染": 1156,
    "滴": 1157,
    "恢复": 1158,
    "作文": 1159,
    "祖国": 1160,
    "灵活": 1161,
    "发票": 1162,
    "才": 1163,
    "自行车": 1164,
    "苦": 1165,
    "学会": 1166,
    "默默": 1167,
    "安": 1168,
    "默契": 1169,
    "转": 1170,
    "遵守": 1171,
    "牌子": 1172,
    "照片": 1173,
    "共": 1174,
    "叔叔": 1175,
    "计算": 1176,
    "没想到": 1177,
    "醒": 1178,
    "态度": 1179,
    "职业": 1180,
    "摔倒": 1181,
    "建筑": 1182,
    "园": 1183,
    "满": 1184,
    "翻译": 1185,
    "脚": 1186,
    "点头": 1187,
    "20": 1188,
    "咸": 1189,
    "奶": 1190,
    "果汁": 1191,
    "扔": 1192,
    "民族": 1193,
    "公平": 1194,
    "防": 1195,
    "退步": 1196,
    "天天": 1197,
    "服从": 1198,
    "唱歌": 1199,
    "文件": 1200,
    "其他": 1201,
    "印象": 1202,
    "没办法": 1203,
    "假": 1204,
    "上市": 1205,
    "抓": 1206,
    "贪": 1207,
    "油": 1208,
    "利息": 1209,
    "开除": 1210,
    "保证": 1211,
    "工人": 1212,
    "珍惜": 1213,
    "软件": 1214,
    "日本": 1215,
    "24": 1216,
    "街道": 1217,
    "校园": 1218,
    "肉": 1219,
    "战": 1220,
    "宽容": 1221,
    "印刷": 1222,
    "传遍": 1223,
    "统一": 1224,
    "目标": 1225,
    "克服": 1226,
    "演员": 1227,
    "脑": 1228,
    "耐心": 1229,
    "宝贵": 1230,
    "第二": 1231,
    "精": 1232,
    "瞎": 1233,
    "当": 1234,
    "篇": 1235,
    "未来": 1236,
    "爆炸": 1237,
    "活泼": 1238,
    "怀孕": 1239,
    "好处": 1240,
    "积累": 1241,
    "谦虚": 1242,
    "表面": 1243,
    "出现": 1244,
    "粗": 1245,
    "自私": 1246,
    "冷静": 1247,
    "云": 1248,
    "贷款": 1249,
    "温度": 1250,
    "巧克力": 1251,
    "蓝": 1252,
    "疯狂": 1253,
    "奖": 1254,
    "评价": 1255,
    "英雄": 1256,
    "改革": 1257,
    "形势": 1258,
    "障碍": 1259,
    "原则": 1260,
    "核对": 1261,
    "办": 1262,
    "逃跑": 1263,
    "杀": 1264,
    "办公室": 1265,
    "解放军": 1266,
    "场所": 1267,
    "沉默": 1268,
    "字典": 1269,
    "风景": 1270,
    "动作": 1271,
    "民": 1272,
    "记录": 1273,
    "内容": 1274,
    "考虑": 1275,
    "可": 1276,
    "APP": 1277,
    "直": 1278,
    "运气": 1279,
    "分开": 1280,
    "播放": 1281,
    "永远": 1282,
    "经过": 1283,
    "详细": 1284,
    "压力": 1285,
    "院": 1286,
    "创": 1287,
    "月亮": 1288,
    "台": 1289,
    "缩": 1290,
    "司": 1291,
    "业": 1292,
    "辈": 1293,
    "关门": 1294,
    "签证": 1295,
    "泡": 1296,
    "影子": 1297,
    "国民党": 1298,
    "做爱": 1299,
    "嫉妒": 1300,
    "耳机": 1301,
    "联欢": 1302,
    "愁眉": 1303,
    "打招呼": 1304,
    "保密": 1305,
    "漏": 1306,
    "口渴": 1307,
    "酸": 1308,
    "右": 1309,
    "优点": 1310,
    "毒": 1311,
    "捡": 1312,
    "15": 1313,
    "攻击": 1314,
    "湿": 1315,
    "工程": 1316,
    "从来": 1317,
    "参观": 1318,
    "丰富": 1319,
    "呆": 1320,
    "订": 1321,
    "整理": 1322,
    "不同意": 1323,
    "垃圾": 1324,
    "算了": 1325,
    "打扫": 1326,
    "基础": 1327,
    "赚钱": 1328,
    "无线": 1329,
    "密码": 1330,
    "食物": 1331,
    "听话": 1332,
    "中心": 1333,
    "观察": 1334,
    "惊讶": 1335,
    "依然": 1336,
    "卧铺": 1337,
    "害": 1338,
    "情感": 1339,
    "作品": 1340,
    "到处": 1341,
    "等于": 1342,
    "层": 1343,
    "前途": 1344,
    "烧": 1345,
    "通": 1346,
    "制度": 1347,
    "过来": 1348,
    "住院": 1349,
    "补贴": 1350,
    "招聘": 1351,
    "不相信": 1352,
    "区别": 1353,
    "文明": 1354,
    "提供": 1355,
    "全国": 1356,
    "直接": 1357,
    "博物": 1358,
    "不想": 1359,
    "之间": 1360,
    "淡": 1361,
    "装修": 1362,
    "重点": 1363,
    "航空": 1364,
    "责任": 1365,
    "避免": 1366,
    "星级": 1367,
    "露出": 1368,
    "迷信": 1369,
    "暑假": 1370,
    "倾诉": 1371,
    "堵": 1372,
    "扫地": 1373,
    "骑车": 1374,
    "钓": 1375,
    "岗位": 1376,
    "车祸": 1377,
    "革命": 1378,
    "导致": 1379,
    "服": 1380,
    "单位": 1381,
    "手臂": 1382,
    "出台": 1383,
    "羡慕": 1384,
    "大人": 1385,
    "神经": 1386,
    "脸红": 1387,
    "完美": 1388,
    "青春": 1389,
    "嫖娼": 1390,
    "引": 1391,
    "乱七八糟": 1392,
    "络绎不绝": 1393,
    "挤": 1394,
    "赢": 1395,
    "盖章": 1396,
    "几年": 1397,
    "智慧": 1398,
    "同时": 1399,
    "面子": 1400,
    "西": 1401,
    "70": 1402,
    "上当": 1403,
    "掉": 1404,
    "申": 1405,
    "命运": 1406,
    "小学": 1407,
    "提": 1408,
    "电梯": 1409,
    "亲密": 1410,
    "分手": 1411,
    "土": 1412,
    "天才": 1413,
    "混": 1414,
    "喧哗": 1415,
    "时候": 1416,
    "融合": 1417,
    "P": 1418,
    "11": 1419,
    "唯一": 1420,
    "律师": 1421,
    "郊区": 1422,
    "长江": 1423,
    "领事": 1424,
    "贪污": 1425,
    "一会儿": 1426,
    "提出": 1427,
    "新加坡": 1428,
    "麦当劳": 1429,
    "跳高": 1430,
    "加油": 1431,
    "模特": 1432,
    "敲": 1433,
    "基金会": 1434,
    "生意": 1435,
    "来自": 1436,
    "晚期": 1437,
    "抵抗": 1438,
    "遗传": 1439,
    "意外": 1440,
    "泄露": 1441,
    "可惜": 1442,
    "外卖": 1443,
    "失去": 1444,
    "蛋": 1445,
    "对面": 1446,
    "说明": 1447,
    "握手": 1448,
    "潜伏": 1449,
    "困": 1450,
    "形象": 1451,
    "设备": 1452,
    "紧": 1453,
    "唱": 1454,
    "观点": 1455,
    "作废": 1456,
    "武器": 1457,
    "来不及": 1458,
    "舍不得": 1459,
    "中奖": 1460,
    "尝试": 1461,
    "关注": 1462,
    "理论": 1463,
    "鼓掌": 1464,
    "落": 1465,
    "开放": 1466,
    "枪毙": 1467,
    "双": 1468,
    "丢脸": 1469,
    "地震": 1470,
    "至今": 1471,
    "地": 1472,
    "复杂": 1473,
    "踏实": 1474,
    "量": 1475,
    "晋级": 1476,
    "魔术": 1477,
    "群": 1478,
    "司机": 1479,
    "假装": 1480,
    "钢琴": 1481,
    "转弯": 1482,
    "镜子": 1483,
    "瓶": 1484,
    "哪里": 1485,
    "开学": 1486,
    "然后": 1487,
    "厅": 1488,
    "善良": 1489,
    "纷纷": 1490,
    "后果": 1491,
    "阿姨": 1492,
    "市": 1493,
    "数据": 1494,
    "数学": 1495,
    "临时": 1496,
    "资格": 1497,
    "表扬": 1498,
    "经历": 1499,
    "新鲜": 1500,
    "权利": 1501,
    "拆开": 1502,
    "极限": 1503,
    "一": 1504,
    "号召": 1505,
    "解放": 1506,
    "效率": 1507,
    "思想": 1508,
    "伯伯": 1509,
    "灰心": 1510,
    "欺骗": 1511,
    "日": 1512,
    "价格": 1513,
    "对方": 1514,
    "轻": 1515,
    "美好": 1516,
    "远离": 1517,
    "方案": 1518,
    "断": 1519,
    "家具": 1520,
    "采访": 1521,
    "亮": 1522,
    "英国": 1523,
    "赌博": 1524,
    "药物": 1525,
    "隐蔽": 1526,
    "大学生": 1527,
    "德": 1528,
    "雪白": 1529,
    "布": 1530,
    "领巾": 1531,
    "卫生": 1532,
    "四川": 1533,
    "戏剧": 1534,
    "任何": 1535,
    "揭开": 1536,
    "兵": 1537,
    "头发": 1538,
    "诗": 1539,
    "外婆": 1540,
    "秋天": 1541,
    "循环": 1542,
    "柳": 1543,
    "舅舅": 1544,
    "调整": 1545,
    "游客": 1546,
    "纱布": 1547,
    "擦": 1548,
    "正": 1549,
    "灭": 1550,
    "好听": 1551,
    "速度": 1552,
    "零食": 1553,
    "躲避": 1554,
    "臭": 1555,
    "局": 1556,
    "墙": 1557,
    "回报": 1558,
    "信用": 1559,
    "悠闲": 1560,
    "膝盖": 1561,
    "鼠标": 1562,
    "血压": 1563,
    "紧握": 1564,
    "出示": 1565,
    "残疾": 1566,
    "调皮": 1567,
    "牺牲": 1568,
    "仓库": 1569,
    "教材": 1570,
    "创业": 1571,
    "灰尘": 1572,
    "蚊子": 1573,
    "专家": 1574,
    "举手": 1575,
    "老虎": 1576,
    "宗教": 1577,
    "顺序": 1578,
    "学钱": 1579,
    "高峰": 1580,
    "记者": 1581,
    "胃": 1582,
    "免费": 1583,
    "监视": 1584,
    "勤奋": 1585,
    "时代": 1586,
    "比如": 1587,
    "党": 1588,
    "独立": 1589,
    "烦恼": 1590,
    "免钱": 1591,
    "风格": 1592,
    "模糊": 1593,
    "官": 1594,
    "了": 1595,
    "纪念": 1596,
    "志愿": 1597,
    "保养": 1598,
    "体检": 1599,
    "相处": 1600,
    "毛": 1601,
    "主席": 1602,
    "微笑": 1603,
    "修改": 1604,
    "小说": 1605,
    "贿赂": 1606,
    "和平": 1607,
    "侦探": 1608,
    "高考": 1609,
    "阻止": 1610,
    "工具": 1611,
    "鲁迅": 1612,
    "汉堡": 1613,
    "杂志": 1614,
    "解释": 1615,
    "流产": 1616,
    "小气": 1617,
    "广播": 1618,
    "日子": 1619,
    "斤": 1620,
    "糊涂": 1621,
    "相反": 1622,
    "创新": 1623,
    "打印": 1624,
    "现场": 1625,
    "专业": 1626,
    "悄悄": 1627,
    "承诺": 1628,
    "犯错": 1629,
    "共享": 1630,
    "负担": 1631,
    "包庇": 1632,
    "误会": 1633,
    "一点": 1634,
    "思维": 1635,
    "上帝": 1636,
    "荣誉": 1637,
    "幽默": 1638,
    "牛肉": 1639,
    "获得": 1640,
    "炒菜": 1641,
    "入": 1642,
    "杂技": 1643,
    "0": 1644,
    "刀": 1645,
    "彩色": 1646,
    "机构": 1647,
    "培训": 1648,
    "定位": 1649,
    "武汉": 1650,
    "刺": 1651,
    "预约": 1652,
    "托": 1653,
    "胀": 1654,
    "薄": 1655,
    "香港": 1656,
    "私": 1657,
    "厚": 1658,
    "兔子": 1659,
    "看不见": 1660,
    "报": 1661,
    "朝鲜": 1662,
    "小心": 1663,
    "画": 1664,
    "社区": 1665,
    "容易": 1666,
    "灯塔": 1667,
    "牙齿": 1668,
    "偶像": 1669,
    "交易": 1670,
    "肠": 1671,
    "剪": 1672,
    "湖": 1673,
    "大便": 1674,
    "d": 1675,
    "砍": 1676,
    "摔": 1677,
    "凶": 1678,
    "错过": 1679,
    "东方明珠": 1680,
    "讲": 1681,
    "平静": 1682,
    "宝宝": 1683,
    "左手": 1684,
    "移动": 1685,
    "闭嘴": 1686,
    "考验": 1687,
    "赶紧": 1688,
    "萎缩": 1689,
    "守护": 1690,
    "美德": 1691,
    "重新": 1692,
    "义务": 1693,
    "警惕": 1694,
    "没收": 1695,
    "排球": 1696,
    "环节": 1697,
    "浪费": 1698,
    "表白": 1699,
    "支出": 1700,
    "内在": 1701,
    "敏感": 1702,
    "征服": 1703,
    "填写": 1704,
    "证": 1705,
    "伟大": 1706,
    "尴尬": 1707,
    "下班": 1708,
    "值得": 1709,
    "脱离": 1710,
    "划算": 1711,
    "吹": 1712,
    "规则": 1713,
    "副": 1714,
    "下面": 1715,
    "得到": 1716,
    "放学": 1717,
    "12": 1718,
    "打架": 1719,
    "自卑": 1720,
    "一半": 1721,
    "说话": 1722,
    "不能": 1723,
    "焦急": 1724,
    "连续": 1725,
    "数量": 1726,
    "二": 1727,
    "完善": 1728,
    "一并": 1729,
    "概念": 1730,
    "确认": 1731,
    "齐全": 1732,
    "恐怖": 1733,
    "前进": 1734,
    "钱补": 1735,
    "火箭": 1736,
    "收集": 1737,
    "乞丐": 1738,
    "部门": 1739,
    "关于": 1740,
    "正式": 1741,
    "建造": 1742,
    "到底": 1743,
    "文字": 1744,
    "主流": 1745,
    "有点": 1746,
    "消费": 1747,
    "头痛": 1748,
    "截止": 1749,
    "优惠": 1750,
    "骗子": 1751,
    "收入": 1752,
    "功能": 1753,
    "话题": 1754,
    "珍贵": 1755,
    "人品": 1756,
    "尊严": 1757,
    "台湾": 1758,
    "过度": 1759,
    "中文": 1760,
    "病毒": 1761,
    "账号": 1762,
    "消失": 1763,
    "形": 1764,
    "汗水": 1765,
    "做事": 1766,
    "写明": 1767,
    "签字": 1768,
    "打扰": 1769,
    "队伍": 1770,
    "冲动": 1771,
    "枪": 1772,
    "宠爱": 1773,
    "造成": 1774,
    "流星": 1775,
    "员": 1776,
    "歪曲": 1777,
    "称谓": 1778,
    "选举": 1779,
    "需要": 1780,
    "捞": 1781,
    "童年": 1782,
    "贝壳": 1783,
    "咳嗽": 1784,
    "头疼": 1785,
    "剧": 1786,
    "种子": 1787,
    "森林": 1788,
    "茂盛": 1789,
    "装饰": 1790,
    "绕": 1791,
    "顾问": 1792,
    "更多": 1793,
    "迪士尼": 1794,
    "车流": 1795,
    "光荣": 1796,
    "围绕": 1797,
    "放大": 1798,
    "激烈": 1799,
    "抽": 1800,
    "紧缩": 1801,
    "猴子": 1802,
    "监狱": 1803,
    "现实": 1804,
    "放心": 1805,
    "宽": 1806,
    "气氛": 1807,
    "晴": 1808,
    "陶醉": 1809,
    "吨": 1810,
    "嫁": 1811,
    "业务": 1812,
    "铁塔": 1813,
    "法国": 1814,
    "不如": 1815,
    "骚扰": 1816,
    "证件": 1817,
    "利益": 1818,
    "小姐": 1819,
    "瓜": 1820,
    "成都": 1821,
    "谣言": 1822,
    "45": 1823,
    "阅兵": 1824,
    "旗": 1825,
    "心情": 1826,
    "箱": 1827,
    "调": 1828,
    "入学": 1829,
    "道": 1830,
    "惊喜": 1831,
    "眼镜": 1832,
    "国王": 1833,
    "虎": 1834,
    "32": 1835,
    "消防": 1836,
    "醒悟": 1837,
    "回头": 1838,
    "经商": 1839,
    "葡萄": 1840,
    "抬": 1841,
    "牙": 1842,
    "车胎": 1843,
    "漏气": 1844,
    "钢笔": 1845,
    "程度": 1846,
    "肥": 1847,
    "警告": 1848,
    "两": 1849,
    "核桃": 1850,
    "掌握": 1851,
    "计较": 1852,
    "腹": 1853,
    "淹没": 1854,
    "针": 1855,
    "赵本山": 1856,
    "房": 1857,
    "切": 1858,
    "土豆": 1859,
    "袜子": 1860,
    "75": 1861,
    "亿": 1862,
    "柱": 1863,
    "98": 1864,
    "汗": 1865,
    "登": 1866,
    "圣诞": 1867,
    "奔驰": 1868,
    "被子": 1869,
    "b": 1870,
    "摸": 1871,
    "传": 1872,
    "猪": 1873,
    "划": 1874,
    "版": 1875,
    "以身作则": 1876,
    "忽悠": 1877,
    "PPT": 1878,
    "蓝色": 1879,
    "庆祝": 1880,
    "看不惯": 1881,
    "别人": 1882,
    "戴": 1883,
    "口味": 1884,
    "犯": 1885,
    "急救": 1886,
    "视力": 1887,
    "斑马": 1888,
    "舍得": 1889,
    "人身": 1890,
    "这生": 1891,
    "大事": 1892,
    "共事": 1893,
    "洞": 1894,
    "起来": 1895,
    "不在": 1896,
    "婉转": 1897,
    "商家": 1898,
    "温柔": 1899,
    "过世": 1900,
    "人口": 1901,
    "许可": 1902,
    "18": 1903,
    "寻找": 1904,
    "高速公路": 1905,
    "飘扬": 1906,
    "端": 1907,
    "睡": 1908,
    "战阵": 1909,
    "地形": 1910,
    "全面": 1911,
    "懂得": 1912,
    "一切": 1913,
    "将来": 1914,
    "高中": 1915,
    "太多": 1916,
    "告白": 1917,
    "铅笔": 1918,
    "不久": 1919,
    "望着": 1920,
    "天空": 1921,
    "怎样": 1922,
    "黑暗": 1923,
    "暗": 1924,
    "找到": 1925,
    "占": 1926,
    "尽量": 1927,
    "预告": 1928,
    "格式": 1929,
    "亏": 1930,
    "更新": 1931,
    "进行": 1932,
    "刷": 1933,
    "居住": 1934,
    "好心": 1935,
    "年货": 1936,
    "集体": 1937,
    "事件": 1938,
    "针对": 1939,
    "减少": 1940,
    "犯规": 1941,
    "国际": 1942,
    "花费": 1943,
    "懒": 1944,
    "连接": 1945,
    "瞪": 1946,
    "粥": 1947,
    "拼命": 1948,
    "破解": 1949,
    "马": 1950,
    "最低": 1951,
    "觉": 1952,
    "格子": 1953,
    "答": 1954,
    "天安门": 1955,
    "动画": 1956,
    "中华": 1957,
    "小明": 1958,
    "吹棒": 1959,
    "踢球": 1960,
    "铁": 1961,
    "液体": 1962,
    "奥运": 1963,
    "讨厌": 1964,
    "值班": 1965,
    "外地": 1966,
    "重视": 1967,
    "偏": 1968,
    "证据": 1969,
    "扣": 1970,
    "上面": 1971,
    "捐钱": 1972,
    "传销": 1973,
    "折服": 1974,
    "节约": 1975,
    "平衡": 1976,
    "刚刚": 1977,
    "爱情": 1978,
    "上台": 1979,
    "听不见": 1980,
    "老婆": 1981,
    "碰到": 1982,
    "心脏": 1983,
    "馆": 1984,
    "文物": 1985,
    "非常": 1986,
    "语文": 1987,
    "就是": 1988,
    "已": 1989,
    "袋子": 1990,
    "抽烟": 1991,
    "痛苦": 1992,
    "球技": 1993,
    "球迷": 1994,
    "没门": 1995,
    "名称": 1996,
    "注册": 1997,
    "好看": 1998,
    "球队": 1999,
    "救援": 2000,
    "会员": 2001,
    "敲打": 2002,
    "欠": 2003
  },
  "idx2word": {
    "0": "<PAD>",
    "1": "<BOS>",
    "2": "<EOS>",
    "3": "<UNK>",
    "4": "我",
    "5": "他",
    "6": "你",
    "7": "这",
    "8": "人",
    "9": "不",
    "10": "多",
    "11": "是",
    "12": "有",
    "13": "要",
    "14": "好",
    "15": "1",
    "16": "我们",
    "17": "没有",
    "18": "看",
    "19": "去",
    "20": "想",
    "21": "房子",
    "22": "什么",
    "23": "自己",
    "24": "不行",
    "25": "可以",
    "26": "吃",
    "27": "工作",
    "28": "今天",
    "29": "说",
    "30": "时间",
    "31": "做",
    "32": "钱",
    "33": "会",
    "34": "小",
    "35": "买",
    "36": "在",
    "37": "全部",
    "38": "到",
    "39": "老师",
    "40": "妈妈",
    "41": "对",
    "42": "喜欢",
    "43": "爸爸",
    "44": "事情",
    "45": "给",
    "46": "好了",
    "47": "学",
    "48": "2",
    "49": "年",
    "50": "还",
    "51": "但是",
    "52": "病",
    "53": "快",
    "54": "他们",
    "55": "东西",
    "56": "喝",
    "57": "大",
    "58": "来",
    "59": "朋友",
    "60": "不好",
    "61": "一直",
    "62": "找",
    "63": "为",
    "64": "多少",
    "65": "孩子",
    "66": "书",
    "67": "身体",
    "68": "晚上",
    "69": "明天",
    "70": "走",
    "71": "美丽",
    "72": "帮助",
    "73": "学校",
    "74": "写",
    "75": "新",
    "76": "最",
    "77": "感觉",
    "78": "早",
    "79": "手机",
    "80": "努力",
    "81": "生活",
    "82": "天",
    "83": "带",
    "84": "不喜欢",
    "85": "方法",
    "86": "不是",
    "87": "中国",
    "88": "公司",
    "89": "每",
    "90": "和",
    "91": "心",
    "92": "难",
    "93": "各种",
    "94": "必须",
    "95": "让",
    "96": "每天",
    "97": "成功",
    "98": "旅游",
    "99": "用",
    "100": "变",
    "101": "医生",
    "102": "拿",
    "103": "电影",
    "104": "考试",
    "105": "女",
    "106": "增加",
    "107": "睡觉",
    "108": "因为",
    "109": "后",
    "110": "像",
    "111": "那",
    "112": "学生",
    "113": "路",
    "114": "组",
    "115": "前",
    "116": "大家",
    "117": "简单",
    "118": "你们",
    "119": "错误",
    "120": "同学",
    "121": "准备",
    "122": "点",
    "123": "一样",
    "124": "如果",
    "125": "请",
    "126": "一起",
    "127": "知道",
    "128": "别",
    "129": "情况",
    "130": "驾驶",
    "131": "听",
    "132": "教",
    "133": "道理",
    "134": "火车",
    "135": "运动",
    "136": "读书",
    "137": "真",
    "138": "外",
    "139": "重要",
    "140": "害怕",
    "141": "上海",
    "142": "衣服",
    "143": "员工",
    "144": "开始",
    "145": "跳舞",
    "146": "应该",
    "147": "超市",
    "148": "玩",
    "149": "方便",
    "150": "车",
    "151": "菜",
    "152": "改变",
    "153": "电脑",
    "154": "等",
    "155": "大概",
    "156": "坏",
    "157": "水",
    "158": "高",
    "159": "3",
    "160": "下雨",
    "161": "课",
    "162": "失败",
    "163": "上",
    "164": "大学",
    "165": "技术",
    "166": "医院",
    "167": "检查",
    "168": "里",
    "169": "男",
    "170": "接受",
    "171": "签名",
    "172": "骄傲",
    "173": "联系",
    "174": "外国",
    "175": "感冒",
    "176": "聪明",
    "177": "票",
    "178": "不会",
    "179": "北京",
    "180": "领导",
    "181": "发现",
    "182": "亲属",
    "183": "决定",
    "184": "信",
    "185": "下",
    "186": "发展",
    "187": "热",
    "188": "发生",
    "189": "影响",
    "190": "注意",
    "191": "要求",
    "192": "少",
    "193": "经常",
    "194": "问题",
    "195": "得",
    "196": "问",
    "197": "脸",
    "198": "年龄",
    "199": "老",
    "200": "远",
    "201": "慢",
    "202": "一般",
    "203": "刚才",
    "204": "比",
    "205": "以前",
    "206": "老板",
    "207": "炒",
    "208": "叫",
    "209": "地铁",
    "210": "飞机",
    "211": "怎么",
    "212": "担心",
    "213": "高兴",
    "214": "药",
    "215": "送",
    "216": "酒",
    "217": "王",
    "218": "选择",
    "219": "中",
    "220": "天气",
    "221": "银行",
    "222": "地方",
    "223": "分",
    "224": "站",
    "225": "安静",
    "226": "姐姐",
    "227": "研究",
    "228": "比赛",
    "229": "手语",
    "230": "5",
    "231": "结婚",
    "232": "美国",
    "233": "记得",
    "234": "互相",
    "235": "们",
    "236": "尊重",
    "237": "丢",
    "238": "世界",
    "239": "日期",
    "240": "发送",
    "241": "饭店",
    "242": "忘记",
    "243": "经验",
    "244": "十",
    "245": "人们",
    "246": "谁",
    "247": "越",
    "248": "缺少",
    "249": "放",
    "250": "模仿",
    "251": "工资",
    "252": "崇拜",
    "253": "花",
    "254": "红",
    "255": "认识",
    "256": "分钟",
    "257": "社会",
    "258": "坐",
    "259": "把",
    "260": "白天",
    "261": "第一",
    "262": "处理",
    "263": "哥哥",
    "264": "长",
    "265": "进",
    "266": "星期",
    "267": "山",
    "268": "完成",
    "269": "纸",
    "270": "结果",
    "271": "开",
    "272": "女儿",
    "273": "负责",
    "274": "安全",
    "275": "交流",
    "276": "昨天",
    "277": "付",
    "278": "定",
    "279": "股票",
    "280": "护照",
    "281": "冬天",
    "282": "爷爷",
    "283": "贵",
    "284": "包",
    "285": "水果",
    "286": "保护",
    "287": "国家",
    "288": "品",
    "289": "期",
    "290": "肯定",
    "291": "客",
    "292": "先",
    "293": "不懂",
    "294": "表格",
    "295": "穿",
    "296": "强",
    "297": "提高",
    "298": "赚",
    "299": "否认",
    "300": "出租车",
    "301": "倒霉",
    "302": "重复",
    "303": "百",
    "304": "租",
    "305": "礼物",
    "306": "生日",
    "307": "过去",
    "308": "商店",
    "309": "电视",
    "310": "近",
    "311": "会议",
    "312": "榜样",
    "313": "查询",
    "314": "猫",
    "315": "跑步",
    "316": "不够",
    "317": "小时",
    "318": "月",
    "319": "告诉",
    "320": "爱护",
    "321": "广告",
    "322": "快递",
    "323": "饱",
    "324": "发",
    "325": "根据",
    "326": "几",
    "327": "不同",
    "328": "6",
    "329": "出",
    "330": "最后",
    "331": "只",
    "332": "封面",
    "333": "法律",
    "334": "部分",
    "335": "累",
    "336": "生",
    "337": "不管",
    "338": "差不多",
    "339": "红包",
    "340": "茶叶",
    "341": "周",
    "342": "牛奶",
    "343": "高铁",
    "344": "迟到",
    "345": "自然",
    "346": "了解",
    "347": "除了",
    "348": "收",
    "349": "节省",
    "350": "颜色",
    "351": "熟悉",
    "352": "样子",
    "353": "年轻",
    "354": "后悔",
    "355": "身份证",
    "356": "预防",
    "357": "清楚",
    "358": "哭",
    "359": "拒绝",
    "360": "劳动",
    "361": "核磁共振",
    "362": "宾馆",
    "363": "通过",
    "364": "警察",
    "365": "系统",
    "366": "咖啡",
    "367": "妹妹",
    "368": "危险",
    "369": "过敏",
    "370": "嘲笑",
    "371": "工",
    "372": "服务",
    "373": "痛",
    "374": "卡",
    "375": "微信",
    "376": "休息",
    "377": "公交车",
    "378": "舒服",
    "379": "参加",
    "380": "名字",
    "381": "为什么",
    "382": "堵车",
    "383": "排队",
    "384": "传染",
    "385": "白",
    "386": "害羞",
    "387": "不知道",
    "388": "儿子",
    "389": "店",
    "390": "方式",
    "391": "算",
    "392": "祝福",
    "393": "7",
    "394": "试",
    "395": "指",
    "396": "贴",
    "397": "桌子",
    "398": "打算",
    "399": "裙子",
    "400": "观众",
    "401": "力量",
    "402": "代表",
    "403": "卖",
    "404": "急诊",
    "405": "张",
    "406": "从",
    "407": "弟弟",
    "408": "精神",
    "409": "欺负",
    "410": "急",
    "411": "死",
    "412": "艾滋",
    "413": "沟通",
    "414": "总结",
    "415": "代替",
    "416": "故障",
    "417": "养",
    "418": "报名",
    "419": "斑马线",
    "420": "科学",
    "421": "惊吓",
    "422": "感动",
    "423": "差点",
    "424": "过",
    "425": "爬",
    "426": "来往",
    "427": "随便",
    "428": "班长",
    "429": "保险",
    "430": "音乐",
    "431": "离婚",
    "432": "明",
    "433": "中午",
    "434": "怎么样",
    "435": "网",
    "436": "介绍",
    "437": "变化",
    "438": "奇怪",
    "439": "原来",
    "440": "标准",
    "441": "声音",
    "442": "成绩",
    "443": "队",
    "444": "怀疑",
    "445": "班级",
    "446": "次",
    "447": "下午",
    "448": "希望",
    "449": "降",
    "450": "蓝牙",
    "451": "合作",
    "452": "承认",
    "453": "理解",
    "454": "流行",
    "455": "作弊",
    "456": "搬",
    "457": "处罚",
    "458": "刺激",
    "459": "办理",
    "460": "冷",
    "461": "环境",
    "462": "方向",
    "463": "钥匙",
    "464": "起床",
    "465": "胖",
    "466": "风",
    "467": "电",
    "468": "毕业",
    "469": "计划",
    "470": "追",
    "471": "哪",
    "472": "请假",
    "473": "平时",
    "474": "涨",
    "475": "奶奶",
    "476": "特别",
    "477": "笔记本",
    "478": "估计",
    "479": "生产",
    "480": "抵挡",
    "481": "抱怨",
    "482": "懂",
    "483": "团",
    "484": "愿意",
    "485": "借口",
    "486": "过节",
    "487": "经济",
    "488": "连",
    "489": "生气",
    "490": "惭愧",
    "491": "货",
    "492": "道歉",
    "493": "导航",
    "494": "片子",
    "495": "吃饭",
    "496": "讨论",
    "497": "灯",
    "498": "爱",
    "499": "被",
    "500": "回答",
    "501": "禁止",
    "502": "挂",
    "503": "换",
    "504": "认真",
    "505": "宣传",
    "506": "勇敢",
    "507": "阑尾",
    "508": "知识",
    "509": "绷带",
    "510": "质量",
    "511": "安装",
    "512": "公",
    "513": "提前",
    "514": "吃不消",
    "515": "娃娃",
    "516": "赋",
    "517": "关节",
    "518": "苹果",
    "519": "蛋糕",
    "520": "不用",
    "521": "著名",
    "522": "餐巾",
    "523": "严重",
    "524": "分别",
    "525": "复印",
    "526": "解决",
    "527": "牛",
    "528": "万",
    "529": "政府",
    "530": "能力",
    "531": "短信息",
    "532": "答案",
    "533": "地图",
    "534": "面包",
    "535": "就",
    "536": "准确",
    "537": "口",
    "538": "辞职",
    "539": "还是",
    "540": "合肥",
    "541": "癌",
    "542": "脉搏",
    "543": "拍照",
    "544": "梦想",
    "545": "插",
    "546": "嫌弃",
    "547": "阻拦",
    "548": "字幕",
    "549": "卑",
    "550": "遗憾",
    "551": "没",
    "552": "夫妻",
    "553": "附近",
    "554": "机器",
    "555": "骗",
    "556": "付出",
    "557": "动物",
    "558": "兼职",
    "559": "游戏",
    "560": "活动",
    "561": "树",
    "562": "打",
    "563": "八宝粥",
    "564": "反对",
    "565": "便宜",
    "566": "雪",
    "567": "机场",
    "568": "种",
    "569": "难过",
    "570": "力",
    "571": "爱-1",
    "572": "恋爱",
    "573": "配合",
    "574": "登记",
    "575": "定居",
    "576": "成熟",
    "577": "委屈",
    "578": "预定",
    "579": "性",
    "580": "坚持",
    "581": "减",
    "582": "弱",
    "583": "升",
    "584": "项目",
    "585": "考",
    "586": "支持",
    "587": "破坏",
    "588": "强调",
    "589": "画画",
    "590": "吵架",
    "591": "彻底",
    "592": "超过",
    "593": "借款",
    "594": "复习",
    "595": "按照",
    "596": "过程",
    "597": "修",
    "598": "产品",
    "599": "接触",
    "600": "踢足球",
    "601": "面",
    "602": "鱼",
    "603": "裤子",
    "604": "糖",
    "605": "黑",
    "606": "规定",
    "607": "句子",
    "608": "还有",
    "609": "幸福",
    "610": "碰",
    "611": "冠军",
    "612": "方",
    "613": "联想",
    "614": "记仇",
    "615": "狗",
    "616": "眼睛",
    "617": "最近",
    "618": "伞",
    "619": "好吃",
    "620": "号码",
    "621": "任务",
    "622": "又",
    "623": "认为",
    "624": "输液",
    "625": "茫然",
    "626": "安慰",
    "627": "抽血",
    "628": "所以",
    "629": "生病",
    "630": "楼",
    "631": "住",
    "632": "效果",
    "633": "空",
    "634": "证明",
    "635": "宣布",
    "636": "当面",
    "637": "4",
    "638": "游泳",
    "639": "上网",
    "640": "照顾",
    "641": "存折",
    "642": "集中",
    "643": "多媒体",
    "644": "圆",
    "645": "差别",
    "646": "区",
    "647": "躲",
    "648": "称赞",
    "649": "承包",
    "650": "厨师",
    "651": "弹幕",
    "652": "亲切",
    "653": "偶",
    "654": "杯子",
    "655": "汽车",
    "656": "见面",
    "657": "作业",
    "658": "箱子",
    "659": "喊",
    "660": "通宵",
    "661": "设计",
    "662": "行为",
    "663": "管理",
    "664": "申请",
    "665": "仔细",
    "666": "二维码",
    "667": "彩票",
    "668": "处方",
    "669": "班",
    "670": "进步",
    "671": "国",
    "672": "阶段",
    "673": "消灭",
    "674": "军",
    "675": "个月",
    "676": "打扮",
    "677": "玻璃",
    "678": "得罪",
    "679": "沉迷",
    "680": "忙",
    "681": "手术",
    "682": "程序",
    "683": "严格",
    "684": "骂",
    "685": "突然",
    "686": "抢",
    "687": "题目",
    "688": "偷",
    "689": "侥幸",
    "690": "担架",
    "691": "重",
    "692": "深",
    "693": "农村",
    "694": "足够",
    "695": "固定",
    "696": "救",
    "697": "怪不得",
    "698": "信息",
    "699": "门",
    "700": "笑",
    "701": "表情",
    "702": "敌人",
    "703": "专门",
    "704": "论文",
    "705": "味道",
    "706": "跟",
    "707": "请客",
    "708": "城市",
    "709": "主",
    "710": "干",
    "711": "治疗",
    "712": "存",
    "713": "习惯",
    "714": "火",
    "715": "个",
    "716": "录取",
    "717": "失望",
    "718": "吸取",
    "719": "肯德基",
    "720": "冷场",
    "721": "健康",
    "722": "倒",
    "723": "一些",
    "724": "停止",
    "725": "活",
    "726": "电话",
    "727": "文",
    "728": "对象",
    "729": "过期",
    "730": "手",
    "731": "辣",
    "732": "演讲",
    "733": "企业",
    "734": "场合",
    "735": "表示",
    "736": "大雨",
    "737": "翻脸",
    "738": "乏味",
    "739": "西瓜",
    "740": "春天",
    "741": "同事",
    "742": "米",
    "743": "合适",
    "744": "动",
    "745": "感情",
    "746": "无",
    "747": "惩罚",
    "748": "穷",
    "749": "圈",
    "750": "动车",
    "751": "追求",
    "752": "精彩",
    "753": "操心",
    "754": "机会",
    "755": "也",
    "756": "鼓励",
    "757": "吃亏",
    "758": "意见",
    "759": "硬",
    "760": "椅子",
    "761": "妻子",
    "762": "同意",
    "763": "丑",
    "764": "聋",
    "765": "房间",
    "766": "文章",
    "767": "方面",
    "768": "决赛",
    "769": "福气",
    "770": "谢谢",
    "771": "元",
    "772": "邮件",
    "773": "白内障",
    "774": "防止",
    "775": "厂",
    "776": "千",
    "777": "逃",
    "778": "放弃",
    "779": "语言",
    "780": "跑",
    "781": "把握",
    "782": "老实",
    "783": "金融",
    "784": "标志",
    "785": "手表",
    "786": "借",
    "787": "仍然",
    "788": "放假",
    "789": "配",
    "790": "拍",
    "791": "合同",
    "792": "旧",
    "793": "包括",
    "794": "或者",
    "795": "权力",
    "796": "战争",
    "797": "反",
    "798": "报告",
    "799": "人生",
    "800": "礼貌",
    "801": "离开",
    "802": "火锅",
    "803": "行李",
    "804": "接",
    "805": "故事",
    "806": "受伤",
    "807": "气",
    "808": "草稿",
    "809": "话",
    "810": "车站",
    "811": "晚",
    "812": "废",
    "813": "草",
    "814": "犯罪",
    "815": "退",
    "816": "市场",
    "817": "同",
    "818": "工厂",
    "819": "减肥",
    "820": "节日",
    "821": "艺术",
    "822": "饭",
    "823": "9",
    "824": "可爱",
    "825": "爱好",
    "826": "干净",
    "827": "拖延",
    "828": "篮球",
    "829": "抄",
    "830": "没关系",
    "831": "欢迎",
    "832": "满意",
    "833": "回家",
    "834": "面条",
    "835": "交通",
    "836": "护士",
    "837": "历史",
    "838": "紧张",
    "839": "优秀",
    "840": "本领",
    "841": "交",
    "842": "竞争",
    "843": "局部",
    "844": "包装",
    "845": "粉",
    "846": "结束",
    "847": "适合",
    "848": "流量",
    "849": "法",
    "850": "始终",
    "851": "读",
    "852": "性格",
    "853": "教训",
    "854": "光",
    "855": "英语",
    "856": "反调",
    "857": "伤害",
    "858": "摸鱼",
    "859": "兴趣",
    "860": "碗",
    "861": "发明",
    "862": "海",
    "863": "积极",
    "864": "行动",
    "865": "富贵",
    "866": "关心",
    "867": "避孕",
    "868": "这样",
    "869": "脏",
    "870": "缺点",
    "871": "意思",
    "872": "破",
    "873": "今",
    "874": "规律",
    "875": "团结",
    "876": "丈夫",
    "877": "陌生",
    "878": "分析",
    "879": "空调",
    "880": "新闻",
    "881": "比较",
    "882": "发烧",
    "883": "心跳",
    "884": "炎",
    "885": "装",
    "886": "文化",
    "887": "教室",
    "888": "正确",
    "889": "终于",
    "890": "理想",
    "891": "默",
    "892": "位置",
    "893": "旁边",
    "894": "或",
    "895": "说谎",
    "896": "足球",
    "897": "违反",
    "898": "流",
    "899": "本",
    "900": "留",
    "901": "逼",
    "902": "打胎",
    "903": "恶心",
    "904": "分之",
    "905": "快乐",
    "906": "厕所",
    "907": "运",
    "908": "陪",
    "909": "看不起",
    "910": "期待",
    "911": "血",
    "912": "石",
    "913": "伤",
    "914": "农民",
    "915": "半",
    "916": "错",
    "917": "原谅",
    "918": "呕吐",
    "919": "预报",
    "920": "推荐",
    "921": "鞋子",
    "922": "吸烟",
    "923": "按",
    "924": "乱",
    "925": "抓住",
    "926": "边",
    "927": "批评",
    "928": "向",
    "929": "各",
    "930": "桥",
    "931": "安排",
    "932": "低头",
    "933": "兴奋",
    "934": "回",
    "935": "争取",
    "936": "经理",
    "937": "着急",
    "938": "靠",
    "939": "秒",
    "940": "水平",
    "941": "幸运",
    "942": "生命",
    "943": "数",
    "944": "心理",
    "945": "思考",
    "946": "周围",
    "947": "买卖",
    "948": "温暖",
    "949": "跳",
    "950": "对不起",
    "951": "字",
    "952": "30",
    "953": "瘦",
    "954": "冰箱",
    "955": "超",
    "956": "黄",
    "957": "达到",
    "958": "放松",
    "959": "建立",
    "960": "诱惑",
    "961": "继续",
    "962": "师傅",
    "963": "总",
    "964": "调查",
    "965": "电子",
    "966": "看法",
    "967": "感谢",
    "968": "忍受",
    "969": "不好吃",
    "970": "打针",
    "971": "鬼",
    "972": "热情",
    "973": "限制",
    "974": "关闭",
    "975": "引起",
    "976": "距离",
    "977": "事故",
    "978": "遇到",
    "979": "无聊",
    "980": "脑子",
    "981": "辛苦",
    "982": "差",
    "983": "河",
    "984": "乒乓球",
    "985": "南",
    "986": "客气",
    "987": "只好",
    "988": "暖",
    "989": "短",
    "990": "饿",
    "991": "条",
    "992": "花钱",
    "993": "手指",
    "994": "长大",
    "995": "条件",
    "996": "不幸",
    "997": "不理",
    "998": "呼吸",
    "999": "批准",
    "1000": "管子",
    "1001": "吸引",
    "1002": "传统",
    "1003": "病历",
    "1004": "猜",
    "1005": "笨",
    "1006": "视频",
    "1007": "共产党",
    "1008": "左",
    "1009": "怎么办",
    "1010": "趋势",
    "1011": "控制",
    "1012": "段",
    "1013": "洪水",
    "1014": "空气",
    "1015": "验",
    "1016": "出门",
    "1017": "犹豫",
    "1018": "友谊",
    "1019": "内",
    "1020": "低",
    "1021": "指导",
    "1022": "表现",
    "1023": "晕",
    "1024": "久",
    "1025": "8",
    "1026": "球",
    "1027": "正常",
    "1028": "皮肤",
    "1029": "步",
    "1030": "恨",
    "1031": "虫",
    "1032": "线",
    "1033": "50",
    "1034": "其实",
    "1035": "聊天",
    "1036": "秘密",
    "1037": "建议",
    "1038": "商业",
    "1039": "烦",
    "1040": "符合",
    "1041": "事业",
    "1042": "顺利",
    "1043": "运动会",
    "1044": "反应",
    "1045": "唠叨",
    "1046": "分数",
    "1047": "下载",
    "1048": "头",
    "1049": "背后",
    "1050": "肚子",
    "1051": "神",
    "1052": "幸好",
    "1053": "出院",
    "1054": "洗",
    "1055": "北",
    "1056": "完",
    "1057": "咬",
    "1058": "窗",
    "1059": "见",
    "1060": "笔",
    "1061": "单",
    "1062": "客户",
    "1063": "星星",
    "1064": "实践",
    "1065": "网络",
    "1066": "资源",
    "1067": "回忆",
    "1068": "遇",
    "1069": "体育",
    "1070": "表",
    "1071": "干部",
    "1072": "练习",
    "1073": "满足",
    "1074": "船",
    "1075": "一辈子",
    "1076": "扫",
    "1077": "正好",
    "1078": "纪律",
    "1079": "古",
    "1080": "寄",
    "1081": "通知",
    "1082": "鸟",
    "1083": "事物",
    "1084": "能",
    "1085": "消息",
    "1086": "勉强",
    "1087": "邻居",
    "1088": "保持",
    "1089": "展示",
    "1090": "盒子",
    "1091": "夹",
    "1092": "词语",
    "1093": "安全套",
    "1094": "腿",
    "1095": "李",
    "1096": "阴",
    "1097": "选",
    "1098": "公园",
    "1099": "绿",
    "1100": "帽子",
    "1101": "身份",
    "1102": "严肃",
    "1103": "成长",
    "1104": "抱",
    "1105": "华",
    "1106": "建设",
    "1107": "目的",
    "1108": "老鼠",
    "1109": "利用",
    "1110": "飞",
    "1111": "平",
    "1112": "有趣",
    "1113": "资料",
    "1114": "运行",
    "1115": "马虎",
    "1116": "没用",
    "1117": "想法",
    "1118": "主动",
    "1119": "网站",
    "1120": "盲",
    "1121": "招",
    "1122": "特色",
    "1123": "不见",
    "1124": "好不好",
    "1125": "饺子",
    "1126": "十字路",
    "1127": "按键",
    "1128": "取消",
    "1129": "翻",
    "1130": "明星",
    "1131": "作为",
    "1132": "稳定",
    "1133": "矛盾",
    "1134": "锻炼",
    "1135": "部",
    "1136": "删除",
    "1137": "自由",
    "1138": "充分",
    "1139": "麻烦",
    "1140": "躺",
    "1141": "套",
    "1142": "500",
    "1143": "报复",
    "1144": "报纸",
    "1145": "甜",
    "1146": "香蕉",
    "1147": "酒店",
    "1148": "打折",
    "1149": "战斗",
    "1150": "地球",
    "1151": "理",
    "1152": "人流",
    "1153": "金",
    "1154": "这样子",
    "1155": "床",
    "1156": "感染",
    "1157": "滴",
    "1158": "恢复",
    "1159": "作文",
    "1160": "祖国",
    "1161": "灵活",
    "1162": "发票",
    "1163": "才",
    "1164": "自行车",
    "1165": "苦",
    "1166": "学会",
    "1167": "默默",
    "1168": "安",
    "1169": "默契",
    "1170": "转",
    "1171": "遵守",
    "1172": "牌子",
    "1173": "照片",
    "1174": "共",
    "1175": "叔叔",
    "1176": "计算",
    "1177": "没想到",
    "1178": "醒",
    "1179": "态度",
    "1180": "职业",
    "1181": "摔倒",
    "1182": "建筑",
    "1183": "园",
    "1184": "满",
    "1185": "翻译",
    "1186": "脚",
    "1187": "点头",
    "1188": "20",
    "1189": "咸",
    "1190": "奶",
    "1191": "果汁",
    "1192": "扔",
    "1193": "民族",
    "1194": "公平",
    "1195": "防",
    "1196": "退步",
    "1197": "天天",
    "1198": "服从",
    "1199": "唱歌",
    "1200": "文件",
    "1201": "其他",
    "1202": "印象",
    "1203": "没办法",
    "1204": "假",
    "1205": "上市",
    "1206": "抓",
    "1207": "贪",
    "1208": "油",
    "1209": "利息",
    "1210": "开除",
    "1211": "保证",
    "1212": "工人",
    "1213": "珍惜",
    "1214": "软件",
    "1215": "日本",
    "1216": "24",
    "1217": "街道",
    "1218": "校园",
    "1219": "肉",
    "1220": "战",
    "1221": "宽容",
    "1222": "印刷",
    "1223": "传遍",
    "1224": "统一",
    "1225": "目标",
    "1226": "克服",
    "1227": "演员",
    "1228": "脑",
    "1229": "耐心",
    "1230": "宝贵",
    "1231": "第二",
    "1232": "精",
    "1233": "瞎",
    "1234": "当",
    "1235": "篇",
    "1236": "未来",
    "1237": "爆炸",
    "1238": "活泼",
    "1239": "怀孕",
    "1240": "好处",
    "1241": "积累",
    "1242": "谦虚",
    "1243": "表面",
    "1244": "出现",
    "1245": "粗",
    "1246": "自私",
    "1247": "冷静",
    "1248": "云",
    "1249": "贷款",
    "1250": "温度",
    "1251": "巧克力",
    "1252": "蓝",
    "1253": "疯狂",
    "1254": "奖",
    "1255": "评价",
    "1256": "英雄",
    "1257": "改革",
    "1258": "形势",
    "1259": "障碍",
    "1260": "原则",
    "1261": "核对",
    "1262": "办",
    "1263": "逃跑",
    "1264": "杀",
    "1265": "办公室",
    "1266": "解放军",
    "1267": "场所",
    "1268": "沉默",
    "1269": "字典",
    "1270": "风景",
    "1271": "动作",
    "1272": "民",
    "1273": "记录",
    "1274": "内容",
    "1275": "考虑",
    "1276": "可",
    "1277": "APP",
    "1278": "直",
    "1279": "运气",
    "1280": "分开",
    "1281": "播放",
    "1282": "永远",
    "1283": "经过",
    "1284": "详细",
    "1285": "压力",
    "1286": "院",
    "1287": "创",
    "1288": "月亮",
    "1289": "台",
    "1290": "缩",
    "1291": "司",
    "1292": "业",
    "1293": "辈",
    "1294": "关门",
    "1295": "签证",
    "1296": "泡",
    "1297": "影子",
    "1298": "国民党",
    "1299": "做爱",
    "1300": "嫉妒",
    "1301": "耳机",
    "1302": "联欢",
    "1303": "愁眉",
    "1304": "打招呼",
    "1305": "保密",
    "1306": "漏",
    "1307": "口渴",
    "1308": "酸",
    "1309": "右",
    "1310": "优点",
    "1311": "毒",
    "1312": "捡",
    "1313": "15",
    "1314": "攻击",
    "1315": "湿",
    "1316": "工程",
    "1317": "从来",
    "1318": "参观",
    "1319": "丰富",
    "1320": "呆",
    "1321": "订",
    "1322": "整理",
    "1323": "不同意",
    "1324": "垃圾",
    "1325": "算了",
    "1326": "打扫",
    "1327": "基础",
    "1328": "赚钱",
    "1329": "无线",
    "1330": "密码",
    "1331": "食物",
    "1332": "听话",
    "1333": "中心",
    "1334": "观察",
    "1335": "惊讶",
    "1336": "依然",
    "1337": "卧铺",
    "1338": "害",
    "1339": "情感",
    "1340": "作品",
    "1341": "到处",
    "1342": "等于",
    "1343": "层",
    "1344": "前途",
    "1345": "烧",
    "1346": "通",
    "1347": "制度",
    "1348": "过来",
    "1349": "住院",
    "1350": "补贴",
    "1351": "招聘",
    "1352": "不相信",
    "1353": "区别",
    "1354": "文明",
    "1355": "提供",
    "1356": "全国",
    "1357": "直接",
    "1358": "博物",
    "1359": "不想",
    "1360": "之间",
    "1361": "淡",
    "1362": "装修",
    "1363": "重点",
    "1364": "航空",
    "1365": "责任",
    "1366": "避免",
    "1367": "星级",
    "1368": "露出",
    "1369": "迷信",
    "1370": "暑假",
    "1371": "倾诉",
    "1372": "堵",
    "1373": "扫地",
    "1374": "骑车",
    "1375": "钓",
    "1376": "岗位",
    "1377": "车祸",
    "1378": "革命",
    "1379": "导致",
    "1380": "服",
    "1381": "单位",
    "1382": "手臂",
    "1383": "出台",
    "1384": "羡慕",
    "1385": "大人",
    "1386": "神经",
    "1387": "脸红",
    "1388": "完美",
    "1389": "青春",
    "1390": "嫖娼",
    "1391": "引",
    "1392": "乱七八糟",
    "1393": "络绎不绝",
    "1394": "挤",
    "1395": "赢",
    "1396": "盖章",
    "1397": "几年",
    "1398": "智慧",
    "1399": "同时",
    "1400": "面子",
    "1401": "西",
    "1402": "70",
    "1403": "上当",
    "1404": "掉",
    "1405": "申",
    "1406": "命运",
    "1407": "小学",
    "1408": "提",
    "1409": "电梯",
    "1410": "亲密",
    "1411": "分手",
    "1412": "土",
    "1413": "天才",
    "1414": "混",
    "1415": "喧哗",
    "1416": "时候",
    "1417": "融合",
    "1418": "P",
    "1419": "11",
    "1420": "唯一",
    "1421": "律师",
    "1422": "郊区",
    "1423": "长江",
    "1424": "领事",
    "1425": "贪污",
    "1426": "一会儿",
    "1427": "提出",
    "1428": "新加坡",
    "1429": "麦当劳",
    "1430": "跳高",
    "1431": "加油",
    "1432": "模特",
    "1433": "敲",
    "1434": "基金会",
    "1435": "生意",
    "1436": "来自",
    "1437": "晚期",
    "1438": "抵抗",
    "1439": "遗传",
    "1440": "意外",
    "1441": "泄露",
    "1442": "可惜",
    "1443": "外卖",
    "1444": "失去",
    "1445": "蛋",
    "1446": "对面",
    "1447": "说明",
    "1448": "握手",
    "1449": "潜伏",
    "1450": "困",
    "1451": "形象",
    "1452": "设备",
    "1453": "紧",
    "1454": "唱",
    "1455": "观点",
    "1456": "作废",
    "1457": "武器",
    "1458": "来不及",
    "1459": "舍不得",
    "1460": "中奖",
    "1461": "尝试",
    "1462": "关注",
    "1463": "理论",
    "1464": "鼓掌",
    "1465": "落",
    "1466": "开放",
    "1467": "枪毙",
    "1468": "双",
    "1469": "丢脸",
    "1470": "地震",
    "1471": "至今",
    "1472": "地",
    "1473": "复杂",
    "1474": "踏实",
    "1475": "量",
    "1476": "晋级",
    "1477": "魔术",
    "1478": "群",
    "1479": "司机",
    "1480": "假装",
    "1481": "钢琴",
    "1482": "转弯",
    "1483": "镜子",
    "1484": "瓶",
    "1485": "哪里",
    "1486": "开学",
    "1487": "然后",
    "1488": "厅",
    "1489": "善良",
    "1490": "纷纷",
    "1491": "后果",
    "1492": "阿姨",
    "1493": "市",
    "1494": "数据",
    "1495": "数学",
    "1496": "临时",
    "1497": "资格",
    "1498": "表扬",
    "1499": "经历",
    "1500": "新鲜",
    "1501": "权利",
    "1502": "拆开",
    "1503": "极限",
    "1504": "一",
    "1505": "号召",
    "1506": "解放",
    "1507": "效率",
    "1508": "思想",
    "1509": "伯伯",
    "1510": "灰心",
    "1511": "欺骗",
    "1512": "日",
    "1513": "价格",
    "1514": "对方",
    "1515": "轻",
    "1516": "美好",
    "1517": "远离",
    "1518": "方案",
    "1519": "断",
    "1520": "家具",
    "1521": "采访",
    "1522": "亮",
    "1523": "英国",
    "1524": "赌博",
    "1525": "药物",
    "1526": "隐蔽",
    "1527": "大学生",
    "1528": "德",
    "1529": "雪白",
    "1530": "布",
    "1531": "领巾",
    "1532": "卫生",
    "1533": "四川",
    "1534": "戏剧",
    "1535": "任何",
    "1536": "揭开",
    "1537": "兵",
    "1538": "头发",
    "1539": "诗",
    "1540": "外婆",
    "1541": "秋天",
    "1542": "循环",
    "1543": "柳",
    "1544": "舅舅",
    "1545": "调整",
    "1546": "游客",
    "1547": "纱布",
    "1548": "擦",
    "1549": "正",
    "1550": "灭",
    "1551": "好听",
    "1552": "速度",
    "1553": "零食",
    "1554": "躲避",
    "1555": "臭",
    "1556": "局",
    "1557": "墙",
    "1558": "回报",
    "1559": "信用",
    "1560": "悠闲",
    "1561": "膝盖",
    "1562": "鼠标",
    "1563": "血压",
    "1564": "紧握",
    "1565": "出示",
    "1566": "残疾",
    "1567": "调皮",
    "1568": "牺牲",
    "1569": "仓库",
    "1570": "教材",
    "1571": "创业",
    "1572": "灰尘",
    "1573": "蚊子",
    "1574": "专家",
    "1575": "举手",
    "1576": "老虎",
    "1577": "宗教",
    "1578": "顺序",
    "1579": "学钱",
    "1580": "高峰",
    "1581": "记者",
    "1582": "胃",
    "1583": "免费",
    "1584": "监视",
    "1585": "勤奋",
    "1586": "时代",
    "1587": "比如",
    "1588": "党",
    "1589": "独立",
    "1590": "烦恼",
    "1591": "免钱",
    "1592": "风格",
    "1593": "模糊",
    "1594": "官",
    "1595": "了",
    "1596": "纪念",
    "1597": "志愿",
    "1598": "保养",
    "1599": "体检",
    "1600": "相处",
    "1601": "毛",
    "1602": "主席",
    "1603": "微笑",
    "1604": "修改",
    "1605": "小说",
    "1606": "贿赂",
    "1607": "和平",
    "1608": "侦探",
    "1609": "高考",
    "1610": "阻止",
    "1611": "工具",
    "1612": "鲁迅",
    "1613": "汉堡",
    "1614": "杂志",
    "1615": "解释",
    "1616": "流产",
    "1617": "小气",
    "1618": "广播",
    "1619": "日子",
    "1620": "斤",
    "1621": "糊涂",
    "1622": "相反",
    "1623": "创新",
    "1624": "打印",
    "1625": "现场",
    "1626": "专业",
    "1627": "悄悄",
    "1628": "承诺",
    "1629": "犯错",
    "1630": "共享",
    "1631": "负担",
    "1632": "包庇",
    "1633": "误会",
    "1634": "一点",
    "1635": "思维",
    "1636": "上帝",
    "1637": "荣誉",
    "1638": "幽默",
    "1639": "牛肉",
    "1640": "获得",
    "1641": "炒菜",
    "1642": "入",
    "1643": "杂技",
    "1644": "0",
    "1645": "刀",
    "1646": "彩色",
    "1647": "机构",
    "1648": "培训",
    "1649": "定位",
    "1650": "武汉",
    "1651": "刺",
    "1652": "预约",
    "1653": "托",
    "1654": "胀",
    "1655": "薄",
    "1656": "香港",
    "1657": "私",
    "1658": "厚",
    "1659": "兔子",
    "1660": "看不见",
    "1661": "报",
    "1662": "朝鲜",
    "1663": "小心",
    "1664": "画",
    "1665": "社区",
    "1666": "容易",
    "1667": "灯塔",
    "1668": "牙齿",
    "1669": "偶像",
    "1670": "交易",
    "1671": "肠",
    "1672": "剪",
    "1673": "湖",
    "1674": "大便",
    "1675": "d",
    "1676": "砍",
    "1677": "摔",
    "1678": "凶",
    "1679": "错过",
    "1680": "东方明珠",
    "1681": "讲",
    "1682": "平静",
    "1683": "宝宝",
    "1684": "左手",
    "1685": "移动",
    "1686": "闭嘴",
    "1687": "考验",
    "1688": "赶紧",
    "1689": "萎缩",
    "1690": "守护",
    "1691": "美德",
    "1692": "重新",
    "1693": "义务",
    "1694": "警惕",
    "1695": "没收",
    "1696": "排球",
    "1697": "环节",
    "1698": "浪费",
    "1699": "表白",
    "1700": "支出",
    "1701": "内在",
    "1702": "敏感",
    "1703": "征服",
    "1704": "填写",
    "1705": "证",
    "1706": "伟大",
    "1707": "尴尬",
    "1708": "下班",
    "1709": "值得",
    "1710": "脱离",
    "1711": "划算",
    "1712": "吹",
    "1713": "规则",
    "1714": "副",
    "1715": "下面",
    "1716": "得到",
    "1717": "放学",
    "1718": "12",
    "1719": "打架",
    "1720": "自卑",
    "1721": "一半",
    "1722": "说话",
    "1723": "不能",
    "1724": "焦急",
    "1725": "连续",
    "1726": "数量",
    "1727": "二",
    "1728": "完善",
    "1729": "一并",
    "1730": "概念",
    "1731": "确认",
    "1732": "齐全",
    "1733": "恐怖",
    "1734": "前进",
    "1735": "钱补",
    "1736": "火箭",
    "1737": "收集",
    "1738": "乞丐",
    "1739": "部门",
    "1740": "关于",
    "1741": "正式",
    "1742": "建造",
    "1743": "到底",
    "1744": "文字",
    "1745": "主流",
    "1746": "有点",
    "1747": "消费",
    "1748": "头痛",
    "1749": "截止",
    "1750": "优惠",
    "1751": "骗子",
    "1752": "收入",
    "1753": "功能",
    "1754": "话题",
    "1755": "珍贵",
    "1756": "人品",
    "1757": "尊严",
    "1758": "台湾",
    "1759": "过度",
    "1760": "中文",
    "1761": "病毒",
    "1762": "账号",
    "1763": "消失",
    "1764": "形",
    "1765": "汗水",
    "1766": "做事",
    "1767": "写明",
    "1768": "签字",
    "1769": "打扰",
    "1770": "队伍",
    "1771": "冲动",
    "1772": "枪",
    "1773": "宠爱",
    "1774": "造成",
    "1775": "流星",
    "1776": "员",
    "1777": "歪曲",
    "1778": "称谓",
    "1779": "选举",
    "1780": "需要",
    "1781": "捞",
    "1782": "童年",
    "1783": "贝壳",
    "1784": "咳嗽",
    "1785": "头疼",
    "1786": "剧",
    "1787": "种子",
    "1788": "森林",
    "1789": "茂盛",
    "1790": "装饰",
    "1791": "绕",
    "1792": "顾问",
    "1793": "更多",
    "1794": "迪士尼",
    "1795": "车流",
    "1796": "光荣",
    "1797": "围绕",
    "1798": "放大",
    "1799": "激烈",
    "1800": "抽",
    "1801": "紧缩",
    "1802": "猴子",
    "1803": "监狱",
    "1804": "现实",
    "1805": "放心",
    "1806": "宽",
    "1807": "气氛",
    "1808": "晴",
    "1809": "陶醉",
    "1810": "吨",
    "1811": "嫁",
    "1812": "业务",
    "1813": "铁塔",
    "1814": "法国",
    "1815": "不如",
    "1816": "骚扰",
    "1817": "证件",
    "1818": "利益",
    "1819": "小姐",
    "1820": "瓜",
    "1821": "成都",
    "1822": "谣言",
    "1823": "45",
    "1824": "阅兵",
    "1825": "旗",
    "1826": "心情",
    "1827": "箱",
    "1828": "调",
    "1829": "入学",
    "1830": "道",
    "1831": "惊喜",
    "1832": "眼镜",
    "1833": "国王",
    "1834": "虎",
    "1835": "32",
    "1836": "消防",
    "1837": "醒悟",
    "1838": "回头",
    "1839": "经商",
    "1840": "葡萄",
    "1841": "抬",
    "1842": "牙",
    "1843": "车胎",
    "1844": "漏气",
    "1845": "钢笔",
    "1846": "程度",
    "1847": "肥",
    "1848": "警告",
    "1849": "两",
    "1850": "核桃",
    "1851": "掌握",
    "1852": "计较",
    "1853": "腹",
    "1854": "淹没",
    "1855": "针",
    "1856": "赵本山",
    "1857": "房",
    "1858": "切",
    "1859": "土豆",
    "1860": "袜子",
    "1861": "75",
    "1862": "亿",
    "1863": "柱",
    "1864": "98",
    "1865": "汗",
    "1866": "登",
    "1867": "圣诞",
    "1868": "奔驰",
    "1869": "被子",
    "1870": "b",
    "1871": "摸",
    "1872": "传",
    "1873": "猪",
    "1874": "划",
    "1875": "版",
    "1876": "以身作则",
    "1877": "忽悠",
    "1878": "PPT",
    "1879": "蓝色",
    "1880": "庆祝",
    "1881": "看不惯",
    "1882": "别人",
    "1883": "戴",
    "1884": "口味",
    "1885": "犯",
    "1886": "急救",
    "1887": "视力",
    "1888": "斑马",
    "1889": "舍得",
    "1890": "人身",
    "1891": "这生",
    "1892": "大事",
    "1893": "共事",
    "1894": "洞",
    "1895": "起来",
    "1896": "不在",
    "1897": "婉转",
    "1898": "商家",
    "1899": "温柔",
    "1900": "过世",
    "1901": "人口",
    "1902": "许可",
    "1903": "18",
    "1904": "寻找",
    "1905": "高速公路",
    "1906": "飘扬",
    "1907": "端",
    "1908": "睡",
    "1909": "战阵",
    "1910": "地形",
    "1911": "全面",
    "1912": "懂得",
    "1913": "一切",
    "1914": "将来",
    "1915": "高中",
    "1916": "太多",
    "1917": "告白",
    "1918": "铅笔",
    "1919": "不久",
    "1920": "望着",
    "1921": "天空",
    "1922": "怎样",
    "1923": "黑暗",
    "1924": "暗",
    "1925": "找到",
    "1926": "占",
    "1927": "尽量",
    "1928": "预告",
    "1929": "格式",
    "1930": "亏",
    "1931": "更新",
    "1932": "进行",
    "1933": "刷",
    "1934": "居住",
    "1935": "好心",
    "1936": "年货",
    "1937": "集体",
    "1938": "事件",
    "1939": "针对",
    "1940": "减少",
    "1941": "犯规",
    "1942": "国际",
    "1943": "花费",
    "1944": "懒",
    "1945": "连接",
    "1946": "瞪",
    "1947": "粥",
    "1948": "拼命",
    "1949": "破解",
    "1950": "马",
    "1951": "最低",
    "1952": "觉",
    "1953": "格子",
    "1954": "答",
    "1955": "天安门",
    "1956": "动画",
    "1957": "中华",
    "1958": "小明",
    "1959": "吹棒",
    "1960": "踢球",
    "1961": "铁",
    "1962": "液体",
    "1963": "奥运",
    "1964": "讨厌",
    "1965": "值班",
    "1966": "外地",
    "1967": "重视",
    "1968": "偏",
    "1969": "证据",
    "1970": "扣",
    "1971": "上面",
    "1972": "捐钱",
    "1973": "传销",
    "1974": "折服",
    "1975": "节约",
    "1976": "平衡",
    "1977": "刚刚",
    "1978": "爱情",
    "1979": "上台",
    "1980": "听不见",
    "1981": "老婆",
    "1982": "碰到",
    "1983": "心脏",
    "1984": "馆",
    "1985": "文物",
    "1986": "非常",
    "1987": "语文",
    "1988": "就是",
    "1989": "已",
    "1990": "袋子",
    "1991": "抽烟",
    "1992": "痛苦",
    "1993": "球技",
    "1994": "球迷",
    "1995": "没门",
    "1996": "名称",
    "1997": "注册",
    "1998": "好看",
    "1999": "球队",
    "2000": "救援",
    "2001": "会员",
    "2002": "敲打",
    "2003": "欠"
  },
  "counter": {
    "你们": 211,
    "好": 1527,
    "对不起": 26,
    "没关系": 34,
    "谢谢": 39,
    "礼貌": 37,
    "不": 1999,
    "你": 3048,
    "名字": 81,
    "什么": 1124,
    "我": 5766,
    "孩子": 345,
    "他": 3649,
    "谁": 117,
    "手语": 126,
    "老师": 619,
    "是": 1588,
    "不是": 272,
    "学生": 225,
    "花": 115,
    "上海": 182,
    "人": 2646,
    "同学": 208,
    "朋友": 382,
    "房子": 1135,
    "多少": 346,
    "3": 165,
    "女儿": 109,
    "年龄": 137,
    "今天": 944,
    "4": 51,
    "李": 20,
    "50": 22,
    "20": 17,
    "会": 695,
    "妈妈": 612,
    "不会": 152,
    "中国": 272,
    "菜": 174,
    "味道": 45,
    "炒": 134,
    "写": 322,
    "不好吃": 25,
    "问": 139,
    "十": 119,
    "1": 1508,
    "星期": 111,
    "昨天": 107,
    "日期": 120,
    "明天": 335,
    "6": 94,
    "学校": 323,
    "去": 1211,
    "踢足球": 54,
    "做": 746,
    "看": 1258,
    "书": 344,
    "想": 1163,
    "喝": 402,
    "茶叶": 89,
    "吃": 1010,
    "饭": 35,
    "面": 54,
    "下午": 69,
    "超市": 177,
    "买": 680,
    "这": 2853,
    "元": 39,
    "学": 480,
    "狗": 53,
    "在": 666,
    "哪": 66,
    "小": 682,
    "猫": 98,
    "桌子": 76,
    "下": 147,
    "爸爸": 532,
    "医院": 162,
    "工作": 1003,
    "儿子": 79,
    "医生": 250,
    "椅子": 40,
    "杯子": 50,
    "他们": 404,
    "有": 1588,
    "电脑": 173,
    "红": 115,
    "后": 243,
    "明": 70,
    "商店": 99,
    "没有": 1309,
    "可以": 1030,
    "请": 202,
    "里": 161,
    "位置": 29,
    "美国": 124,
    "点": 204,
    "中午": 70,
    "5": 126,
    "我们": 1361,
    "电影": 248,
    "时间": 841,
    "北京": 152,
    "睡觉": 245,
    "天": 286,
    "前": 215,
    "下雨": 165,
    "王": 130,
    "来": 390,
    "天气": 129,
    "冷": 68,
    "怎么样": 70,
    "热": 146,
    "身体": 344,
    "不好": 365,
    "水果": 104,
    "多": 1983,
    "水": 167,
    "一样": 204,
    "上": 163,
    "网": 70,
    "早": 293,
    "电视": 99,
    "喜欢": 553,
    "不喜欢": 276,
    "微信": 82,
    "发送": 120,
    "东西": 403,
    "张": 75,
    "小时": 97,
    "衣服": 182,
    "美丽": 326,
    "好了": 483,
    "认识": 115,
    "年": 452,
    "祝福": 77,
    "高兴": 132,
    "飞机": 133,
    "火车": 189,
    "出租车": 101,
    "饭店": 120,
    "2": 480,
    "和": 271,
    "驾驶": 196,
    "要": 1563,
    "旅游": 253,
    "9": 35,
    "月": 96,
    "为什么": 81,
    "运动": 187,
    "一起": 202,
    "新": 307,
    "眼睛": 53,
    "汽车": 50,
    "乒乓球": 24,
    "病": 417,
    "跑步": 98,
    "每天": 257,
    "起床": 67,
    "药": 132,
    "出院": 21,
    "说": 884,
    "周": 89,
    "高": 166,
    "知道": 201,
    "休息": 82,
    "忙": 48,
    "这样": 31,
    "累": 91,
    "手表": 38,
    "钱": 739,
    "丈夫": 30,
    "旁边": 29,
    "颜色": 87,
    "粉": 33,
    "左": 23,
    "大": 399,
    "生": 91,
    "日": 9,
    "快乐": 28,
    "礼物": 100,
    "生日": 100,
    "不知道": 80,
    "晚上": 337,
    "字": 26,
    "开始": 180,
    "介绍": 70,
    "帮助": 326,
    "苹果": 62,
    "外": 184,
    "准备": 207,
    "鱼": 54,
    "咖啡": 84,
    "怎么": 133,
    "门": 46,
    "因为": 245,
    "所以": 52,
    "游泳": 51,
    "最近": 53,
    "见面": 50,
    "生病": 52,
    "还": 436,
    "考试": 248,
    "路": 224,
    "公司": 272,
    "远": 136,
    "公交车": 82,
    "慢": 136,
    "堵": 12,
    "车": 175,
    "给": 498,
    "过": 71,
    "近": 99,
    "走": 328,
    "分": 128,
    "到": 655,
    "好不好": 19,
    "告诉": 96,
    "等": 172,
    "叫": 134,
    "找": 362,
    "事情": 515,
    "听": 190,
    "服务": 83,
    "员工": 181,
    "开": 110,
    "不行": 1042,
    "预定": 56,
    "脏": 31,
    "跳舞": 180,
    "希望": 69,
    "跟": 45,
    "没": 59,
    "问题": 141,
    "欢迎": 34,
    "成功": 255,
    "难": 265,
    "课": 165,
    "手机": 293,
    "期": 103,
    "放": 116,
    "洗": 21,
    "挂": 63,
    "男": 161,
    "女": 248,
    "报纸": 18,
    "哥哥": 113,
    "比": 135,
    "便宜": 57,
    "大概": 171,
    "陌生": 30,
    "一般": 136,
    "妻子": 40,
    "雪": 57,
    "穿": 102,
    "姐姐": 127,
    "手": 43,
    "拿": 249,
    "笑": 46,
    "但是": 425,
    "自己": 1057,
    "贵": 105,
    "票": 153,
    "站": 128,
    "快": 416,
    "对": 571,
    "妹妹": 84,
    "分钟": 115,
    "30": 26,
    "阴": 20,
    "7": 77,
    "打算": 76,
    "请客": 45,
    "上网": 51,
    "一直": 363,
    "急": 74,
    "复习": 55,
    "南": 24,
    "北": 21,
    "面包": 61,
    "带": 283,
    "漏": 14,
    "坐": 114,
    "送": 131,
    "伞": 53,
    "胖": 67,
    "怎么办": 23,
    "其实": 22,
    "瘦": 26,
    "作业": 50,
    "云": 15,
    "山": 111,
    "爬": 71,
    "注意": 144,
    "裤子": 54,
    "记得": 124,
    "真": 186,
    "西瓜": 42,
    "还是": 60,
    "甜": 18,
    "或": 29,
    "舒服": 82,
    "春天": 42,
    "最": 297,
    "裙子": 76,
    "越": 117,
    "好吃": 53,
    "刚才": 136,
    "牛奶": 89,
    "同事": 42,
    "以前": 135,
    "银行": 129,
    "兴趣": 32,
    "结婚": 125,
    "合肥": 60,
    "离开": 37,
    "变化": 70,
    "全部": 665,
    "健康": 44,
    "重要": 184,
    "就": 61,
    "蛋糕": 62,
    "最后": 93,
    "害怕": 183,
    "担心": 133,
    "了解": 88,
    "城市": 45,
    "玩": 177,
    "客气": 24,
    "可爱": 35,
    "请假": 66,
    "大学": 163,
    "联系": 158,
    "平时": 66,
    "爱好": 35,
    "不用": 62,
    "长": 113,
    "为": 350,
    "肯定": 103,
    "从": 75,
    "选择": 130,
    "著名": 62,
    "环境": 68,
    "经常": 142,
    "夫妻": 59,
    "同意": 40,
    "只": 93,
    "信": 148,
    "机会": 41,
    "努力": 289,
    "吃饭": 64,
    "脸": 138,
    "像": 239,
    "分析": 30,
    "弟弟": 75,
    "除了": 88,
    "地方": 129,
    "楼": 52,
    "忘记": 120,
    "酒": 131,
    "客": 103,
    "扫地": 12,
    "让": 260,
    "干净": 35,
    "先": 103,
    "把": 114,
    "冰箱": 26,
    "空调": 30,
    "方便": 176,
    "新闻": 30,
    "大家": 215,
    "满意": 34,
    "住": 52,
    "过节": 65,
    "回家": 34,
    "高铁": 89,
    "机场": 57,
    "身份证": 86,
    "护照": 106,
    "拖延": 35,
    "预报": 27,
    "斤": 7,
    "晚": 36,
    "包": 105,
    "篮球": 35,
    "倒": 44,
    "试": 77,
    "那": 233,
    "附近": 59,
    "厕所": 28,
    "火锅": 37,
    "对面": 11,
    "感冒": 156,
    "付": 107,
    "应该": 179,
    "坏": 171,
    "堵车": 81,
    "地铁": 134,
    "冬天": 106,
    "发现": 150,
    "行李": 37,
    "读书": 187,
    "饺子": 19,
    "完": 21,
    "香蕉": 18,
    "辣": 43,
    "酒店": 18,
    "口渴": 14,
    "饱": 95,
    "米": 42,
    "简单": 213,
    "老板": 135,
    "丑": 40,
    "只好": 24,
    "酸": 14,
    "主": 45,
    "面条": 34,
    "十字路": 19,
    "风": 67,
    "咬": 21,
    "比较": 30,
    "接": 37,
    "丢": 121,
    "用": 253,
    "收": 88,
    "右": 14,
    "咸": 17,
    "进": 112,
    "检查": 162,
    "箱子": 50,
    "宾馆": 85,
    "安全": 108,
    "重": 47,
    "运": 28,
    "牛肉": 6,
    "窗": 21,
    "换": 63,
    "迟到": 89,
    "通过": 85,
    "警察": 85,
    "超": 26,
    "推荐": 27,
    "卧铺": 13,
    "增加": 246,
    "方法": 273,
    "借": 38,
    "老": 137,
    "如果": 204,
    "然后": 10,
    "过去": 100,
    "涨": 66,
    "餐巾": 62,
    "糖": 54,
    "奶": 17,
    "暖": 24,
    "亲属": 150,
    "奶奶": 66,
    "打折": 18,
    "见": 21,
    "也": 41,
    "选": 20,
    "班": 49,
    "排队": 81,
    "聋": 40,
    "交流": 108,
    "按键": 19,
    "贷款": 15,
    "讨论": 64,
    "爷爷": 106,
    "完成": 111,
    "仍然": 38,
    "笔": 21,
    "害": 13,
    "公园": 20,
    "免费": 8,
    "骑车": 12,
    "合适": 42,
    "保护": 104,
    "交通": 34,
    "来往": 71,
    "厅": 10,
    "绿": 20,
    "灯": 64,
    "取消": 19,
    "熟悉": 87,
    "降": 69,
    "干": 45,
    "认真": 63,
    "温度": 15,
    "单": 21,
    "果汁": 17,
    "肉": 16,
    "们": 122,
    "巧克力": 15,
    "发烧": 30,
    "手术": 48,
    "帽子": 20,
    "一些": 44,
    "鞋子": 27,
    "护士": 34,
    "陪": 28,
    "号码": 53,
    "放假": 38,
    "钓": 12,
    "喊": 50,
    "游戏": 58,
    "发": 95,
    "蓝": 15,
    "黑": 54,
    "结束": 33,
    "照顾": 51,
    "说明": 11,
    "会议": 99,
    "短": 24,
    "黄": 26,
    "打针": 25,
    "爱": 64,
    "教": 190,
    "严重": 62,
    "客户": 21,
    "种": 57,
    "邮件": 39,
    "饿": 24,
    "碗": 32,
    "聊天": 22,
    "适合": 33,
    "癌": 60,
    "战": 16,
    "心": 268,
    "心跳": 30,
    "研究": 127,
    "爱护": 96,
    "预防": 86,
    "各种": 264,
    "观众": 76,
    "特别": 66,
    "死": 74,
    "战斗": 18,
    "强": 102,
    "接受": 161,
    "痛": 83,
    "吸烟": 27,
    "性": 56,
    "变": 252,
    "治疗": 45,
    "奇怪": 70,
    "提高": 102,
    "艾滋": 74,
    "广告": 96,
    "宣传": 63,
    "传染": 81,
    "看不起": 28,
    "握手": 11,
    "潜伏": 11,
    "白内障": 39,
    "效果": 52,
    "错误": 211,
    "发生": 145,
    "道理": 190,
    "白天": 114,
    "翻": 19,
    "按照": 55,
    "困": 11,
    "通宵": 50,
    "精神": 75,
    "星星": 21,
    "不管": 90,
    "坚持": 56,
    "岗位": 12,
    "地球": 18,
    "鬼": 25,
    "勇敢": 63,
    "疯狂": 15,
    "随便": 71,
    "斑马线": 72,
    "出": 94,
    "车祸": 12,
    "按": 27,
    "条": 24,
    "形象": 11,
    "宽容": 16,
    "热情": 25,
    "榜样": 99,
    "力量": 76,
    "发明": 32,
    "阑尾": 63,
    "炎": 30,
    "每": 272,
    "得": 140,
    "革命": 12,
    "蓝牙": 69,
    "笔记本": 66,
    "配": 38,
    "技术": 163,
    "限制": 25,
    "失败": 164,
    "原来": 70,
    "理": 18,
    "实践": 21,
    "过程": 55,
    "生活": 287,
    "规定": 54,
    "社会": 115,
    "科学": 72,
    "发展": 147,
    "趋势": 23,
    "设计": 50,
    "秘密": 22,
    "改变": 174,
    "奖": 15,
    "鼓励": 41,
    "花钱": 24,
    "建议": 22,
    "装": 30,
    "导致": 12,
    "网络": 21,
    "流量": 33,
    "减": 56,
    "资源": 21,
    "程序": 48,
    "关闭": 25,
    "节省": 88,
    "动": 42,
    "监视": 8,
    "商业": 22,
    "人流": 18,
    "身份": 20,
    "乱": 27,
    "达到": 26,
    "少": 143,
    "卡": 83,
    "明星": 19,
    "被": 64,
    "评价": 15,
    "脉搏": 60,
    "准确": 61,
    "抓住": 27,
    "必须": 261,
    "根据": 95,
    "弱": 56,
    "回忆": 21,
    "价格": 9,
    "遇": 21,
    "拍": 38,
    "惊吓": 72,
    "体育": 21,
    "机器": 59,
    "分别": 62,
    "表": 21,
    "复印": 62,
    "印刷": 16,
    "故事": 37,
    "空": 52,
    "不够": 98,
    "清楚": 86,
    "法": 33,
    "拍照": 60,
    "第一": 114,
    "合同": 38,
    "感动": 72,
    "哭": 86,
    "情感": 13,
    "期待": 28,
    "深": 47,
    "作为": 19,
    "干部": 21,
    "勤奋": 8,
    "行为": 50,
    "影响": 145,
    "知识": 63,
    "边": 27,
    "批评": 27,
    "班长": 71,
    "向": 27,
    "句子": 54,
    "传遍": 16,
    "服": 12,
    "保险": 71,
    "参加": 82,
    "吃亏": 41,
    "负责": 109,
    "烦": 22,
    "单位": 12,
    "防止": 39,
    "定": 107,
    "骗": 59,
    "设备": 11,
    "受伤": 37,
    "金": 18,
    "这样子": 18,
    "绷带": 63,
    "手指": 24,
    "血": 28,
    "停止": 44,
    "店": 79,
    "手臂": 12,
    "紧": 11,
    "床": 18,
    "优点": 14,
    "缺点": 31,
    "电": 67,
    "质量": 63,
    "不懂": 103,
    "中": 130,
    "毒": 14,
    "出台": 12,
    "羡慕": 12,
    "安装": 63,
    "算": 78,
    "修": 55,
    "升": 56,
    "标准": 70,
    "严格": 48,
    "要求": 144,
    "大人": 12,
    "回答": 64,
    "声音": 70,
    "练习": 21,
    "统一": 16,
    "产品": 55,
    "控制": 23,
    "符合": 22,
    "还有": 54,
    "表情": 46,
    "严肃": 20,
    "成长": 20,
    "幸福": 54,
    "满足": 21,
    "感染": 18,
    "付出": 59,
    "历史": 34,
    "缺少": 117,
    "抱": 20,
    "海": 32,
    "船": 21,
    "进步": 49,
    "引起": 25,
    "滴": 18,
    "石": 28,
    "作品": 13,
    "目标": 16,
    "英雄": 15,
    "代表": 76,
    "积极": 32,
    "音乐": 71,
    "唱": 11,
    "倒霉": 101,
    "伤": 28,
    "恢复": 18,
    "作文": 18,
    "始终": 33,
    "演讲": 43,
    "扔": 17,
    "华": 20,
    "民族": 17,
    "时代": 8,
    "改革": 15,
    "祖国": 18,
    "到处": 13,
    "情况": 198,
    "厂": 39,
    "废": 36,
    "旧": 38,
    "建设": 20,
    "领导": 151,
    "形势": 15,
    "意思": 31,
    "样子": 87,
    "人们": 119,
    "事业": 22,
    "障碍": 15,
    "赚": 102,
    "沟通": 74,
    "解决": 62,
    "感情": 42,
    "破": 31,
    "牛": 62,
    "国": 49,
    "顺利": 22,
    "互相": 123,
    "原则": 15,
    "项目": 56,
    "国家": 104,
    "指": 77,
    "文化": 30,
    "意见": 41,
    "目的": 20,
    "各": 27,
    "桥": 27,
    "今": 31,
    "草": 36,
    "估计": 66,
    "生产": 66,
    "经验": 120,
    "农村": 47,
    "千": 39,
    "万": 62,
    "成绩": 70,
    "公平": 17,
    "运动会": 22,
    "等于": 13,
    "差不多": 90,
    "敌人": 46,
    "足够": 47,
    "克服": 16,
    "行动": 32,
    "贴": 77,
    "活动": 58,
    "几": 95,
    "读": 33,
    "段": 23,
    "一辈子": 21,
    "阶段": 49,
    "安排": 27,
    "树": 58,
    "固定": 47,
    "放松": 26,
    "队": 70,
    "教室": 30,
    "灵活": 18,
    "感觉": 294,
    "稳定": 19,
    "存": 45,
    "养": 73,
    "习惯": 45,
    "难过": 57,
    "危险": 84,
    "捡": 14,
    "表格": 103,
    "核对": 15,
    "存折": 51,
    "办": 15,
    "15": 14,
    "包括": 38,
    "签名": 160,
    "发票": 18,
    "不同": 95,
    "神经": 12,
    "过敏": 84,
    "口": 61,
    "或者": 38,
    "反应": 22,
    "安静": 128,
    "自然": 89,
    "紧张": 34,
    "老鼠": 20,
    "逃跑": 15,
    "杀": 15,
    "办公室": 15,
    "骂": 48,
    "别": 201,
    "嘲笑": 84,
    "合作": 69,
    "企业": 43,
    "建立": 26,
    "外国": 157,
    "才": 18,
    "观点": 11,
    "攻击": 14,
    "扫": 21,
    "怀疑": 70,
    "经济": 65,
    "矛盾": 19,
    "脸红": 12,
    "层": 13,
    "防": 17,
    "洪水": 23,
    "集中": 51,
    "退步": 17,
    "解放军": 15,
    "消灭": 49,
    "权力": 38,
    "任务": 53,
    "政府": 62,
    "房间": 40,
    "重复": 101,
    "农民": 28,
    "天天": 17,
    "救": 47,
    "处理": 114,
    "利用": 20,
    "作废": 11,
    "空气": 23,
    "完美": 12,
    "法律": 92,
    "规律": 31,
    "犯罪": 36,
    "逃": 39,
    "又": 53,
    "服从": 17,
    "富贵": 32,
    "长大": 24,
    "力": 57,
    "管理": 50,
    "比如": 8,
    "抵挡": 66,
    "考": 56,
    "距离": 25,
    "验": 23,
    "活": 44,
    "承认": 69,
    "低头": 27,
    "证明": 52,
    "诱惑": 26,
    "世界": 121,
    "说谎": 29,
    "年轻": 87,
    "放弃": 39,
    "飞": 20,
    "青春": 12,
    "后悔": 87,
    "打": 58,
    "正好": 21,
    "公": 63,
    "场所": 15,
    "禁止": 64,
    "火": 45,
    "武器": 11,
    "自行车": 18,
    "动物": 59,
    "军": 49,
    "纪律": 21,
    "唠叨": 22,
    "条件": 24,
    "拒绝": 86,
    "无": 42,
    "善良": 10,
    "苦": 18,
    "对方": 9,
    "爱-1": 57,
    "个": 45,
    "班级": 70,
    "比赛": 127,
    "报名": 73,
    "纷纷": 10,
    "足球": 29,
    "毕业": 67,
    "后果": 10,
    "违反": 29,
    "惩罚": 42,
    "不幸": 24,
    "事故": 25,
    "碰": 54,
    "轻": 9,
    "出门": 23,
    "犹豫": 23,
    "离婚": 71,
    "沉默": 15,
    "性格": 33,
    "次": 70,
    "决定": 149,
    "嫖娼": 12,
    "不理": 24,
    "怪不得": 47,
    "个月": 49,
    "突然": 48,
    "美好": 9,
    "教训": 33,
    "恋爱": 57,
    "平": 20,
    "理解": 69,
    "尊重": 122,
    "学会": 18,
    "默默": 18,
    "友谊": 23,
    "支持": 56,
    "消失": 3,
    "方式": 79,
    "远离": 9,
    "打扮": 49,
    "党": 8,
    "电话": 44,
    "独立": 8,
    "流行": 69,
    "优秀": 34,
    "引": 12,
    "连": 65,
    "古": 21,
    "字典": 15,
    "文": 44,
    "录取": 45,
    "宣布": 52,
    "分数": 22,
    "工": 84,
    "乱七八糟": 12,
    "梦想": 60,
    "兴奋": 27,
    "前途": 13,
    "光": 33,
    "寄": 21,
    "安": 18,
    "烦恼": 8,
    "通知": 21,
    "流": 29,
    "湿": 14,
    "有趣": 20,
    "风景": 15,
    "破坏": 56,
    "络绎不绝": 12,
    "计划": 67,
    "呼吸": 24,
    "方案": 9,
    "继续": 26,
    "半": 28,
    "失望": 45,
    "战争": 38,
    "白": 81,
    "烧": 13,
    "回": 27,
    "锻炼": 19,
    "断": 9,
    "唱歌": 17,
    "模仿": 116,
    "动作": 15,
    "演员": 16,
    "鸟": 21,
    "形": 3,
    "正确": 30,
    "气": 37,
    "文章": 40,
    "争取": 27,
    "劳动": 86,
    "汗水": 3,
    "脑": 16,
    "经理": 27,
    "插": 60,
    "挤": 12,
    "品": 104,
    "百": 101,
    "配合": 57,
    "默契": 18,
    "赢": 12,
    "部": 19,
    "抢": 48,
    "冠军": 54,
    "方": 54,
    "民": 15,
    "退": 36,
    "着急": 27,
    "欺负": 75,
    "穷": 42,
    "本领": 34,
    "靠": 27,
    "反": 38,
    "纸": 111,
    "交": 34,
    "专门": 46,
    "做事": 3,
    "写明": 3,
    "资料": 20,
    "盖章": 12,
    "师傅": 26,
    "签字": 3,
    "文件": 17,
    "记录": 15,
    "申请": 50,
    "报告": 38,
    "内": 23,
    "强调": 56,
    "仔细": 50,
    "遇到": 25,
    "内容": 15,
    "题目": 48,
    "工程": 14,
    "考虑": 15,
    "市场": 36,
    "运行": 20,
    "组": 216,
    "本": 29,
    "同": 36,
    "删除": 19,
    "来不及": 11,
    "批准": 24,
    "从来": 14,
    "低": 23,
    "工厂": 36,
    "指导": 23,
    "吸取": 45,
    "阿姨": 10,
    "无聊": 25,
    "抱怨": 66,
    "可": 15,
    "打扰": 3,
    "聪明": 154,
    "人生": 38,
    "认为": 53,
    "几年": 12,
    "懂": 66,
    "脑子": 25,
    "获得": 6,
    "智慧": 12,
    "表现": 23,
    "同时": 12,
    "事物": 21,
    "骄傲": 160,
    "通": 13,
    "减肥": 36,
    "总结": 74,
    "输液": 53,
    "晕": 23,
    "总": 26,
    "管子": 24,
    "参观": 14,
    "圈": 42,
    "久": 23,
    "面子": 12,
    "团": 66,
    "秒": 27,
    "工资": 116,
    "水平": 27,
    "语言": 39,
    "能力": 62,
    "提前": 63,
    "卖": 76,
    "能": 21,
    "吸引": 24,
    "节日": 36,
    "动车": 42,
    "舍不得": 11,
    "短信息": 62,
    "结果": 111,
    "免钱": 8,
    "代替": 74,
    "中奖": 11,
    "留": 29,
    "转": 18,
    "幸运": 27,
    "快递": 96,
    "对象": 44,
    "家具": 9,
    "追求": 42,
    "采访": 9,
    "竞争": 34,
    "调查": 26,
    "多媒体": 51,
    "系统": 85,
    "二维码": 50,
    "红包": 90,
    "下载": 22,
    "APP": 15,
    "圆": 51,
    "玻璃": 49,
    "精彩": 42,
    "遵守": 18,
    "方面": 40,
    "制度": 13,
    "得罪": 49,
    "尝试": 11,
    "消息": 21,
    "其他": 17,
    "方向": 68,
    "错": 28,
    "跑": 39,
    "牌子": 18,
    "糊涂": 7,
    "直": 15,
    "把握": 39,
    "西": 12,
    "过来": 13,
    "70": 12,
    "耐心": 16,
    "八宝粥": 58,
    "传统": 24,
    "丰富": 14,
    "呆": 14,
    "亮": 9,
    "印象": 17,
    "上当": 12,
    "生气": 65,
    "自由": 19,
    "害羞": 81,
    "照片": 18,
    "订": 14,
    "马虎": 20,
    "病历": 24,
    "掉": 12,
    "电子": 26,
    "住院": 13,
    "兼职": 59,
    "补贴": 13,
    "申": 12,
    "市": 10,
    "差别": 51,
    "运气": 15,
    "关注": 11,
    "勉强": 21,
    "共": 18,
    "偷": 48,
    "生命": 27,
    "宝贵": 16,
    "8": 23,
    "钥匙": 68,
    "没办法": 17,
    "理论": 11,
    "数": 27,
    "老实": 39,
    "假": 17,
    "招聘": 13,
    "命运": 12,
    "第二": 16,
    "头": 22,
    "数据": 10,
    "硬": 41,
    "球": 23,
    "部分": 92,
    "分开": 15,
    "彩票": 50,
    "不相信": 13,
    "叔叔": 18,
    "英国": 9,
    "上市": 17,
    "草稿": 37,
    "区别": 13,
    "数学": 10,
    "背后": 22,
    "精": 16,
    "正常": 23,
    "艺术": 36,
    "追": 67,
    "场合": 43,
    "瞎": 16,
    "表示": 43,
    "文明": 13,
    "计算": 18,
    "提供": 13,
    "抄": 35,
    "没想到": 18,
    "作弊": 69,
    "大雨": 43,
    "没用": 20,
    "终于": 30,
    "区": 51,
    "邻居": 21,
    "搬": 69,
    "鼓掌": 11,
    "抓": 17,
    "落": 11,
    "保持": 21,
    "临时": 10,
    "想法": 20,
    "整理": 14,
    "猜": 24,
    "辛苦": 25,
    "接触": 55,
    "皮肤": 23,
    "金融": 39,
    "股票": 107,
    "贪": 17,
    "局部": 34,
    "全国": 13,
    "画画": 56,
    "展示": 21,
    "决赛": 40,
    "播放": 15,
    "资格": 10,
    "肯德基": 45,
    "不同意": 14,
    "垃圾": 14,
    "直接": 13,
    "小学": 12,
    "英语": 33,
    "表扬": 10,
    "当": 16,
    "风格": 8,
    "论文": 46,
    "篇": 16,
    "醒": 18,
    "充分": 19,
    "反对": 58,
    "开放": 11,
    "否认": 102,
    "答案": 62,
    "看法": 26,
    "未来": 16,
    "枪毙": 11,
    "双": 11,
    "炒菜": 6,
    "反调": 33,
    "麻烦": 19,
    "提": 12,
    "沉迷": 49,
    "赌博": 9,
    "主动": 20,
    "丢脸": 11,
    "话": 37,
    "原谅": 28,
    "吃不消": 63,
    "肚子": 22,
    "态度": 18,
    "算了": 14,
    "躲": 51,
    "地震": 11,
    "爆炸": 16,
    "翻脸": 43,
    "逼": 29,
    "吵架": 56,
    "活泼": 16,
    "团结": 31,
    "过期": 44,
    "药物": 9,
    "永远": 15,
    "怀孕": 16,
    "打胎": 29,
    "伤害": 33,
    "博物": 13,
    "呕吐": 28,
    "不想": 13,
    "恶心": 29,
    "油": 17,
    "躺": 19,
    "好处": 16,
    "至今": 11,
    "惭愧": 65,
    "彻底": 56,
    "打扫": 14,
    "经过": 15,
    "详细": 15,
    "车站": 37,
    "关心": 32,
    "积累": 16,
    "心理": 27,
    "套": 19,
    "思考": 27,
    "步": 23,
    "货": 65,
    "分之": 29,
    "地": 11,
    "隐蔽": 9,
    "处方": 50,
    "压力": 15,
    "大学生": 9,
    "之间": 13,
    "复杂": 11,
    "经历": 10,
    "恨": 23,
    "利息": 17,
    "开除": 17,
    "乏味": 43,
    "淡": 13,
    "道歉": 65,
    "电梯": 12,
    "当面": 52,
    "侥幸": 48,
    "踏实": 11,
    "谦虚": 16,
    "茫然": 53,
    "周围": 27,
    "神": 22,
    "安慰": 53,
    "亲密": 12,
    "装修": 13,
    "500": 19,
    "保证": 17,
    "工人": 17,
    "量": 11,
    "重点": 13,
    "幸好": 22,
    "差": 25,
    "职业": 18,
    "基础": 14,
    "包装": 34,
    "盒子": 21,
    "买卖": 27,
    "网站": 20,
    "院": 15,
    "分手": 12,
    "避孕": 32,
    "珍惜": 17,
    "表面": 16,
    "操心": 42,
    "查询": 99,
    "航空": 13,
    "信息": 47,
    "超过": 56,
    "摔倒": 18,
    "称赞": 51,
    "承包": 51,
    "建筑": 18,
    "土": 12,
    "崇拜": 116,
    "盲": 20,
    "抽血": 53,
    "租": 101,
    "赚钱": 14,
    "河": 25,
    "德": 9,
    "虫": 23,
    "辞职": 61,
    "创": 15,
    "晋级": 11,
    "笨": 24,
    "天才": 12,
    "借款": 56,
    "地图": 62,
    "导航": 65,
    "月亮": 15,
    "混": 12,
    "无线": 14,
    "软件": 17,
    "登记": 57,
    "入": 6,
    "定居": 57,
    "日本": 17,
    "喧哗": 12,
    "园": 18,
    "雪白": 9,
    "愿意": 66,
    "理想": 30,
    "差点": 72,
    "厨师": 51,
    "布": 9,
    "成熟": 57,
    "密码": 14,
    "夹": 21,
    "担架": 48,
    "责任": 13,
    "借口": 66,
    "词语": 21,
    "感谢": 26,
    "联想": 54,
    "温暖": 27,
    "娃娃": 63,
    "福气": 40,
    "招": 20,
    "模糊": 8,
    "弹幕": 51,
    "下面": 5,
    "满": 18,
    "队伍": 3,
    "亲切": 51,
    "相反": 7,
    "魔术": 11,
    "杂技": 6,
    "台": 15,
    "赋": 63,
    "得到": 5,
    "冲动": 3,
    "跳": 27,
    "枪": 3,
    "冷场": 45,
    "时候": 12,
    "避免": 13,
    "融合": 12,
    "缩": 15,
    "摸鱼": 33,
    "默": 30,
    "偶": 51,
    "嫌弃": 60,
    "委屈": 57,
    "记仇": 54,
    "宠爱": 3,
    "0": 6,
    "处罚": 69,
    "官": 8,
    "司": 15,
    "业": 15,
    "阻拦": 60,
    "字幕": 60,
    "翻译": 18,
    "视频": 24,
    "出现": 16,
    "P": 12,
    "卑": 60,
    "造成": 3,
    "遗憾": 60,
    "流星": 3,
    "封面": 93,
    "群": 11,
    "片子": 65,
    "刺激": 69,
    "11": 12,
    "线": 23,
    "标志": 39,
    "领巾": 9,
    "员": 3,
    "辈": 15,
    "歪曲": 3,
    "24": 17,
    "称谓": 3,
    "选举": 3,
    "需要": 3,
    "司机": 11,
    "焦急": 4,
    "新鲜": 10,
    "连续": 4,
    "数量": 4,
    "权利": 10,
    "故障": 74,
    "关节": 63,
    "二": 4,
    "完善": 4,
    "一并": 4,
    "核磁共振": 86,
    "食物": 14,
    "急诊": 76,
    "关门": 15,
    "创新": 7,
    "粗": 16,
    "捞": 3,
    "卫生": 9,
    "办理": 69,
    "刀": 6,
    "听话": 14,
    "唯一": 12,
    "假装": 11,
    "童年": 3,
    "彩色": 6,
    "贝壳": 3,
    "放学": 5,
    "咳嗽": 3,
    "头疼": 3,
    "机构": 6,
    "培训": 6,
    "四川": 9,
    "剧": 3,
    "戏剧": 9,
    "打印": 7,
    "了": 8,
    "任何": 9,
    "定位": 6,
    "特色": 20,
    "种子": 3,
    "森林": 3,
    "茂盛": 3,
    "装饰": 3,
    "绕": 3,
    "律师": 12,
    "顾问": 3,
    "更多": 3,
    "现场": 7,
    "报复": 19,
    "迪士尼": 3,
    "中心": 14,
    "郊区": 12,
    "车流": 3,
    "光荣": 3,
    "围绕": 3,
    "武汉": 6,
    "长江": 12,
    "放大": 3,
    "揭开": 9,
    "兵": 9,
    "激烈": 3,
    "抽": 3,
    "紧缩": 3,
    "安全套": 21,
    "刺": 6,
    "拆开": 10,
    "头发": 9,
    "签证": 15,
    "预约": 6,
    "领事": 12,
    "猴子": 3,
    "贪污": 12,
    "监狱": 3,
    "泡": 15,
    "脚": 18,
    "诗": 9,
    "现实": 3,
    "专业": 7,
    "外婆": 9,
    "托": 6,
    "放心": 3,
    "宽": 3,
    "秋天": 9,
    "气氛": 3,
    "悄悄": 7,
    "一会儿": 12,
    "晴": 3,
    "陶醉": 3,
    "影子": 15,
    "循环": 9,
    "胀": 6,
    "吨": 3,
    "嫁": 3,
    "薄": 6,
    "业务": 3,
    "柳": 9,
    "铁塔": 3,
    "法国": 3,
    "纪念": 8,
    "忍受": 26,
    "舅舅": 9,
    "不如": 3,
    "极限": 10,
    "骚扰": 3,
    "证件": 3,
    "香港": 6,
    "共产党": 24,
    "国民党": 15,
    "利益": 3,
    "小姐": 3,
    "私": 6,
    "瓜": 3,
    "成都": 3,
    "厚": 6,
    "提出": 12,
    "兔子": 6,
    "新加坡": 12,
    "谣言": 3,
    "45": 3,
    "阅兵": 3,
    "旗": 3,
    "麦当劳": 12,
    "看不见": 6,
    "调整": 9,
    "心情": 3,
    "箱": 3,
    "调": 3,
    "入学": 3,
    "做爱": 15,
    "道": 3,
    "惊喜": 3,
    "报": 6,
    "嫉妒": 15,
    "眼镜": 3,
    "点头": 18,
    "耳机": 15,
    "游客": 9,
    "自私": 16,
    "跳高": 12,
    "纱布": 9,
    "国王": 3,
    "加油": 12,
    "朝鲜": 6,
    "虎": 3,
    "小心": 6,
    "擦": 9,
    "画": 6,
    "32": 3,
    "正": 9,
    "社区": 6,
    "志愿": 8,
    "保养": 8,
    "灭": 9,
    "消防": 3,
    "冷静": 16,
    "醒悟": 3,
    "回头": 3,
    "星级": 13,
    "好听": 9,
    "联欢": 15,
    "钢琴": 11,
    "体检": 8,
    "转弯": 11,
    "容易": 6,
    "灯塔": 6,
    "经商": 3,
    "葡萄": 3,
    "速度": 9,
    "牙齿": 6,
    "零食": 9,
    "抬": 3,
    "牙": 3,
    "车胎": 3,
    "漏气": 3,
    "钢笔": 3,
    "程度": 3,
    "躲避": 9,
    "偶像": 6,
    "肥": 3,
    "交易": 6,
    "警告": 3,
    "两": 3,
    "承诺": 7,
    "核桃": 3,
    "掌握": 3,
    "计较": 3,
    "模特": 12,
    "肠": 6,
    "腹": 3,
    "镜子": 11,
    "剪": 6,
    "淹没": 3,
    "针": 3,
    "相处": 8,
    "赵本山": 3,
    "敲": 12,
    "房": 3,
    "瓶": 11,
    "切": 3,
    "土豆": 3,
    "露出": 13,
    "袜子": 3,
    "75": 3,
    "亿": 3,
    "湖": 6,
    "大便": 6,
    "臭": 9,
    "柱": 3,
    "98": 3,
    "汗": 3,
    "毛": 8,
    "主席": 8,
    "登": 3,
    "局": 9,
    "圣诞": 3,
    "奔驰": 3,
    "被子": 3,
    "一": 10,
    "b": 3,
    "腿": 21,
    "摸": 3,
    "d": 6,
    "传": 3,
    "墙": 9,
    "砍": 6,
    "猪": 3,
    "划": 3,
    "版": 3,
    "摔": 6,
    "回报": 9,
    "信用": 9,
    "以身作则": 3,
    "凶": 6,
    "错过": 6,
    "悠闲": 9,
    "愁眉": 15,
    "东方明珠": 6,
    "忽悠": 3,
    "基金会": 12,
    "打招呼": 15,
    "PPT": 3,
    "蓝色": 3,
    "庆祝": 3,
    "看不惯": 3,
    "微笑": 8,
    "别人": 3,
    "戴": 3,
    "口味": 3,
    "犯错": 7,
    "犯": 3,
    "不见": 20,
    "讲": 6,
    "生意": 12,
    "来自": 12,
    "晚期": 12,
    "急救": 3,
    "12": 5,
    "抵抗": 12,
    "遗传": 12,
    "膝盖": 9,
    "视力": 3,
    "街道": 17,
    "斑马": 3,
    "鼠标": 9,
    "舍得": 3,
    "血压": 9,
    "平静": 6,
    "紧握": 9,
    "哪里": 11,
    "宝宝": 6,
    "共享": 7,
    "出示": 9,
    "残疾": 9,
    "意外": 12,
    "号召": 10,
    "修改": 8,
    "人身": 3,
    "左手": 6,
    "观察": 14,
    "调皮": 9,
    "牺牲": 9,
    "小说": 8,
    "解放": 10,
    "仓库": 9,
    "教材": 9,
    "打架": 5,
    "创业": 9,
    "移动": 6,
    "灰尘": 9,
    "蚊子": 9,
    "专家": 9,
    "这生": 3,
    "举手": 9,
    "泄露": 12,
    "老虎": 9,
    "效率": 10,
    "大事": 3,
    "共事": 3,
    "保密": 15,
    "宗教": 9,
    "闭嘴": 6,
    "负担": 7,
    "洞": 3,
    "考验": 6,
    "思想": 10,
    "起来": 3,
    "包庇": 7,
    "迷信": 13,
    "不在": 3,
    "婉转": 3,
    "惊讶": 14,
    "贿赂": 8,
    "商家": 3,
    "温柔": 3,
    "开学": 11,
    "伯伯": 10,
    "和平": 8,
    "误会": 7,
    "赶紧": 6,
    "侦探": 8,
    "萎缩": 6,
    "格子": 2,
    "可惜": 12,
    "答": 2,
    "天安门": 2,
    "灰心": 10,
    "顺序": 9,
    "动画": 2,
    "守护": 6,
    "美德": 6,
    "中华": 2,
    "概念": 4,
    "重新": 6,
    "确认": 4,
    "齐全": 4,
    "义务": 6,
    "高考": 8,
    "暑假": 13,
    "警惕": 6,
    "恐怖": 4,
    "倾诉": 13,
    "前进": 4,
    "钱补": 4,
    "没收": 6,
    "小明": 2,
    "一点": 7,
    "吹棒": 2,
    "外卖": 12,
    "阻止": 8,
    "踢球": 2,
    "工具": 8,
    "铁": 2,
    "火箭": 4,
    "收集": 4,
    "液体": 2,
    "乞丐": 4,
    "鲁迅": 8,
    "部门": 4,
    "思维": 7,
    "关于": 4,
    "上帝": 7,
    "排球": 6,
    "奥运": 2,
    "荣誉": 7,
    "正式": 4,
    "汉堡": 8,
    "讨厌": 2,
    "建造": 4,
    "环节": 6,
    "自卑": 5,
    "值班": 2,
    "到底": 4,
    "杂志": 8,
    "外地": 2,
    "文字": 4,
    "重视": 2,
    "主流": 4,
    "有点": 4,
    "偏": 2,
    "证据": 2,
    "消费": 4,
    "依然": 14,
    "扣": 2,
    "一半": 5,
    "解释": 8,
    "浪费": 6,
    "校园": 17,
    "欠": 1,
    "头痛": 4,
    "上面": 2,
    "截止": 4,
    "捐钱": 2,
    "优惠": 4,
    "流产": 8,
    "骗子": 4,
    "传销": 2,
    "小气": 8,
    "折服": 2,
    "表白": 6,
    "支出": 6,
    "收入": 4,
    "节约": 2,
    "平衡": 2,
    "广播": 8,
    "刚刚": 2,
    "功能": 4,
    "欺骗": 10,
    "爱情": 2,
    "幽默": 7,
    "上台": 2,
    "话题": 4,
    "听不见": 2,
    "老婆": 2,
    "碰到": 2,
    "心脏": 2,
    "珍贵": 4,
    "馆": 2,
    "文物": 2,
    "非常": 2,
    "语文": 2,
    "内在": 6,
    "就是": 2,
    "人品": 4,
    "尊严": 4,
    "说话": 5,
    "已": 2,
    "台湾": 4,
    "过度": 4,
    "袋子": 2,
    "抽烟": 2,
    "痛苦": 2,
    "敏感": 6,
    "征服": 6,
    "不能": 5,
    "球技": 2,
    "球迷": 2,
    "日子": 8,
    "没门": 2,
    "中文": 4,
    "名称": 2,
    "注册": 2,
    "好看": 2,
    "病毒": 4,
    "球队": 2,
    "学钱": 9,
    "救援": 2,
    "填写": 6,
    "过世": 3,
    "人口": 3,
    "许可": 3,
    "证": 6,
    "18": 3,
    "会员": 2,
    "账号": 4,
    "敲打": 2,
    "寻找": 3,
    "高峰": 9,
    "高速公路": 3,
    "飘扬": 3,
    "端": 3,
    "睡": 3,
    "战阵": 3,
    "地形": 3,
    "全面": 3,
    "懂得": 3,
    "失去": 12,
    "一切": 3,
    "记者": 9,
    "将来": 3,
    "高中": 3,
    "太多": 3,
    "告白": 3,
    "铅笔": 3,
    "不久": 3,
    "望着": 3,
    "天空": 3,
    "怎样": 3,
    "黑暗": 3,
    "暗": 3,
    "找到": 3,
    "占": 3,
    "伟大": 6,
    "尴尬": 6,
    "尽量": 3,
    "下班": 6,
    "值得": 6,
    "预告": 3,
    "格式": 3,
    "脱离": 6,
    "亏": 3,
    "更新": 3,
    "进行": 3,
    "刷": 3,
    "居住": 3,
    "好心": 3,
    "划算": 6,
    "年货": 3,
    "集体": 3,
    "事件": 3,
    "针对": 3,
    "减少": 3,
    "吹": 6,
    "规则": 6,
    "犯规": 3,
    "国际": 3,
    "花费": 3,
    "懒": 3,
    "副": 6,
    "连接": 3,
    "瞪": 3,
    "粥": 3,
    "拼命": 3,
    "破解": 3,
    "胃": 9,
    "马": 3,
    "最低": 3,
    "觉": 3,
    "蛋": 12
  }
}