{
  "word_vocab": {
    "<PAD>": 0,
    "<BOS>": 1,
    "<EOS>": 2,
    "<UNK>": 3,
    "的": 4,
    "我": 5,
    "了": 6,
    "他": 7,
    "不": 8,
    "你": 9,
    "是": 10,
    "在": 11,
    "很": 12,
    "我们": 13,
    "人": 14,
    "有": 15,
    "一": 16,
    "去": 17,
    "都": 18,
    "要": 19,
    "这": 20,
    "会": 21,
    "和": 22,
    "能": 23,
    "就": 24,
    "好": 25,
    "想": 26,
    "上": 27,
    "没有": 28,
    "自己": 29,
    "对": 30,
    "什么": 31,
    "吃": 32,
    "也": 33,
    "到": 34,
    "可以": 35,
    "一个": 36,
    "喜欢": 37,
    "工作": 38,
    "买": 39,
    "老师": 40,
    "看": 41,
    "多": 42,
    "这个": 43,
    "做": 44,
    "给": 45,
    "让": 46,
    "不要": 47,
    "个": 48,
    "很多": 49,
    "把": 50,
    "今天": 51,
    "得": 52,
    "吗": 53,
    "来": 54,
    "还": 55,
    "着": 56,
    "里": 57,
    "地": 58,
    "时候": 59,
    "他们": 60,
    "说": 61,
    "现在": 62,
    "妈妈": 63,
    "被": 64,
    "中": 65,
    "太": 66,
    "没": 67,
    "时": 68,
    "为": 69,
    "学习": 70,
    "大家": 71,
    "明天": 72,
    "爸爸": 73,
    "但": 74,
    "学校": 75,
    "公司": 76,
    "用": 77,
    "大": 78,
    "后": 79,
    "最": 80,
    "同学": 81,
    "件": 82,
    "不是": 83,
    "过": 84,
    "请": 85,
    "已经": 86,
    "因为": 87,
    "手机": 88,
    "生活": 89,
    "喝": 90,
    "那": 91,
    "们": 92,
    "找": 93,
    "非常": 94,
    "吧": 95,
    "每天": 96,
    "下": 97,
    "应该": 98,
    "怎么": 99,
    "钱": 100,
    "种": 101,
    "中国": 102,
    "朋友": 103,
    "晚上": 104,
    "需要": 105,
    "电影": 106,
    "为了": 107,
    "时间": 108,
    "事情": 109,
    "几": 110,
    "她": 111,
    "旅游": 112,
    "又": 113,
    "事": 114,
    "但是": 115,
    "再": 116,
    "只": 117,
    "还是": 118,
    "两": 119,
    "考试": 120,
    "孩子": 121,
    "身体": 122,
    "如果": 123,
    "从": 124,
    "努力": 125,
    "回家": 126,
    "超市": 127,
    "就是": 128,
    "别人": 129,
    "写": 130,
    "衣服": 131,
    "上海": 132,
    "准备": 133,
    "小": 134,
    "与": 135,
    "而": 136,
    "医生": 137,
    "更": 138,
    "东西": 139,
    "新": 140,
    "问题": 141,
    "走": 142,
    "大学": 143,
    "必须": 144,
    "坐": 145,
    "开始": 146,
    "年": 147,
    "知道": 148,
    "漂亮": 149,
    "带": 150,
    "条": 151,
    "才": 152,
    "点": 153,
    "总是": 154,
    "开车": 155,
    "哪里": 156,
    "方便": 157,
    "感到": 158,
    "错误": 159,
    "感冒": 160,
    "认识": 161,
    "虽然": 162,
    "一起": 163,
    "北京": 164,
    "电脑": 165,
    "学生": 166,
    "一下": 167,
    "张": 168,
    "向": 169,
    "出": 170,
    "父母": 171,
    "将": 172,
    "真": 173,
    "一些": 174,
    "帮助": 175,
    "这次": 176,
    "每个": 177,
    "结果": 178,
    "次": 179,
    "这是": 180,
    "并": 181,
    "谁": 182,
    "医院": 183,
    "吃饭": 184,
    "你们": 185,
    "发现": 186,
    "呢": 187,
    "这么": 188,
    "发展": 189,
    "觉得": 190,
    "运动": 191,
    "天气": 192,
    "完": 193,
    "却": 194,
    "老板": 195,
    "比赛": 196,
    "天": 197,
    "第一": 198,
    "等": 199,
    "这种": 200,
    "打": 201,
    "睡觉": 202,
    "每": 203,
    "手语": 204,
    "经常": 205,
    "互相": 206,
    "房间": 207,
    "一定": 208,
    "聪明": 209,
    "菜": 210,
    "一点": 211,
    "决定": 212,
    "美国": 213,
    "帮": 214,
    "一直": 215,
    "通过": 216,
    "社会": 217,
    "比": 218,
    "担心": 219,
    "快": 220,
    "技术": 221,
    "崇拜": 222,
    "少": 223,
    "成功": 224,
    "白天": 225,
    "困难": 226,
    "这里": 227,
    "有点": 228,
    "查询": 229,
    "经验": 230,
    "地方": 231,
    "护照": 232,
    "受到": 233,
    "饭店": 234,
    "了解": 235,
    "答案": 236,
    "进行": 237,
    "安静": 238,
    "女儿": 239,
    "提高": 240,
    "尊重": 241,
    "下雨": 242,
    "穿": 243,
    "重要": 244,
    "工资": 245,
    "注意": 246,
    "水果": 247,
    "生日": 248,
    "最近": 249,
    "拿": 250,
    "地铁": 251,
    "失败": 252,
    "昨天": 253,
    "害怕": 254,
    "像": 255,
    "出来": 256,
    "不同": 257,
    "成绩": 258,
    "发": 259,
    "分钟": 260,
    "发生": 261,
    "一样": 262,
    "情况": 263,
    "玩": 264,
    "爷爷": 265,
    "处理": 266,
    "方式": 267,
    "礼物": 268,
    "别": 269,
    "安全": 270,
    "图书馆": 271,
    "它": 272,
    "容易": 273,
    "附近": 274,
    "起来": 275,
    "这家": 276,
    "系统": 277,
    "上班": 278,
    "小时": 279,
    "高": 280,
    "姐姐": 281,
    "送": 282,
    "起": 283,
    "方法": 284,
    "组织": 285,
    "所以": 286,
    "只有": 287,
    "世界": 288,
    "快递": 289,
    "股票": 290,
    "封面": 291,
    "这些": 292,
    "为什么": 293,
    "哥哥": 294,
    "使": 295,
    "总": 296,
    "人们": 297,
    "儿子": 298,
    "那个": 299,
    "水": 300,
    "银行": 301,
    "份": 302,
    "多少": 303,
    "生病": 304,
    "啊": 305,
    "身份证": 306,
    "懂": 307,
    "好吃": 308,
    "前": 309,
    "牛奶": 310,
    "高铁": 311,
    "广告": 312,
    "十分": 313,
    "以": 314,
    "受": 315,
    "追求": 316,
    "三": 317,
    "之后": 318,
    "杯": 319,
    "迟到": 320,
    "当": 321,
    "火车": 322,
    "听": 323,
    "可能": 324,
    "除了": 325,
    "乘坐": 326,
    "联系": 327,
    "红包": 328,
    "完成": 329,
    "办法": 330,
    "提前": 331,
    "家里": 332,
    "微信": 333,
    "下来": 334,
    "长": 335,
    "许多": 336,
    "我家": 337,
    "出去": 338,
    "越来越": 339,
    "国家": 340,
    "猫": 341,
    "跑步": 342,
    "跟": 343,
    "出差": 344,
    "班长": 345,
    "拒绝": 346,
    "道理": 347,
    "法律": 348,
    "十": 349,
    "月": 350,
    "早上": 351,
    "这样": 352,
    "作业": 353,
    "作为": 354,
    "打车": 355,
    "咖啡": 356,
    "开": 357,
    "打算": 358,
    "那么": 359,
    "名": 360,
    "工人": 361,
    "表演": 362,
    "冷": 363,
    "难": 364,
    "宾馆": 365,
    "那些": 366,
    "由于": 367,
    "变": 368,
    "要求": 369,
    "找到": 370,
    "女朋友": 371,
    "一般": 372,
    "可": 373,
    "作品": 374,
    "今年": 375,
    "比较": 376,
    "上课": 377,
    "看到": 378,
    "不够": 379,
    "之间": 380,
    "报名": 381,
    "下午": 382,
    "飞机": 383,
    "告诉": 384,
    "过去": 385,
    "短信": 386,
    "保险": 387,
    "由": 388,
    "感受": 389,
    "机场": 390,
    "榜样": 391,
    "标准": 392,
    "总结": 393,
    "代替": 394,
    "叫": 395,
    "结婚": 396,
    "使用": 397,
    "缺少": 398,
    "及时": 399,
    "讲": 400,
    "表格": 401,
    "故障": 402,
    "住": 403,
    "交流": 404,
    "方面": 405,
    "的话": 406,
    "后悔": 407,
    "累": 408,
    "妹妹": 409,
    "喝酒": 410,
    "堵车": 411,
    "影响": 412,
    "参加": 413,
    "表情": 414,
    "过敏": 415,
    "终于": 416,
    "家": 417,
    "看见": 418,
    "好好": 419,
    "艾滋病": 420,
    "离婚": 421,
    "还有": 422,
    "贵": 423,
    "舒服": 424,
    "沟通": 425,
    "既": 426,
    "理解": 427,
    "商店": 428,
    "听说": 429,
    "说话": 430,
    "贷款": 431,
    "蓝牙": 432,
    "笔记本": 433,
    "出国": 434,
    "签字": 435,
    "抱怨": 436,
    "差不多": 437,
    "爱护": 438,
    "嘲笑": 439,
    "一家": 440,
    "回来": 441,
    "休息": 442,
    "希望": 443,
    "刚才": 444,
    "经过": 445,
    "各种": 446,
    "怀疑": 447,
    "彻底": 448,
    "急诊室": 449,
    "岁": 450,
    "先": 451,
    "人生": 452,
    "领导": 453,
    "核磁共振": 454,
    "精神": 455,
    "斑马线": 456,
    "行为": 457,
    "估计": 458,
    "保护": 459,
    "爱": 460,
    "倒霉": 461,
    "裙子": 462,
    "吃饱": 463,
    "班": 464,
    "超过": 465,
    "日期": 466,
    "地图": 467,
    "刺激": 468,
    "惭愧": 469,
    "导航": 470,
    "足球": 471,
    "就要": 472,
    "好看": 473,
    "减少": 474,
    "人民": 475,
    "排队": 476,
    "相处": 477,
    "申请": 478,
    "苹果": 479,
    "妻子": 480,
    "变化": 481,
    "弟弟": 482,
    "熟悉": 483,
    "计划": 484,
    "活动": 485,
    "承认": 486,
    "毕业": 487,
    "应": 488,
    "模仿": 489,
    "能力": 490,
    "兼职": 491,
    "作弊": 492,
    "大致": 493,
    "借口": 494,
    "天赋": 495,
    "最好": 496,
    "汽车": 497,
    "其实": 498,
    "蛋糕": 499,
    "之前": 500,
    "位": 501,
    "强调": 502,
    "方向": 503,
    "道歉": 504,
    "自卑": 505,
    "名片": 506,
    "怎么样": 507,
    "还要": 508,
    "严重": 509,
    "任何": 510,
    "家属": 511,
    "元": 512,
    "负责": 513,
    "报酬": 514,
    "小明": 515,
    "饮料": 516,
    "刚": 517,
    "合肥": 518,
    "状态": 519,
    "阑尾炎": 520,
    "产品": 521,
    "挂失": 522,
    "合作": 523,
    "配合": 524,
    "欺负": 525,
    "话": 526,
    "偶像": 527,
    "定居": 528,
    "嫌弃": 529,
    "自愿": 530,
    "自豪": 531,
    "遗憾": 532,
    "组团": 533,
    "处罚": 534,
    "杯子": 535,
    "公交车": 536,
    "健康": 537,
    "环境": 538,
    "才能": 539,
    "安装": 540,
    "篇": 541,
    "节约": 542,
    "害羞": 543,
    "重复": 544,
    "高兴": 545,
    "起床": 546,
    "场": 547,
    "辞职": 548,
    "离": 549,
    "房子": 550,
    "票": 551,
    "车站": 552,
    "病人": 553,
    "得到": 554,
    "绷带": 555,
    "解决": 556,
    "成熟": 557,
    "惊吓": 558,
    "委屈": 559,
    "记仇": 560,
    "阻拦": 561,
    "傲慢": 562,
    "关节": 563,
    "桌子": 564,
    "记得": 565,
    "主要": 566,
    "早饭": 567,
    "只能": 568,
    "检查": 569,
    "提供": 570,
    "只是": 571,
    "王": 572,
    "随着": 573,
    "感动": 574,
    "已": 575,
    "保持": 576,
    "任务": 577,
    "录取": 578,
    "按照": 579,
    "赚": 580,
    "个人": 581,
    "电视": 582,
    "大雨": 583,
    "遇到": 584,
    "所有": 585,
    "根据": 586,
    "办理": 587,
    "集中": 588,
    "出现": 589,
    "请假": 590,
    "连": 591,
    "八宝粥": 592,
    "部分": 593,
    "顾客": 594,
    "打扮": 595,
    "小王": 596,
    "以后": 597,
    "远": 598,
    "跳舞": 599,
    "男朋友": 600,
    "书": 601,
    "胖": 602,
    "裤子": 603,
    "夏天": 604,
    "最后": 605,
    "只要": 606,
    "马上": 607,
    "游戏": 608,
    "原因": 609,
    "冠军": 610,
    "知识": 611,
    "补贴": 612,
    "钥匙": 613,
    "分别": 614,
    "前方": 615,
    "否认": 616,
    "吃货": 617,
    "字幕": 618,
    "您": 619,
    "饭": 620,
    "爬山": 621,
    "路": 622,
    "上学": 623,
    "低": 624,
    "规定": 625,
    "生命": 626,
    "取得": 627,
    "禁止": 628,
    "该": 629,
    "恶心": 630,
    "大概": 631,
    "远亲": 632,
    "有人": 633,
    "面包": 634,
    "应当": 635,
    "教育": 636,
    "对象": 637,
    "财物": 638,
    "踢": 639,
    "在家": 640,
    "便宜": 641,
    "不用": 642,
    "警察": 643,
    "癌症": 644,
    "网络": 645,
    "存折": 646,
    "禁不起": 647,
    "安慰": 648,
    "感觉": 649,
    "多媒体": 650,
    "组成": 651,
    "反对": 652,
    "差点儿": 653,
    "厨师": 654,
    "联想": 655,
    "可爱": 656,
    "手术": 657,
    "样子": 658,
    "来说": 659,
    "生产": 660,
    "彩票": 661,
    "晚饭": 662,
    "服务员": 663,
    "平时": 664,
    "固定": 665,
    "接触": 666,
    "当面": 667,
    "午饭": 668,
    "冬天": 669,
    "价格": 670,
    "所": 671,
    "车": 672,
    "邮件": 673,
    "学会": 674,
    "有些": 675,
    "脉搏": 676,
    "感染": 677,
    "小孩子": 678,
    "质量": 679,
    "否定": 680,
    "吃不消": 681,
    "担架": 682,
    "亲切": 683,
    "睡": 684,
    "网上": 685,
    "坏": 686,
    "奶奶": 687,
    "不断": 688,
    "教学": 689,
    "二维码": 690,
    "五": 691,
    "肯德基": 692,
    "过期": 693,
    "定期": 694,
    "处方": 695,
    "抽血": 696,
    "本书": 697,
    "吃药": 698,
    "介绍": 699,
    "做饭": 700,
    "小心": 701,
    "研究": 702,
    "正确": 703,
    "对于": 704,
    "生气": 705,
    "病历": 706,
    "差别": 707,
    "论文": 708,
    "福气": 709,
    "学": 710,
    "上网": 711,
    "不少": 712,
    "游泳": 713,
    "从来": 714,
    "故事": 715,
    "自然": 716,
    "场合": 717,
    "单纯": 718,
    "弹幕": 719,
    "冷场": 720,
    "或": 721,
    "设计": 722,
    "成为": 723,
    "无法": 724,
    "多余": 725,
    "工厂": 726,
    "做事": 727,
    "草稿": 728,
    "称赞": 729,
    "得罪": 730,
    "侥幸": 731,
    "茫然": 732,
    "回": 733,
    "站": 734,
    "期间": 735,
    "丢": 736,
    "程序": 737,
    "我国": 738,
    "各": 739,
    "敌人": 740,
    "包括": 741,
    "决赛": 742,
    "躲避": 743,
    "红色": 744,
    "西瓜": 745,
    "忘": 746,
    "出门": 747,
    "忘记": 748,
    "治疗": 749,
    "把握": 750,
    "而是": 751,
    "坚持": 752,
    "他人": 753,
    "真是": 754,
    "唱": 755,
    "花": 756,
    "流行": 757,
    "教训": 758,
    "水平": 759,
    "信息": 760,
    "包装": 761,
    "下去": 762,
    "阶段": 763,
    "想法": 764,
    "金融": 765,
    "操心": 766,
    "登记": 767,
    "娃娃": 768,
    "热": 769,
    "过年": 770,
    "路上": 771,
    "以前": 772,
    "客户": 773,
    "令": 774,
    "意见": 775,
    "每次": 776,
    "办": 777,
    "动物": 778,
    "这部": 779,
    "动车": 780,
    "怪不得": 781,
    "乏味": 782,
    "犯": 783,
    "椅子": 784,
    "见": 785,
    "辣": 786,
    "认真": 787,
    "大多数": 788,
    "过程": 789,
    "人员": 790,
    "反应": 791,
    "清楚": 792,
    "往往": 793,
    "政府": 794,
    "危险": 795,
    "输液": 796,
    "套": 797,
    "喝茶": 798,
    "鱼": 799,
    "下雪": 800,
    "复习": 801,
    "同事": 802,
    "城市": 803,
    "白内障": 804,
    "不管": 805,
    "流量": 806,
    "接受": 807,
    "思想": 808,
    "习惯": 809,
    "本": 810,
    "电话": 811,
    "获得": 812,
    "读书": 813,
    "店": 814,
    "表现": 815,
    "出口": 816,
    "突然": 817,
    "流产": 818,
    "自拍": 819,
    "标志": 820,
    "正在": 821,
    "新鲜": 822,
    "哪": 823,
    "聋人": 824,
    "司机": 825,
    "因": 826,
    "疾病": 827,
    "电子": 828,
    "心": 829,
    "心里": 830,
    "事物": 831,
    "沉迷": 832,
    "面条": 833,
    "手表": 834,
    "放": 835,
    "相信": 836,
    "周日": 837,
    "火锅": 838,
    "老人": 839,
    "照顾": 840,
    "事故": 841,
    "通常": 842,
    "之": 843,
    "幸福": 844,
    "外出": 845,
    "声音": 846,
    "制作": 847,
    "翻脸": 848,
    "小张": 849,
    "进": 850,
    "机会": 851,
    "于": 852,
    "食物": 853,
    "进入": 854,
    "餐巾纸": 855,
    "狗": 856,
    "常常": 857,
    "现代": 858,
    "能够": 859,
    "干部": 860,
    "更新": 861,
    "母亲": 862,
    "文章": 863,
    "减肥": 864,
    "做好": 865,
    "理想": 866,
    "简单": 867,
    "因此": 868,
    "精彩": 869,
    "肯定": 870,
    "国外": 871,
    "电影院": 872,
    "越": 873,
    "选择": 874,
    "预订": 875,
    "很快": 876,
    "交通": 877,
    "护士": 878,
    "放假": 879,
    "收到": 880,
    "完全": 881,
    "这位": 882,
    "经济": 883,
    "软件": 884,
    "家长": 885,
    "便": 886,
    "一切": 887,
    "支持": 888,
    "人类": 889,
    "女人": 890,
    "读": 891,
    "行": 892,
    "问": 893,
    "真的": 894,
    "适合": 895,
    "这项": 896,
    "如何": 897,
    "积极": 898,
    "差": 899,
    "出租": 900,
    "名字": 901,
    "送给": 902,
    "病": 903,
    "看看": 904,
    "里面": 905,
    "敢": 906,
    "群众": 907,
    "句": 908,
    "先进": 909,
    "教室": 910,
    "留下": 911,
    "懂得": 912,
    "吸引": 913,
    "语言": 914,
    "英语": 915,
    "反调": 916,
    "搬家": 917,
    "视频": 918,
    "眼睛": 919,
    "消息": 920,
    "离开": 921,
    "篮球": 922,
    "美": 923,
    "道": 924,
    "怕": 925,
    "服务": 926,
    "鼓励": 927,
    "老": 928,
    "合同": 929,
    "艺术": 930,
    "原来": 931,
    "空气": 932,
    "无论": 933,
    "管理": 934,
    "成": 935,
    "考上": 936,
    "内容": 937,
    "玻璃": 938,
    "关心": 939,
    "难以": 940,
    "台": 941,
    "些": 942,
    "笔": 943,
    "外面": 944,
    "伞": 945,
    "过来": 946,
    "久": 947,
    "满意": 948,
    "火车票": 949,
    "辆": 950,
    "每年": 951,
    "丰富": 952,
    "根本": 953,
    "原则": 954,
    "性格": 955,
    "全部": 956,
    "讨论": 957,
    "演员": 958,
    "产生": 959,
    "改变": 960,
    "想到": 961,
    "过后": 962,
    "随便": 963,
    "遍": 964,
    "不见": 965,
    "传染": 966,
    "哪儿": 967,
    "快乐": 968,
    "欢迎": 969,
    "火车站": 970,
    "空调": 971,
    "打开": 972,
    "路口": 973,
    "行李箱": 974,
    "弄": 975,
    "春节": 976,
    "地球": 977,
    "一边": 978,
    "员工": 979,
    "简直": 980,
    "历史": 981,
    "无": 982,
    "农民": 983,
    "是否": 984,
    "优秀": 985,
    "高考": 986,
    "不必": 987,
    "市场": 988,
    "事业": 989,
    "逐渐": 990,
    "付出": 991,
    "承包": 992,
    "请问": 993,
    "米饭": 994,
    "忙": 995,
    "茶": 996,
    "一会儿": 997,
    "不但": 998,
    "而且": 999,
    "酒": 1000,
    "打扫": 1001,
    "预防": 1002,
    "导致": 1003,
    "达到": 1004,
    "复印": 1005,
    "损失": 1006,
    "携带": 1007,
    "颗": 1008,
    "建设": 1009,
    "难过": 1010,
    "认为": 1011,
    "全": 1012,
    "紧张": 1013,
    "奇怪": 1014,
    "有所": 1015,
    "商品": 1016,
    "永远": 1017,
    "强": 1018,
    "没关系": 1019,
    "这儿": 1020,
    "丈夫": 1021,
    "兴趣": 1022,
    "不行": 1023,
    "新闻": 1024,
    "周六": 1025,
    "位置": 1026,
    "亲戚": 1027,
    "部": 1028,
    "教": 1029,
    "碗": 1030,
    "功能": 1031,
    "抓住": 1032,
    "做出": 1033,
    "小说": 1034,
    "药": 1035,
    "心情": 1036,
    "不过": 1037,
    "年轻人": 1038,
    "局部": 1039,
    "原谅": 1040,
    "明白": 1041,
    "谢谢": 1042,
    "星期": 1043,
    "看书": 1044,
    "颜色": 1045,
    "哪个": 1046,
    "同意": 1047,
    "带上": 1048,
    "特别": 1049,
    "相关": 1050,
    "拥有": 1051,
    "充分": 1052,
    "理由": 1053,
    "面对": 1054,
    "依然": 1055,
    "分析": 1056,
    "想要": 1057,
    "好几": 1058,
    "座": 1059,
    "心理": 1060,
    "班级": 1061,
    "共产党": 1062,
    "早": 1063,
    "回去": 1064,
    "着急": 1065,
    "然后": 1066,
    "冰箱": 1067,
    "早点": 1068,
    "年龄": 1069,
    "公园": 1070,
    "作": 1071,
    "只好": 1072,
    "等待": 1073,
    "号码": 1074,
    "态度": 1075,
    "祖国": 1076,
    "运动会": 1077,
    "行动": 1078,
    "副": 1079,
    "爱情": 1080,
    "情绪": 1081,
    "破坏": 1082,
    "活": 1083,
    "可是": 1084,
    "失望": 1085,
    "跑": 1086,
    "男人": 1087,
    "避孕": 1088,
    "避免": 1089,
    "去年": 1090,
    "预报": 1091,
    "引起": 1092,
    "父亲": 1093,
    "支付": 1094,
    "谈": 1095,
    "错": 1096,
    "家人": 1097,
    "各种各样": 1098,
    "听到": 1099,
    "愿意": 1100,
    "反复": 1101,
    "真正": 1102,
    "天天": 1103,
    "卖": 1104,
    "存在": 1105,
    "靠": 1106,
    "既然": 1107,
    "巨大": 1108,
    "增加": 1109,
    "思考": 1110,
    "企业": 1111,
    "好多": 1112,
    "男生": 1113,
    "瘦": 1114,
    "关系": 1115,
    "楼": 1116,
    "下周": 1117,
    "接": 1118,
    "你好": 1119,
    "气温": 1120,
    "鞋子": 1121,
    "饿": 1122,
    "人体": 1123,
    "力量": 1124,
    "设备": 1125,
    "科技": 1126,
    "卡": 1127,
    "运动员": 1128,
    "批评": 1129,
    "麻烦": 1130,
    "那种": 1131,
    "改革": 1132,
    "安排": 1133,
    "填写": 1134,
    "银行卡": 1135,
    "唯一": 1136,
    "搞": 1137,
    "明显": 1138,
    "美丽": 1139,
    "夫妻": 1140,
    "重点": 1141,
    "竞争": 1142,
    "其": 1143,
    "脸": 1144,
    "较": 1145,
    "梦想": 1146,
    "正": 1147,
    "事实": 1148,
    "年轻": 1149,
    "天才": 1150,
    "网站": 1151,
    "有时候": 1152,
    "对不起": 1153,
    "四": 1154,
    "乒乓球": 1155,
    "旁边": 1156,
    "雨": 1157,
    "关于": 1158,
    "客人": 1159,
    "双": 1160,
    "证明": 1161,
    "内": 1162,
    "另": 1163,
    "推出": 1164,
    "难道": 1165,
    "速度": 1166,
    "即使": 1167,
    "项目": 1168,
    "绝对": 1169,
    "干": 1170,
    "处于": 1171,
    "以为": 1172,
    "表示": 1173,
    "从不": 1174,
    "及": 1175,
    "劳动": 1176,
    "最终": 1177,
    "背后": 1178,
    "画": 1179,
    "周围": 1180,
    "出租车": 1181,
    "劳动者": 1182,
    "客气": 1183,
    "女生": 1184,
    "新年": 1185,
    "其他": 1186,
    "取": 1187,
    "下班": 1188,
    "说明": 1189,
    "传染病": 1190,
    "继续": 1191,
    "建议": 1192,
    "机器": 1193,
    "加": 1194,
    "手指": 1195,
    "看上去": 1196,
    "严肃": 1197,
    "到处": 1198,
    "双方": 1199,
    "锻炼": 1200,
    "从小": 1201,
    "条件": 1202,
    "确定": 1203,
    "反而": 1204,
    "效率": 1205,
    "人人": 1206,
    "形式": 1207,
    "成果": 1208,
    "资料": 1209,
    "未来": 1210,
    "越是": 1211,
    "校园": 1212,
    "话题": 1213,
    "星期一": 1214,
    "出院": 1215,
    "粉色": 1216,
    "不错": 1217,
    "晴天": 1218,
    "没事": 1219,
    "相同": 1220,
    "地铁站": 1221,
    "出发": 1222,
    "自行车": 1223,
    "味道": 1224,
    "有效": 1225,
    "宣传": 1226,
    "常见": 1227,
    "街": 1228,
    "复杂": 1229,
    "照片": 1230,
    "可不": 1231,
    "哭": 1232,
    "强大": 1233,
    "严格": 1234,
    "仍": 1235,
    "万象更新": 1236,
    "必然": 1237,
    "文化": 1238,
    "收入": 1239,
    "仔细": 1240,
    "通知": 1241,
    "公共": 1242,
    "纪律": 1243,
    "对方": 1244,
    "作文": 1245,
    "结束": 1246,
    "通知书": 1247,
    "经理": 1248,
    "购买": 1249,
    "多年": 1250,
    "采用": 1251,
    "记": 1252,
    "直接": 1253,
    "抄袭": 1254,
    "造成": 1255,
    "主动": 1256,
    "员": 1257,
    "白色": 1258,
    "浑水摸鱼": 1259,
    "租": 1260,
    "有着": 1261,
    "李": 1262,
    "课": 1263,
    "笑": 1264,
    "阴天": 1265,
    "一块": 1266,
    "公交": 1267,
    "马路": 1268,
    "汽车站": 1269,
    "巾纸": 1270,
    "巧克力": 1271,
    "发烧": 1272,
    "寻找": 1273,
    "极": 1274,
    "错过": 1275,
    "按时": 1276,
    "良好": 1277,
    "基本": 1278,
    "更加": 1279,
    "普遍": 1280,
    "免费": 1281,
    "相应": 1282,
    "若": 1283,
    "总会": 1284,
    "受伤": 1285,
    "伤": 1286,
    "缺乏": 1287,
    "相互": 1288,
    "失去": 1289,
    "战争": 1290,
    "清": 1291,
    "多次": 1292,
    "会议": 1293,
    "民族": 1294,
    "随身": 1295,
    "进步": 1296,
    "权利": 1297,
    "周": 1298,
    "自我": 1299,
    "三十": 1300,
    "面前": 1301,
    "物品": 1302,
    "就算": 1303,
    "旅行": 1304,
    "药物": 1305,
    "解释": 1306,
    "以免": 1307,
    "顿": 1308,
    "大声": 1309,
    "特色": 1310,
    "小红": 1311,
    "中午": 1312,
    "睡着": 1313,
    "分": 1314,
    "包间": 1315,
    "饺子": 1316,
    "甜": 1317,
    "卫生间": 1318,
    "行人": 1319,
    "加班": 1320,
    "患者": 1321,
    "数据": 1322,
    "交给": 1323,
    "病毒": 1324,
    "演讲": 1325,
    "防止": 1326,
    "资金": 1327,
    "变得": 1328,
    "尽管": 1329,
    "仍然": 1330,
    "如": 1331,
    "暑假": 1332,
    "放松": 1333,
    "应用": 1334,
    "垃圾": 1335,
    "图": 1336,
    "手": 1337,
    "道路": 1338,
    "全国": 1339,
    "观众": 1340,
    "一致": 1341,
    "老是": 1342,
    "一半": 1343,
    "团结": 1344,
    "街道": 1345,
    "一生": 1346,
    "秘密": 1347,
    "感谢": 1348,
    "满": 1349,
    "疼痛": 1350,
    "号": 1351,
    "上午": 1352,
    "字": 1353,
    "他家": 1354,
    "有意思": 1355,
    "明年": 1356,
    "航班": 1357,
    "一共": 1358,
    "晚": 1359,
    "乘客": 1360,
    "香蕉": 1361,
    "住宿": 1362,
    "保暖": 1363,
    "蔬菜": 1364,
    "伟大": 1365,
    "必要": 1366,
    "目前": 1367,
    "手段": 1368,
    "躺": 1369,
    "岗位": 1370,
    "项": 1371,
    "复印件": 1372,
    "小孩": 1373,
    "形势": 1374,
    "缺点": 1375,
    "身边": 1376,
    "办公室": 1377,
    "不得不": 1378,
    "地区": 1379,
    "段": 1380,
    "精力": 1381,
    "利用": 1382,
    "普通": 1383,
    "考验": 1384,
    "死": 1385,
    "放弃": 1386,
    "否则": 1387,
    "抽烟": 1388,
    "考虑": 1389,
    "友谊": 1390,
    "带来": 1391,
    "正式": 1392,
    "动作": 1393,
    "门口": 1394,
    "晚会": 1395,
    "同": 1396,
    "允许": 1397,
    "教师": 1398,
    "和睦": 1399,
    "反映": 1400,
    "下载": 1401,
    "骗": 1402,
    "家庭": 1403,
    "纸": 1404,
    "值得": 1405,
    "报告": 1406,
    "叔叔": 1407,
    "科学技术": 1408,
    "运行": 1409,
    "作用": 1410,
    "米": 1411,
    "自信": 1412,
    "本身": 1413,
    "创业": 1414,
    "发放": 1415,
    "打破": 1416,
    "强烈": 1417,
    "辛苦": 1418,
    "农村": 1419,
    "赚钱": 1420,
    "重新": 1421,
    "定位": 1422,
    "签证": 1423,
    "慢": 1424,
    "快要": 1425,
    "那边": 1426,
    "感": 1427,
    "飞机票": 1428,
    "挺": 1429,
    "刚刚": 1430,
    "风": 1431,
    "咸": 1432,
    "靠近": 1433,
    "选": 1434,
    "出示": 1435,
    "奶茶": 1436,
    "借": 1437,
    "女孩": 1438,
    "果汁": 1439,
    "帽子": 1440,
    "戴": 1441,
    "打电话": 1442,
    "引发": 1443,
    "慢慢": 1444,
    "尽量": 1445,
    "明星": 1446,
    "不足": 1447,
    "深刻": 1448,
    "兴奋": 1449,
    "热情": 1450,
    "善于": 1451,
    "进一步": 1452,
    "高中": 1453,
    "稳定": 1454,
    "养成": 1455,
    "承担": 1456,
    "日常": 1457,
    "时期": 1458,
    "要是": 1459,
    "他俩": 1460,
    "回到": 1461,
    "外国": 1462,
    "来不及": 1463,
    "吸取": 1464,
    "意外": 1465,
    "传统": 1466,
    "印象": 1467,
    "第二": 1468,
    "分为": 1469,
    "礼貌": 1470,
    "消灭": 1471,
    "当年": 1472,
    "勇敢": 1473,
    "立即": 1474,
    "单": 1475,
    "密码": 1476,
    "你家": 1477,
    "多久": 1478,
    "预定": 1479,
    "早就": 1480,
    "取消": 1481,
    "那里": 1482,
    "聊天": 1483,
    "长期": 1484,
    "传播": 1485,
    "关闭": 1486,
    "情感": 1487,
    "行业": 1488,
    "符合": 1489,
    "露出": 1490,
    "目的": 1491,
    "象征": 1492,
    "具有": 1493,
    "音乐": 1494,
    "宝贵": 1495,
    "深": 1496,
    "后果": 1497,
    "掉": 1498,
    "美好": 1499,
    "本来": 1500,
    "道题": 1501,
    "学期": 1502,
    "尝试": 1503,
    "特定": 1504,
    "普及": 1505,
    "装": 1506,
    "勉强": 1507,
    "何必": 1508,
    "小时候": 1509,
    "一部分": 1510,
    "对待": 1511,
    "幅": 1512,
    "得出": 1513,
    "来到": 1514,
    "一大": 1515,
    "拿到": 1516,
    "坚决": 1517,
    "存": 1518,
    "改正": 1519,
    "大学生": 1520,
    "有趣": 1521,
    "装修": 1522,
    "不可": 1523,
    "首先": 1524,
    "中文": 1525,
    "商业": 1526,
    "抢": 1527,
    "几天": 1528,
    "这块": 1529,
    "门": 1530,
    "旧": 1531,
    "报纸": 1532,
    "周末": 1533,
    "有事": 1534,
    "或者": 1535,
    "干净": 1536,
    "定": 1537,
    "倒": 1538,
    "酒店": 1539,
    "打折": 1540,
    "骑": 1541,
    "前面": 1542,
    "陪": 1543,
    "打针": 1544,
    "树立": 1545,
    "提起": 1546,
    "黑夜": 1547,
    "乱": 1548,
    "也许": 1549,
    "开发": 1550,
    "好榜样": 1551,
    "单位": 1552,
    "缠": 1553,
    "够用": 1554,
    "抱": 1555,
    "默默": 1556,
    "英雄": 1557,
    "感染力": 1558,
    "发票": 1559,
    "有时": 1560,
    "分工": 1561,
    "不然": 1562,
    "目光": 1563,
    "地上": 1564,
    "权力": 1565,
    "解放军": 1566,
    "长大": 1567,
    "间": 1568,
    "土地": 1569,
    "留": 1570,
    "接到": 1571,
    "片": 1572,
    "千万": 1573,
    "犯罪": 1574,
    "句子": 1575,
    "争取": 1576,
    "默契": 1577,
    "惹": 1578,
    "一百": 1579,
    "遵守": 1580,
    "假如": 1581,
    "整体": 1582,
    "青年": 1583,
    "代表": 1584,
    "领域": 1585,
    "生意": 1586,
    "观察": 1587,
    "恋爱": 1588,
    "这笔": 1589,
    "外婆": 1590,
    "女性": 1591,
    "增长": 1592,
    "冷静": 1593,
    "压力": 1594,
    "职业": 1595,
    "算": 1596,
    "血压": 1597,
    "饱": 1598,
    "身上": 1599,
    "夹": 1600,
    "抬": 1601,
    "聪明人": 1602,
    "将来": 1603,
    "租金": 1604,
    "翻译": 1605,
    "金钱": 1606,
    "兄弟": 1607,
    "核磁": 1608,
    "含义": 1609,
    "联欢会": 1610,
    "皮肤": 1611,
    "长江": 1612,
    "安全套": 1613,
    "国民党": 1614,
    "晚期": 1615,
    "耳机": 1616,
    "某些": 1617,
    "外卖": 1618,
    "饭馆": 1619,
    "等等": 1620,
    "半": 1621,
    "放在": 1622,
    "同一个": 1623,
    "见面": 1624,
    "穿着": 1625,
    "课程": 1626,
    "窗户": 1627,
    "干燥": 1628,
    "按": 1629,
    "形象": 1630,
    "多种": 1631,
    "采取": 1632,
    "掌握": 1633,
    "读者": 1634,
    "俩": 1635,
    "开放": 1636,
    "克服": 1637,
    "坏事": 1638,
    "老鼠": 1639,
    "欺骗": 1640,
    "勤俭节约": 1641,
    "打击": 1642,
    "全面": 1643,
    "维护": 1644,
    "自从": 1645,
    "肯": 1646,
    "毛病": 1647,
    "上个月": 1648,
    "便利": 1649,
    "寄": 1650,
    "实验": 1651,
    "效果": 1652,
    "区别": 1653,
    "调整": 1654,
    "小偷": 1655,
    "头": 1656,
    "毛": 1657,
    "可惜": 1658,
    "食品": 1659,
    "毫无": 1660,
    "召开": 1661,
    "骄傲": 1662,
    "不住": 1663,
    "费用": 1664,
    "中心": 1665,
    "珍惜": 1666,
    "花费": 1667,
    "之外": 1668,
    "同时": 1669,
    "发挥": 1670,
    "专门": 1671,
    "日子": 1672,
    "日本": 1673,
    "真实": 1674,
    "光": 1675,
    "痛苦": 1676,
    "仿佛": 1677,
    "指": 1678,
    "教导": 1679,
    "偷偷": 1680,
    "忍受": 1681,
    "节日": 1682,
    "游客": 1683,
    "上面": 1684,
    "收": 1685,
    "卧铺": 1686,
    "餐": 1687,
    "点餐": 1688,
    "睡眠": 1689,
    "大部分": 1690,
    "在场": 1691,
    "变成": 1692,
    "赢得": 1693,
    "种类": 1694,
    "令行禁止": 1695,
    "驾驶": 1696,
    "广泛": 1697,
    "目标": 1698,
    "方案": 1699,
    "常": 1700,
    "特殊": 1701,
    "缺": 1702,
    "交往": 1703,
    "表达": 1704,
    "哦": 1705,
    "调查": 1706,
    "印": 1707,
    "出行": 1708,
    "住院": 1709,
    "每月": 1710,
    "大量": 1711,
    "悄悄": 1712,
    "五十": 1713,
    "体育": 1714,
    "今晚": 1715,
    "精致": 1716,
    "耐心": 1717,
    "从事": 1718,
    "杂志": 1719,
    "肚子": 1720,
    "格外": 1721,
    "主意": 1722,
    "矛盾": 1723,
    "博物馆": 1724,
    "青年人": 1725,
    "有关": 1726,
    "负担": 1727,
    "表面": 1728,
    "之一": 1729,
    "年代": 1730,
    "当场": 1731,
    "天生": 1732,
    "症状": 1733,
    "报复": 1734,
    "小狗": 1735,
    "下面": 1736,
    "发送": 1737,
    "近": 1738,
    "帮忙": 1739,
    "呀": 1740,
    "块": 1741,
    "爱好": 1742,
    "站台": 1743,
    "主食": 1744,
    "重": 1745,
    "补办": 1746,
    "新来": 1747,
    "钓鱼": 1748,
    "不如": 1749,
    "蓝色": 1750,
    "黑色": 1751,
    "过于": 1752,
    "星星": 1753,
    "灯": 1754,
    "急性": 1755,
    "患": 1756,
    "提升": 1757,
    "车流量": 1758,
    "似乎": 1759,
    "以身作则": 1760,
    "智慧": 1761,
    "医疗": 1762,
    "伤员": 1763,
    "优点": 1764,
    "羡慕": 1765,
    "维修": 1766,
    "回答": 1767,
    "脸上": 1768,
    "充满": 1769,
    "内心": 1770,
    "观念": 1771,
    "规律": 1772,
    "大地": 1773,
    "究竟": 1774,
    "准确": 1775,
    "一辈子": 1776,
    "情节": 1777,
    "人家": 1778,
    "神经": 1779,
    "走路": 1780,
    "想象": 1781,
    "企业家": 1782,
    "并且": 1783,
    "职责": 1784,
    "机构": 1785,
    "水资源": 1786,
    "富裕": 1787,
    "虚假": 1788,
    "校": 1789,
    "信": 1790,
    "计较": 1791,
    "撞": 1792,
    "一向": 1793,
    "共同": 1794,
    "经": 1795,
    "多么": 1796,
    "外地": 1797,
    "款": 1798,
    "脸色": 1799,
    "早晨": 1800,
    "头脑": 1801,
    "考": 1802,
    "队员": 1803,
    "气氛": 1804,
    "贫穷": 1805,
    "试卷": 1806,
    "多种多样": 1807,
    "书面": 1808,
    "一再": 1809,
    "工程": 1810,
    "未": 1811,
    "请求": 1812,
    "批准": 1813,
    "针对": 1814,
    "提出": 1815,
    "美的": 1816,
    "在于": 1817,
    "实践": 1818,
    "送到": 1819,
    "用于": 1820,
    "业务": 1821,
    "尽快": 1822,
    "现实": 1823,
    "车票": 1824,
    "发来": 1825,
    "病情": 1826,
    "天上": 1827,
    "包": 1828,
    "八": 1829,
    "填": 1830,
    "负责人": 1831,
    "细致": 1832,
    "顺利": 1833,
    "小学": 1834,
    "大力": 1835,
    "物价": 1836,
    "接近": 1837,
    "电梯": 1838,
    "自由": 1839,
    "盲目": 1840,
    "摔倒": 1841,
    "承包商": 1842,
    "争相": 1843,
    "恐惧": 1844,
    "外": 1845,
    "妥善": 1846,
    "极了": 1847,
    "古人": 1848,
    "登记表": 1849,
    "厉害": 1850,
    "喧哗": 1851,
    "雪白": 1852,
    "童年": 1853,
    "想起": 1854,
    "报道": 1855,
    "做成": 1856,
    "爱上": 1857,
    "差点": 1858,
    "男孩": 1859,
    "边": 1860,
    "饭菜": 1861,
    "照亮": 1862,
    "满足": 1863,
    "发言": 1864,
    "逛": 1865,
    "笨": 1866,
    "自拍照": 1867,
    "活跃": 1868,
    "图片": 1869,
    "划算": 1870,
    "配": 1871,
    "带领": 1872,
    "长辈": 1873,
    "选举": 1874,
    "规则": 1875,
    "买卖": 1876,
    "火灾": 1877,
    "难关": 1878,
    "律师": 1879,
    "大桥": 1880,
    "泡脚": 1881,
    "影子": 1882,
    "领导人": 1883,
    "信用卡": 1884,
    "惊讶": 1885,
    "麦当劳": 1886,
    "普通话": 1887,
    "嫉妒": 1888,
    "诊断": 1889,
    "著名": 1890,
    "黑暗": 1891,
    "在内": 1892,
    "模特": 1893,
    "基金会": 1894,
    "打招呼": 1895,
    "和平": 1896,
    "吵架": 1897,
    "块钱": 1898,
    "左边": 1899,
    "别的": 1900,
    "桌上": 1901,
    "春天": 1902,
    "觉": 1903,
    "不仅": 1904,
    "座位": 1905,
    "推荐": 1906,
    "约": 1907,
    "结账": 1908,
    "支": 1909,
    "红灯": 1910,
    "汤": 1911,
    "甜食": 1912,
    "战胜": 1913,
    "措施": 1914,
    "职工": 1915,
    "需求": 1916,
    "善良": 1917,
    "感情": 1918,
    "不知": 1919,
    "岩石": 1920,
    "攻击": 1921,
    "脸红": 1922,
    "讲课": 1923,
    "污染": 1924,
    "生": 1925,
    "曾经": 1926,
    "踏实": 1927,
    "共": 1928,
    "对手": 1929,
    "自觉": 1930,
    "记录": 1931,
    "宣布": 1932,
    "本人": 1933,
    "课堂": 1934,
    "不久": 1935,
    "做法": 1936,
    "比起": 1937,
    "贵重": 1938,
    "体检": 1939,
    "关注": 1940,
    "餐厅": 1941,
    "理论": 1942,
    "同样": 1943,
    "详细": 1944,
    "停": 1945,
    "供": 1946,
    "激烈": 1947,
    "展示": 1948,
    "风格": 1949,
    "控制": 1950,
    "观点": 1951,
    "一会": 1952,
    "地震": 1953,
    "纷纷": 1954,
    "吵": 1955,
    "大事": 1956,
    "人工": 1957,
    "近年来": 1958,
    "听话": 1959,
    "主席": 1960,
    "愿": 1961,
    "干什么": 1962,
    "服用": 1963,
    "品质": 1964,
    "旅客": 1965,
    "交警": 1966,
    "数量": 1967,
    "出色": 1968,
    "现象": 1969,
    "爬": 1970,
    "树": 1971,
    "随时": 1972,
    "客观": 1973,
    "科学": 1974,
    "补救": 1975,
    "它们": 1976,
    "财产": 1977,
    "涨跌": 1978,
    "屋里": 1979,
    "洪水": 1980,
    "法官": 1981,
    "保养": 1982,
    "拍": 1983,
    "学费": 1984,
    "工具": 1985,
    "一日": 1986,
    "后面": 1987,
    "不冷不热": 1988,
    "上来": 1989,
    "几乎": 1990,
    "斤": 1991,
    "安检": 1992,
    "付钱": 1993,
    "挑选": 1994,
    "房": 1995,
    "候车厅": 1996,
    "赶上": 1997,
    "肉": 1998,
    "换": 1999,
    "女": 2000,
    "完善": 2001,
    "设置": 2002,
    "作出": 2003,
    "全班": 2004,
    "赔偿": 2005,
    "好像": 2006,
    "建立": 2007,
    "师傅": 2008,
    "成长": 2009,
    "大大": 2010,
    "非": 2011,
    "有利于": 2012,
    "手续费": 2013,
    "队伍": 2014,
    "脆弱": 2015,
    "再三": 2016,
    "谎言": 2017,
    "浪费": 2018,
    "不许": 2019,
    "合理": 2020,
    "分配": 2021,
    "军": 2022,
    "友爱": 2023,
    "流行性": 2024,
    "所有人": 2025,
    "怪": 2026,
    "年纪": 2027,
    "实际": 2028,
    "钻研": 2029,
    "开工": 2030,
    "评价": 2031,
    "期待": 2032,
    "举行": 2033,
    "前进": 2034,
    "力气": 2035,
    "运气": 2036,
    "说谎": 2037,
    "数学": 2038,
    "文件": 2039,
    "无聊": 2040,
    "正常": 2041,
    "想想": 2042,
    "思路": 2043,
    "没用": 2044,
    "行驶": 2045,
    "经历": 2046,
    "眼神": 2047,
    "资格": 2048,
    "婚礼": 2049,
    "适当": 2050,
    "看起来": 2051,
    "伤心": 2052,
    "开除": 2053,
    "谦虚": 2054,
    "用功": 2055,
    "山区": 2056,
    "忙碌": 2057,
    "血": 2058,
    "责任": 2059,
    "发布": 2060,
    "姓名": 2061,
    "九": 2062,
    "给予": 2063,
    "做到": 2064,
    "接下来": 2065,
    "文字": 2066,
    "倒闭": 2067,
    "群": 2068,
    "而言": 2069,
    "承诺": 2070,
    "集体": 2071,
    "高速": 2072,
    "没收": 2073,
    "因素": 2074,
    "疼": 2075,
    "招聘": 2076,
    "成像": 2077,
    "申办": 2078,
    "幽默": 2079,
    "敏感": 2080,
    "灰心": 2081,
    "倾诉": 2082,
    "几月": 2083,
    "星期六": 2084,
    "十点": 2085,
    "几点": 2086,
    "到家": 2087,
    "六点": 2088,
    "门外": 2089,
    "早起": 2090,
    "电影票": 2091,
    "南方": 2092,
    "当然": 2093,
    "假": 2094,
    "洗手间": 2095,
    "对面": 2096,
    "机票": 2097,
    "祝": 2098,
    "托运": 2099,
    "牛肉": 2100,
    "带伞": 2101,
    "老年人": 2102,
    "喊": 2103,
    "黄色": 2104,
    "去世": 2105,
    "斗争": 2106,
    "程度": 2107,
    "恐慌": 2108,
    "般": 2109,
    "握手": 2110,
    "最佳": 2111,
    "夜晚": 2112,
    "始终": 2113,
    "早早": 2114,
    "低头": 2115,
    "闯": 2116,
    "饮食": 2117,
    "类": 2118,
    "连接": 2119,
    "资源": 2120,
    "移动": 2121,
    "人流量": 2122,
    "构成": 2123,
    "话费": 2124,
    "时代": 2125,
    "跳动": 2126,
    "量": 2127,
    "相对": 2128,
    "在外": 2129,
    "来自": 2130,
    "与其": 2131,
    "创造": 2132,
    "人身": 2133,
    "事迹": 2134,
    "一代": 2135,
    "伤口": 2136,
    "激情": 2137,
    "开心": 2138,
    "厂": 2139,
    "改": 2140,
    "适应": 2141,
    "粮食": 2142,
    "夸大": 2143,
    "足够": 2144,
    "贴": 2145,
    "那段": 2146,
    "记忆": 2147,
    "实在": 2148,
    "存款": 2149,
    "中奖": 2150,
    "体质": 2151,
    "人群": 2152,
    "逃跑": 2153,
    "演出": 2154,
    "眼泪": 2155,
    "春游": 2156,
    "听讲": 2157,
    "然而": 2158,
    "生物": 2159,
    "好事": 2160,
    "严明": 2161,
    "能源": 2162,
    "早已": 2163,
    "诱惑": 2164,
    "推敲": 2165,
    "场所": 2166,
    "主张": 2167,
    "播放": 2168,
    "半点": 2169,
    "差错": 2170,
    "即将": 2171,
    "提醒": 2172,
    "老公": 2173,
    "嫖娼": 2174,
    "难怪": 2175,
    "紧密": 2176,
    "加强": 2177,
    "各地": 2178,
    "广大": 2179,
    "名单": 2180,
    "中学": 2181,
    "答应": 2182,
    "好友": 2183,
    "生存": 2184,
    "扑灭": 2185,
    "唱歌": 2186,
    "汗水": 2187,
    "赢": 2188,
    "一唱一和": 2189,
    "弱小": 2190,
    "愤怒": 2191,
    "用户": 2192,
    "准许": 2193,
    "机遇": 2194,
    "疲劳": 2195,
    "护理": 2196,
    "室": 2197,
    "小路": 2198,
    "一带": 2199,
    "地形": 2200,
    "口味": 2201,
    "渐渐": 2202,
    "团队": 2203,
    "薪水": 2204,
    "提倡": 2205,
    "口头": 2206,
    "列车": 2207,
    "保存": 2208,
    "采访": 2209,
    "扫描": 2210,
    "图案": 2211,
    "发明": 2212,
    "刷": 2213,
    "往": 2214,
    "隔": 2215,
    "还好": 2216,
    "海边": 2217,
    "风景": 2218,
    "热水": 2219,
    "结合": 2220,
    "贫困": 2221,
    "力度": 2222,
    "职务": 2223,
    "立刻": 2224,
    "报": 2225,
    "桌": 2226,
    "咱们": 2227,
    "命运": 2228,
    "打碎": 2229,
    "调试": 2230,
    "据说": 2231,
    "发表": 2232,
    "居然": 2233,
    "享受": 2234,
    "充足": 2235,
    "创作": 2236,
    "电视台": 2237,
    "呆": 2238,
    "查": 2239,
    "意义": 2240,
    "处在": 2241,
    "赌博": 2242,
    "美妙": 2243,
    "到底": 2244,
    "伤害": 2245,
    "汇报": 2246,
    "参观": 2247,
    "图书": 2248,
    "公布": 2249,
    "红": 2250,
    "老奶奶": 2251,
    "区分": 2252,
    "体会": 2253,
    "持续": 2254,
    "搬": 2255,
    "歹徒": 2256,
    "部队": 2257,
    "几年": 2258,
    "外表": 2259,
    "强迫": 2260,
    "选手": 2261,
    "五千": 2262,
    "五百": 2263,
    "五百万": 2264,
    "以上": 2265,
    "总经理": 2266,
    "抽": 2267,
    "不顾": 2268,
    "收获": 2269,
    "万": 2270,
    "数": 2271,
    "当初": 2272,
    "包办": 2273,
    "亲密": 2274,
    "七": 2275,
    "月球": 2276,
    "卫星": 2277,
    "早期": 2278,
    "安安静静": 2279,
    "呼吸": 2280,
    "轮": 2281,
    "严厉": 2282,
    "打交道": 2283,
    "中餐": 2284,
    "人口": 2285,
    "偷": 2286,
    "名牌": 2287,
    "好心人": 2288,
    "聪明才智": 2289,
    "勤奋": 2290,
    "一百万": 2291,
    "讲述": 2292,
    "秒": 2293,
    "双手": 2294,
    "天黑": 2295,
    "滴水": 2296,
    "温暖": 2297,
    "洋娃娃": 2298,
    "这点": 2299,
    "微笑": 2300,
    "小品": 2301,
    "生来": 2302,
    "必定": 2303,
    "人才": 2304,
    "遭到": 2305,
    "看不起": 2306,
    "大型": 2307,
    "警方": 2308,
    "无线": 2309,
    "基础": 2310,
    "事件": 2311,
    "做人": 2312,
    "书皮": 2313,
    "十一": 2314,
    "偏偏": 2315,
    "心中": 2316,
    "车子": 2317,
    "舍不得": 2318,
    "退": 2319,
    "红领巾": 2320,
    "加入": 2321,
    "惩罚": 2322,
    "突出": 2323,
    "竞选": 2324,
    "处": 2325,
    "大脑": 2326,
    "题目": 2327,
    "代理": 2328,
    "通宵": 2329,
    "包裹": 2330,
    "卫生": 2331,
    "坏人": 2332,
    "市中心": 2333,
    "郊区": 2334,
    "头发": 2335,
    "托": 2336,
    "循环": 2337,
    "舅舅": 2338,
    "能否": 2339,
    "新加坡": 2340,
    "人士": 2341,
    "做爱": 2342,
    "叫做": 2343,
    "邀请": 2344,
    "警惕": 2345,
    "领事馆": 2346,
    "公路": 2347,
    "高峰": 2348,
    "一个个": 2349,
    "灰尘": 2350,
    "腿": 2351,
    "外强中干": 2352,
    "敢于": 2353,
    "保管": 2354,
    "死亡": 2355,
    "免疫力": 2356,
    "膝盖": 2357,
    "违反": 2358,
    "紧握": 2359,
    "蚊子": 2360,
    "人格": 2361,
    "泄露": 2362,
    "宗教": 2363,
    "记者": 2364,
    "尴尬": 2365,
    "残疾人": 2366,
    "有点儿": 2367,
    "怎么办": 2368,
    "走走": 2369,
    "季节": 2370,
    "渴": 2371,
    "不好": 2372,
    "进去": 2373,
    "亮": 2374,
    "放进": 2375,
    "地下": 2376,
    "实现": 2377,
    "候车室": 2378,
    "春运": 2379,
    "身份": 2380,
    "其中": 2381,
    "不已": 2382,
    "人为": 2383,
    "机": 2384,
    "更新换代": 2385,
    "统一": 2386,
    "奉献": 2387,
    "相比": 2388,
    "一番": 2389,
    "维持": 2390,
    "风险": 2391,
    "交": 2392,
    "每当": 2393,
    "密切": 2394,
    "一旦": 2395,
    "前后": 2396,
    "尽力": 2397,
    "部门": 2398,
    "果然": 2399,
    "丝毫": 2400,
    "看来": 2401,
    "怎样": 2402,
    "揭晓": 2403,
    "分数": 2404,
    "旅馆": 2405,
    "分子": 2406,
    "苍白": 2407,
    "题": 2408,
    "挫折": 2409,
    "消费": 2410,
    "教材": 2411,
    "陌生": 2412,
    "情人节": 2413,
    "那天": 2414,
    "面试": 2415,
    "祝福": 2416,
    "陌生人": 2417,
    "优质": 2418,
    "街上": 2419,
    "设施": 2420,
    "二": 2421,
    "早餐": 2422,
    "修改": 2423,
    "领": 2424,
    "偶尔": 2425,
    "相似": 2426,
    "自带": 2427,
    "艺术家": 2428,
    "熟人": 2429,
    "胡乱": 2430,
    "糟糕": 2431,
    "阿姨": 2432,
    "小区": 2433,
    "玩耍": 2434,
    "气": 2435,
    "等候": 2436,
    "明明": 2437,
    "什么样": 2438,
    "整理": 2439,
    "刻苦": 2440,
    "那样": 2441,
    "性": 2442,
    "学科": 2443,
    "服从": 2444,
    "奢侈": 2445,
    "碰到": 2446,
    "绝不": 2447,
    "勇气": 2448,
    "跳": 2449,
    "来往": 2450,
    "沉迷于": 2451,
    "做错": 2452,
    "下次": 2453,
    "身": 2454,
    "两边": 2455,
    "妇女": 2456,
    "好处": 2457,
    "撒谎": 2458,
    "递给": 2459,
    "恶劣": 2460,
    "情侣": 2461,
    "材料": 2462,
    "单调": 2463,
    "养": 2464,
    "描述": 2465,
    "抢救": 2466,
    "到达": 2467,
    "半天": 2468,
    "签": 2469,
    "形成": 2470,
    "地点": 2471,
    "邻居": 2472,
    "封": 2473,
    "学院": 2474,
    "决心": 2475,
    "一时": 2476,
    "工程师": 2477,
    "当前": 2478,
    "正是": 2479,
    "逼": 2480,
    "小学生": 2481,
    "追": 2482,
    "无线电": 2483,
    "心灵": 2484,
    "大自然": 2485,
    "大海": 2486,
    "旅途": 2487,
    "球迷": 2488,
    "魔术": 2489,
    "共有": 2490,
    "中华": 2491,
    "哪些": 2492,
    "打工": 2493,
    "差异": 2494,
    "条例": 2495,
    "发行": 2496,
    "降低": 2497,
    "成像仪": 2498,
    "预约": 2499,
    "专业": 2500,
    "统计": 2501,
    "志愿者": 2502,
    "打架": 2503,
    "五星级": 2504,
    "科学家": 2505,
    "晚点": 2506,
    "镜子": 2507,
    "牺牲": 2508,
    "开学": 2509,
    "伯伯": 2510,
    "急诊": 2511,
    "鲁迅": 2512,
    "牛": 2513,
    "六": 2514,
    "行李": 2515,
    "买单": 2516,
    "意识": 2517,
    "潜伏期": 2518,
    "拼搏": 2519,
    "法": 2520,
    "脱离": 2521,
    "变迁": 2522,
    "式": 2523,
    "期末": 2524,
    "罪犯": 2525,
    "距离": 2526,
    "青春": 2527,
    "人品": 2528,
    "如饥似渴": 2529,
    "下降": 2530,
    "激动": 2531,
    "前来": 2532,
    "犹豫": 2533,
    "队": 2534,
    "试验": 2535,
    "收取": 2536,
    "货物": 2537,
    "贡献": 2538,
    "受骗": 2539,
    "上当": 2540,
    "全厂": 2541,
    "操作": 2542,
    "付款": 2543,
    "待": 2544,
    "讨厌": 2545,
    "异常": 2546,
    "千篇一律": 2547,
    "显得": 2548,
    "上去": 2549,
    "猜": 2550,
    "施工": 2551,
    "高楼": 2552,
    "大厦": 2553,
    "轻轻": 2554,
    "危机": 2555,
    "财富": 2556,
    "重大": 2557,
    "犯错": 2558,
    "表扬": 2559,
    "醒来": 2560,
    "持": 2561,
    "倾听": 2562,
    "各个": 2563,
    "作废": 2564,
    "不幸": 2565,
    "聊": 2566,
    "打动": 2567,
    "赶到": 2568,
    "保证": 2569,
    "子女": 2570,
    "分手": 2571,
    "具体": 2572,
    "航空": 2573,
    "转让": 2574,
    "开销": 2575,
    "有力": 2576,
    "最为": 2577,
    "适龄": 2578,
    "迅速": 2579,
    "四处": 2580,
    "延续": 2581,
    "慰问": 2582,
    "画画": 2583,
    "加以": 2584,
    "常用": 2585,
    "流泪": 2586,
    "系列": 2587,
    "炒股": 2588,
    "成本": 2589,
    "捐": 2590,
    "线路": 2591,
    "群里": 2592,
    "保修": 2593,
    "外界": 2594,
    "发热": 2595,
    "合适": 2596,
    "股民": 2597,
    "对此": 2598,
    "金": 2599,
    "上市": 2600,
    "抢修": 2601,
    "严重性": 2602,
    "商场": 2603,
    "寻常": 2604,
    "则": 2605,
    "栏": 2606,
    "电": 2607,
    "共振": 2608,
    "仪": 2609,
    "压岁钱": 2610,
    "过节": 2611,
    "注重": 2612,
    "即便": 2613,
    "点滴": 2614,
    "攻克": 2615,
    "大胆": 2616,
    "见义勇为": 2617,
    "义务": 2618,
    "骗子": 2619,
    "内在": 2620,
    "减轻": 2621,
    "包庇": 2622,
    "迷信": 2623,
    "想念": 2624,
    "十月": 2625,
    "几日": 2626,
    "六月": 2627,
    "五点": 2628,
    "星期五": 2629,
    "九月": 2630,
    "两天": 2631,
    "外边": 2632,
    "点儿": 2633,
    "北方": 2634,
    "三年": 2635,
    "后来": 2636,
    "到时候": 2637,
    "有名": 2638,
    "以外": 2639,
    "花钱": 2640,
    "延误": 2641,
    "试试": 2642,
    "赶": 2643,
    "堵": 2644,
    "取票": 2645,
    "暖和": 2646,
    "取款": 2647,
    "红绿灯": 2648,
    "挂号": 2649,
    "回复": 2650,
    "用来": 2651,
    "步行": 2652,
    "崩溃": 2653,
    "信心": 2654,
    "谈虎色变": 2655,
    "依据": 2656,
    "奇迹": 2657,
    "治愈": 2658,
    "防范": 2659,
    "开展": 2660,
    "可怕": 2661,
    "平均": 2662,
    "时机": 2663,
    "床上": 2664,
    "翻来覆去": 2665,
    "犯困": 2666,
    "穿过": 2667,
    "心胸": 2668,
    "开阔": 2669,
    "无穷": 2670,
    "革命": 2671,
    "原理": 2672,
    "协议": 2673,
    "逐步": 2674,
    "功耗": 2675,
    "消耗": 2676,
    "必需": 2677,
    "套餐": 2678,
    "偏": 2679,
    "值": 2680,
    "赶紧": 2681,
    "体温": 2682,
    "复印机": 2683,
    "此": 2684,
    "落泪": 2685,
    "情": 2686,
    "首": 2687,
    "微小": 2688,
    "万分": 2689,
    "不知不觉": 2690,
    "防患未然": 2691,
    "保险金": 2692,
    "止血": 2693,
    "有用": 2694,
    "不停": 2695,
    "病床": 2696,
    "新款": 2697,
    "成年人": 2698,
    "练习": 2699,
    "择偶": 2700,
    "约束": 2701,
    "老张": 2702,
    "辛勤": 2703,
    "坚固": 2704,
    "船": 2705,
    "深深": 2706,
    "一视同仁": 2707,
    "散文": 2708,
    "听众": 2709,
    "不禁": 2710,
    "以便": 2711,
    "计算机": 2712,
    "社会主义": 2713,
    "亦": 2714,
    "彼此": 2715,
    "言归于好": 2716,
    "师生": 2717,
    "国": 2718,
    "交换": 2719,
    "桥梁": 2720,
    "以往": 2721,
    "难度": 2722,
    "缩小": 2723,
    "未卜先知": 2724,
    "剧本": 2725,
    "制度": 2726,
    "储蓄": 2727,
    "申请表": 2728,
    "核对": 2729,
    "包含": 2730,
    "记名": 2731,
    "有病": 2732,
    "某": 2733,
    "草木皆兵": 2734,
    "惊险": 2735,
    "责备": 2736,
    "人间": 2737,
    "经营": 2738,
    "联合": 2739,
    "作战": 2740,
    "大扫除": 2741,
    "宁可": 2742,
    "女王": 2743,
    "涣散": 2744,
    "胜利": 2745,
    "过分": 2746,
    "机关": 2747,
    "处事": 2748,
    "十全十美": 2749,
    "风力": 2750,
    "发电": 2751,
    "用水": 2752,
    "讲求": 2753,
    "整天": 2754,
    "虚伪": 2755,
    "身子": 2756,
    "烟花": 2757,
    "一贯": 2758,
    "言行": 2759,
    "军队": 2760,
    "民众": 2761,
    "行车": 2762,
    "吸烟": 2763,
    "善意": 2764,
    "竟然": 2765,
    "得失": 2766,
    "跃跃欲试": 2767,
    "雨季": 2768,
    "防洪": 2769,
    "生涯": 2770,
    "酒后": 2771,
    "违章": 2772,
    "罚款": 2773,
    "甚至": 2774,
    "力不从心": 2775,
    "须": 2776,
    "老王": 2777,
    "不料": 2778,
    "眼前": 2779,
    "盼望": 2780,
    "平等": 2781,
    "相爱": 2782,
    "信赖": 2783,
    "联络": 2784,
    "近来": 2785,
    "乔装": 2786,
    "设法": 2787,
    "便捷": 2788,
    "新近": 2789,
    "流行歌曲": 2790,
    "罪魁祸首": 2791,
    "本科": 2792,
    "考核": 2793,
    "清华": 2794,
    "前途": 2795,
    "菲": 2796,
    "烦恼": 2797,
    "观光": 2798,
    "暑期": 2799,
    "万一": 2800,
    "遇": 2801,
    "泰山": 2802,
    "火": 2803,
    "鸟": 2804,
    "给出": 2805,
    "出丑": 2806,
    "罢了": 2807,
    "作家": 2808,
    "手法": 2809,
    "全体": 2810,
    "秩序井然": 2811,
    "络绎不绝": 2812,
    "上车": 2813,
    "拥挤": 2814,
    "男子": 2815,
    "足球赛": 2816,
    "紧急": 2817,
    "调动": 2818,
    "和谐": 2819,
    "固执": 2820,
    "相当": 2821,
    "低年级": 2822,
    "落后": 2823,
    "无缘无故": 2824,
    "小朋友": 2825,
    "仗": 2826,
    "围观": 2827,
    "支票": 2828,
    "盖章": 2829,
    "金额": 2830,
    "退回": 2831,
    "申报": 2832,
    "认可": 2833,
    "审题": 2834,
    "试题": 2835,
    "带薪": 2836,
    "吸引力": 2837,
    "看似": 2838,
    "食粮": 2839,
    "算是": 2840,
    "欢乐": 2841,
    "雪": 2842,
    "独特": 2843,
    "上次": 2844,
    "输液瓶": 2845,
    "输液泵": 2846,
    "验证": 2847,
    "大都": 2848,
    "输液器": 2849,
    "登山": 2850,
    "面孔": 2851,
    "可取": 2852,
    "适度": 2853,
    "字典": 2854,
    "全年": 2855,
    "夜以继日": 2856,
    "特效": 2857,
    "票价": 2858,
    "动": 2859,
    "取代": 2860,
    "发给": 2861,
    "好运": 2862,
    "新增": 2863,
    "投影仪": 2864,
    "讲座": 2865,
    "现金": 2866,
    "扫": 2867,
    "失效": 2868,
    "了不起": 2869,
    "漏洞": 2870,
    "残忍": 2871,
    "抽查": 2872,
    "庆祝": 2873,
    "十五": 2874,
    "曾": 2875,
    "面部": 2876,
    "浮现": 2877,
    "搞笑": 2878,
    "富有": 2879,
    "回老家": 2880,
    "度过": 2881,
    "艰难": 2882,
    "削减": 2883,
    "加上": 2884,
    "随意": 2885,
    "来得及": 2886,
    "处分": 2887,
    "店名": 2888,
    "八宝": 2889,
    "粥": 2890,
    "奶奶家": 2891,
    "忘带": 2892,
    "有的是": 2893,
    "养育": 2894,
    "嘴": 2895,
    "公平": 2896,
    "一等奖": 2897,
    "二等奖": 2898,
    "晕": 2899,
    "至少": 2900,
    "交易": 2901,
    "灵活": 2902,
    "属于": 2903,
    "中国队": 2904,
    "现场": 2905,
    "半路": 2906,
    "个性": 2907,
    "过度": 2908,
    "翻脸不认人": 2909,
    "孕妇": 2910,
    "看望": 2911,
    "财政": 2912,
    "堆": 2913,
    "编": 2914,
    "床": 2915,
    "快捷": 2916,
    "面": 2917,
    "透露": 2918,
    "谈话": 2919,
    "看法": 2920,
    "说来": 2921,
    "风气": 2922,
    "颠覆": 2923,
    "听懂": 2924,
    "意思": 2925,
    "谢": 2926,
    "独立": 2927,
    "差距": 2928,
    "不得": 2929,
    "家乡": 2930,
    "专心": 2931,
    "拖延": 2932,
    "决不": 2933,
    "只顾": 2934,
    "瞎": 2935,
    "余额": 2936,
    "以下": 2937,
    "空": 2938,
    "栋": 2939,
    "大楼": 2940,
    "人次": 2941,
    "同行": 2942,
    "欣赏": 2943,
    "好学": 2944,
    "早出晚归": 2945,
    "标": 2946,
    "签订": 2947,
    "实行": 2948,
    "警官": 2949,
    "一味": 2950,
    "外国人": 2951,
    "大失所望": 2952,
    "关键": 2953,
    "空腹": 2954,
    "扎破": 2955,
    "入职": 2956,
    "托付": 2957,
    "大爷": 2958,
    "出租屋": 2959,
    "孤单": 2960,
    "载": 2961,
    "起步价": 2962,
    "租车": 2963,
    "家务": 2964,
    "医术": 2965,
    "灾难": 2966,
    "邻里": 2967,
    "安定": 2968,
    "批": 2969,
    "养家": 2970,
    "无比": 2971,
    "助学": 2972,
    "富人": 2973,
    "供应": 2974,
    "传来": 2975,
    "一如既往": 2976,
    "摔跤": 2977,
    "口语": 2978,
    "出事": 2979,
    "如此": 2980,
    "带有": 2981,
    "整个": 2982,
    "当地": 2983,
    "全家人": 2984,
    "政策": 2985,
    "艰苦": 2986,
    "车辆": 2987,
    "骂": 2988,
    "见到": 2989,
    "文明": 2990,
    "两旁": 2991,
    "小花": 2992,
    "金黄": 2993,
    "银白": 2994,
    "挂": 2995,
    "三大": 2996,
    "喝足": 2997,
    "逼迫": 2998,
    "儿童": 2999,
    "入学": 3000,
    "依法": 3001,
    "条理": 3002,
    "考好": 3003,
    "愿望": 3004,
    "铺": 3005,
    "店铺": 3006,
    "回忆": 3007,
    "鸟儿": 3008,
    "狠狠": 3009,
    "一万": 3010,
    "轻松": 3011,
    "放到": 3012,
    "决": 3013,
    "不好意思": 3014,
    "神情": 3015,
    "诚实": 3016,
    "股市": 3017,
    "面积": 3018,
    "石榴": 3019,
    "交谈": 3020,
    "背": 3021,
    "另外": 3022,
    "自言自语": 3023,
    "自认倒霉": 3024,
    "度假": 3025,
    "摸": 3026,
    "丰硕": 3027,
    "外观": 3028,
    "热爱": 3029,
    "腼腆": 3030,
    "参与": 3031,
    "现状": 3032,
    "唠叨": 3033,
    "难题": 3034,
    "朵": 3035,
    "整片": 3036,
    "牌子": 3037,
    "幼儿园": 3038,
    "时光": 3039,
    "床头": 3040,
    "涨": 3041,
    "在世": 3042,
    "过日子": 3043,
    "盏": 3044,
    "解说": 3045,
    "下方": 3046,
    "一草一木": 3047,
    "乡": 3048,
    "亲切感": 3049,
    "倍感": 3050,
    "受灾": 3051,
    "班主任": 3052,
    "温柔": 3053,
    "观看": 3054,
    "喝彩": 3055,
    "提心吊胆": 3056,
    "摔": 3057,
    "叫好": 3058,
    "联欢": 3059,
    "戏": 3060,
    "好奇心": 3061,
    "众所周知": 3062,
    "除": 3063,
    "不论": 3064,
    "忽视": 3065,
    "知足": 3066,
    "无可": 3067,
    "故意": 3068,
    "风吹草动": 3069,
    "经不起": 3070,
    "笑话": 3071,
    "力": 3072,
    "动不动": 3073,
    "提问": 3074,
    "自始至终": 3075,
    "融洽": 3076,
    "心直口快": 3077,
    "和睦相处": 3078,
    "摸鱼": 3079,
    "理性": 3080,
    "思维": 3081,
    "要么": 3082,
    "胖子": 3083,
    "本领": 3084,
    "错怪": 3085,
    "记事": 3086,
    "坏话": 3087,
    "作弊者": 3088,
    "经典": 3089,
    "全都": 3090,
    "生前": 3091,
    "班会": 3092,
    "组成部分": 3093,
    "真相": 3094,
    "书籍": 3095,
    "前人": 3096,
    "创新": 3097,
    "字幕组": 3098,
    "乡村": 3099,
    "西": 3100,
    "自拍杆": 3101,
    "崇高": 3102,
    "道具": 3103,
    "真理": 3104,
    "大钱": 3105,
    "面子": 3106,
    "过世": 3107,
    "三百": 3108,
    "完美": 3109,
    "啦": 3110,
    "啥": 3111,
    "诚意": 3112,
    "情愿": 3113,
    "公开": 3114,
    "记住": 3115,
    "抓紧": 3116,
    "秩序": 3117,
    "素材": 3118,
    "宝宝": 3119,
    "留学": 3120,
    "养家糊口": 3121,
    "离职": 3122,
    "吉利": 3123,
    "助理": 3124,
    "发到": 3125,
    "拜访": 3126,
    "国庆节": 3127,
    "男": 3128,
    "一元": 3129,
    "爱好者": 3130,
    "姐妹": 3131,
    "备份": 3132,
    "流水线": 3133,
    "修车": 3134,
    "急招": 3135,
    "熟练": 3136,
    "攒钱": 3137,
    "表弟": 3138,
    "表姐": 3139,
    "上门": 3140,
    "热闹": 3141,
    "自称": 3142,
    "申请书": 3143,
    "家园": 3144,
    "花草": 3145,
    "晚辈": 3146,
    "群体": 3147,
    "总共": 3148,
    "营业": 3149,
    "称为": 3150,
    "写作": 3151,
    "电视机": 3152,
    "担任": 3153,
    "网页": 3154,
    "琳琅满目": 3155,
    "采购": 3156,
    "瓶": 3157,
    "收银员": 3158,
    "换来": 3159,
    "见识": 3160,
    "违背": 3161,
    "跳伞": 3162,
    "出息": 3163,
    "单一": 3164,
    "有钱": 3165,
    "研究生": 3166,
    "假期": 3167,
    "最低": 3168,
    "心态": 3169,
    "概念": 3170,
    "期限": 3171,
    "冲": 3172,
    "农业": 3173,
    "受害者": 3174,
    "鲜花": 3175,
    "招待": 3176,
    "确保": 3177,
    "计算": 3178,
    "适得其反": 3179,
    "训练": 3180,
    "美术": 3181,
    "探索": 3182,
    "编造": 3183,
    "借鉴": 3184,
    "轻视": 3185,
    "取决于": 3186,
    "总统": 3187,
    "分公司": 3188,
    "关": 3189,
    "理会": 3190,
    "执行": 3191,
    "国际": 3192,
    "阑尾": 3193,
    "本月": 3194,
    "放学": 3195,
    "四川": 3196,
    "粗糙": 3197,
    "劳务": 3198,
    "森林": 3199,
    "仇": 3200,
    "谈笑风生": 3201,
    "武汉": 3202,
    "百分之一": 3203,
    "洞": 3204,
    "全家": 3205,
    "白": 3206,
    "动物界": 3207,
    "交代": 3208,
    "百货": 3209,
    "跟着": 3210,
    "旁人": 3211,
    "档案": 3212,
    "氛围": 3213,
    "自动": 3214,
    "扣": 3215,
    "香港": 3216,
    "词": 3217,
    "即": 3218,
    "需求量": 3219,
    "武器": 3220,
    "挑战": 3221,
    "旅游区": 3222,
    "包扎": 3223,
    "医用": 3224,
    "集中营": 3225,
    "小姐": 3226,
    "加油": 3227,
    "朝鲜": 3228,
    "涂": 3229,
    "社区": 3230,
    "跳高": 3231,
    "克制": 3232,
    "好听": 3233,
    "歌曲": 3234,
    "钢琴": 3235,
    "灯塔": 3236,
    "选民": 3237,
    "经商": 3238,
    "口": 3239,
    "洁白": 3240,
    "牙齿": 3241,
    "零食": 3242,
    "美满": 3243,
    "填补": 3244,
    "医护": 3245,
    "救护车": 3246,
    "树上": 3247,
    "糖果": 3248,
    "不时": 3249,
    "她们": 3250,
    "气味": 3251,
    "排除": 3252,
    "定时": 3253,
    "破": 3254,
    "现今": 3255,
    "原件": 3256,
    "彩色": 3257,
    "异想天开": 3258,
    "切": 3259,
    "土豆": 3260,
    "编写": 3261,
    "响": 3262,
    "山": 3263,
    "挤": 3264,
    "年底": 3265,
    "晒": 3266,
    "脚": 3267,
    "文艺": 3268,
    "咬": 3269,
    "自已": 3270,
    "气势汹汹": 3271,
    "一点点": 3272,
    "生效": 3273,
    "引人注目": 3274,
    "长远": 3275,
    "自": 3276,
    "无可奈何": 3277,
    "拨款": 3278,
    "受益": 3279,
    "制定": 3280,
    "双胞胎": 3281,
    "进城": 3282,
    "真心": 3283,
    "强者": 3284,
    "丑": 3285,
    "做生意": 3286,
    "日": 3287,
    "遗传病": 3288,
    "短": 3289,
    "鼠标": 3290,
    "有线": 3291,
    "平静": 3292,
    "号召力": 3293,
    "春回大地": 3294,
    "换卡": 3295,
    "远离": 3296,
    "过敏源": 3297,
    "室外": 3298,
    "同伙": 3299,
    "老虎": 3300,
    "智者": 3301,
    "信仰": 3302,
    "姑娘": 3303,
    "行贿": 3304,
    "戏剧": 3305,
    "美德": 3306,
    "主流": 3307,
    "专家": 3308,
    "汉堡": 3309,
    "环节": 3310,
    "支出": 3311,
    "珍贵": 3312,
    "文化局": 3313,
    "高峰期": 3314,
    "自私自利": 3315,
    "白云": 3316,
    "占": 3317,
    "一家人": 3318,
    "抵挡": 3319,
    "拍照": 3320,
    "摆脱": 3321,
    "回报": 3322,
    "做梦": 3323,
    "推迟": 3324,
    "劝": 3325,
    "建筑物": 3326,
    "蛋黄": 3327,
    "离家": 3328,
    "右边": 3329,
    "趟": 3330,
    "收银台": 3331,
    "散步": 3332,
    "绿灯": 3333,
    "起飞": 3334,
    "够": 3335,
    "秋天": 3336,
    "开会": 3337,
    "物质": 3338,
    "歧视": 3339,
    "大觉": 3340,
    "恐怖片": 3341,
    "通道": 3342,
    "说法": 3343,
    "宽厚": 3344,
    "监控": 3345,
    "回顾": 3346,
    "古代": 3347,
    "处处": 3348,
    "顽强": 3349,
    "不光": 3350,
    "种种": 3351,
    "心头": 3352,
    "歌声": 3353,
    "中华民族": 3354,
    "蓬勃": 3355,
    "困境": 3356,
    "破裂": 3357,
    "推广": 3358,
    "变化无常": 3359,
    "度": 3360,
    "捡": 3361,
    "地步": 3362,
    "成就": 3363,
    "轻易": 3364,
    "退步": 3365,
    "注意力": 3366,
    "战术": 3367,
    "使得": 3368,
    "次数": 3369,
    "参": 3370,
    "不堪设想": 3371,
    "宽容": 3372,
    "办事": 3373,
    "一下子": 3374,
    "新生": 3375,
    "毕业生": 3376,
    "雨伞": 3377,
    "谈起": 3378,
    "景色": 3379,
    "犹豫不决": 3380,
    "缘故": 3381,
    "大人": 3382,
    "徒劳": 3383,
    "无益": 3384,
    "校长": 3385,
    "插队": 3386,
    "饮品": 3387,
    "全力": 3388,
    "予以": 3389,
    "应有": 3390,
    "参军": 3391,
    "凡是": 3392,
    "本质": 3393,
    "早退": 3394,
    "垂头丧气": 3395,
    "迎合": 3396,
    "匆忙": 3397,
    "票房": 3398,
    "长途": 3399,
    "年前": 3400,
    "争": 3401,
    "领取": 3402,
    "触犯": 3403,
    "指引": 3404,
    "不景气": 3405,
    "家中": 3406,
    "行不通": 3407,
    "星球": 3408,
    "成人": 3409,
    "本次": 3410,
    "远远": 3411,
    "特制": 3412,
    "潦草": 3413,
    "尤其": 3414,
    "回收": 3415,
    "铅笔": 3416,
    "贵贱": 3417,
    "左手": 3418,
    "规矩": 3419,
    "对照": 3420,
    "自习": 3421,
    "窗外": 3422,
    "可疑": 3423,
    "书店": 3424,
    "菜品": 3425,
    "优势": 3426,
    "低级": 3427,
    "届": 3428,
    "青春期": 3429,
    "突破": 3430,
    "节目": 3431,
    "频繁": 3432,
    "一窍不通": 3433,
    "全球": 3434,
    "升级": 3435,
    "失误": 3436,
    "光是": 3437,
    "亲手": 3438,
    "这天": 3439,
    "猜猜": 3440,
    "读完": 3441,
    "学到": 3442,
    "不得了": 3443,
    "硬": 3444,
    "意料": 3445,
    "小事": 3446,
    "好评": 3447,
    "打扰": 3448,
    "姐夫": 3449,
    "追问": 3450,
    "飞涨": 3451,
    "长跑": 3452,
    "强度": 3453,
    "罚": 3454,
    "送上": 3455,
    "大山": 3456,
    "低下": 3457,
    "过头": 3458,
    "收场": 3459,
    "活泼": 3460,
    "开朗": 3461,
    "熬夜": 3462,
    "楼道": 3463,
    "率": 3464,
    "不定期": 3465,
    "脏": 3466,
    "男性": 3467,
    "上下班": 3468,
    "朝着": 3469,
    "退票": 3470,
    "手舞足蹈": 3471,
    "步骤": 3472,
    "程序员": 3473,
    "限制": 3474,
    "出路": 3475,
    "获利": 3476,
    "一对": 3477,
    "组": 3478,
    "初": 3479,
    "语无伦次": 3480,
    "生活费": 3481,
    "命": 3482,
    "得奖": 3483,
    "吃亏": 3484,
    "指导": 3485,
    "消失": 3486,
    "进来": 3487,
    "箱子": 3488,
    "热心": 3489,
    "拍摄": 3490,
    "登": 3491,
    "路边": 3492,
    "兴隆": 3493,
    "纠纷": 3494,
    "加薪": 3495,
    "体力": 3496,
    "利息": 3497,
    "帐户": 3498,
    "打发": 3499,
    "义务教育": 3500,
    "细心": 3501,
    "干干净净": 3502,
    "乱来": 3503,
    "毅力": 3504,
    "购票": 3505,
    "多多": 3506,
    "片段": 3507,
    "临时": 3508,
    "乡下": 3509,
    "恭喜": 3510,
    "教授": 3511,
    "传销": 3512,
    "小组": 3513,
    "一年一度": 3514,
    "显示": 3515,
    "实时": 3516,
    "数字": 3517,
    "干活": 3518,
    "植物": 3519,
    "出名": 3520,
    "描写": 3521,
    "达": 3522,
    "马拉松": 3523,
    "嫌疑人": 3524,
    "正义": 3525,
    "重视": 3526,
    "平安": 3527,
    "萎缩": 3528,
    "罪行": 3529,
    "国人": 3530,
    "心脏": 3531,
    "酒精": 3532,
    "尽可能": 3533,
    "渡过": 3534,
    "实力": 3535,
    "津津有味": 3536,
    "上台": 3537,
    "主观": 3538,
    "说好": 3539,
    "球技": 3540,
    "九点": 3541,
    "无力": 3542,
    "共享": 3543,
    "冷漠": 3544,
    "折服": 3545,
    "间谍": 3546,
    "怎": 3547,
    "误会": 3548,
    "顺序": 3549,
    "一月份": 3550,
    "保密": 3551,
    "类型": 3552,
    "亲自": 3553,
    "贿赂": 3554,
    "游戏机": 3555,
    "阻止": 3556,
    "赔": 3557,
    "袋": 3558,
    "上帝": 3559,
    "荣誉": 3560,
    "模糊": 3561,
    "上天": 3562,
    "向往": 3563,
    "当今": 3564,
    "不平": 3565,
    "枯燥": 3566,
    "喜": 3567,
    "美观": 3568,
    "急躁": 3569,
    "欲速不达": 3570,
    "试穿": 3571,
    "带笔": 3572,
    "历程": 3573,
    "言": 3574,
    "个别": 3575,
    "不在乎": 3576,
    "运营": 3577,
    "战无不胜": 3578,
    "群发": 3579,
    "明确": 3580,
    "花纹": 3581,
    "小小": 3582,
    "收下": 3583,
    "草稿纸": 3584,
    "写字": 3585,
    "初步": 3586,
    "算错": 3587,
    "一模一样": 3588,
    "体育课": 3589,
    "居民": 3590,
    "歌咏": 3591,
    "辜负": 3592,
    "等到": 3593,
    "争夺": 3594,
    "不知所措": 3595,
    "最初": 3596,
    "诈骗": 3597,
    "高大": 3598,
    "翻": 3599,
    "趋势": 3600,
    "投": 3601,
    "友情": 3602,
    "上级": 3603,
    "排": 3604,
    "插": 3605,
    "输": 3606,
    "提": 3607,
    "讲究": 3608,
    "逃": 3609,
    "转": 3610,
    "躲开": 3611,
    "再说": 3612,
    "药品": 3613,
    "深入": 3614,
    "天下": 3615,
    "窗口": 3616,
    "输入": 3617,
    "自学成才": 3618,
    "低价": 3619,
    "实际上": 3620,
    "心存": 3621,
    "透": 3622,
    "辞退": 3623,
    "家具": 3624,
    "消费者": 3625,
    "孝敬": 3626,
    "赡养": 3627,
    "春季": 3628,
    "期望": 3629,
    "火候": 3630,
    "留恋": 3631,
    "做起": 3632,
    "爱美": 3633,
    "漫漫": 3634,
    "急于": 3635,
    "等于": 3636,
    "显胖": 3637,
    "除非": 3638,
    "至": 3639,
    "缓解": 3640,
    "体虚": 3641,
    "抗病": 3642,
    "减弱": 3643,
    "证实": 3644,
    "感冒药": 3645,
    "泛指": 3646,
    "药剂": 3647,
    "中药": 3648,
    "风寒": 3649,
    "风热": 3650,
    "音乐会": 3651,
    "换位": 3652,
    "好感": 3653,
    "对视": 3654,
    "渴求": 3655,
    "世界观": 3656,
    "补助": 3657,
    "泪水": 3658,
    "显著": 3659,
    "设定": 3660,
    "劳动权": 3661,
    "加班加点": 3662,
    "加点": 3663,
    "劳动法": 3664,
    "按劳分配": 3665,
    "核心": 3666,
    "股份": 3667,
    "资本": 3668,
    "买进": 3669,
    "卖出": 3670,
    "桶": 3671,
    "运转": 3672,
    "不当": 3673,
    "对外": 3674,
    "大牛": 3675,
    "前景": 3676,
    "酝酿": 3677,
    "行情": 3678,
    "相较": 3679,
    "交易额": 3680,
    "合并": 3681,
    "重组": 3682,
    "代码": 3683,
    "耽误": 3684,
    "行程": 3685,
    "使用者": 3686,
    "停工": 3687,
    "应对": 3688,
    "停机": 3689,
    "电气": 3690,
    "应急": 3691,
    "处置": 3692,
    "机制": 3693,
    "回访": 3694,
    "复": 3695,
    "广告牌": 3696,
    "构思": 3697,
    "可见": 3698,
    "展销": 3699,
    "播出": 3700,
    "厂商": 3701,
    "蜂拥而上": 3702,
    "一则": 3703,
    "冗长": 3704,
    "倾向": 3705,
    "内部": 3706,
    "介绍所": 3707,
    "刊登": 3708,
    "一并": 3709,
    "张贴": 3710,
    "波谱": 3711,
    "磁力仪": 3712,
    "勘测": 3713,
    "中期": 3714,
    "实验室": 3715,
    "词汇": 3716,
    "脑部": 3717,
    "技师": 3718,
    "指示": 3719,
    "含水量": 3720,
    "扫描仪": 3721,
    "玩意": 3722,
    "振孔": 3723,
    "隙度": 3724,
    "磁化率": 3725,
    "电动": 3726,
    "振仪": 3727,
    "女士": 3728,
    "腰酸背疼": 3729,
    "病因": 3730,
    "喜庆": 3731,
    "元素": 3732,
    "埋头": 3733,
    "盯屏": 3734,
    "节后": 3735,
    "谈论": 3736,
    "专发": 3737,
    "忍": 3738,
    "点击": 3739,
    "爱人": 3740,
    "楼上": 3741,
    "指定": 3742,
    "外交": 3743,
    "垂危": 3744,
    "伙儿": 3745,
    "卧床": 3746,
    "其它": 3747,
    "台大": 3748,
    "创伤": 3749,
    "革新": 3750,
    "能手": 3751,
    "白求恩": 3752,
    "追赶": 3753,
    "钱财": 3754,
    "推行": 3755,
    "节水": 3756,
    "灌溉": 3757,
    "缩短": 3758,
    "发达国家": 3759,
    "引进": 3760,
    "补": 3761,
    "飞跃": 3762,
    "高超": 3763,
    "粗心大意": 3764,
    "以防万一": 3765,
    "考查": 3766,
    "上岗": 3767,
    "日夜": 3768,
    "探亲": 3769,
    "区政府": 3770,
    "家属院": 3771,
    "供电": 3772,
    "吊唁": 3773,
    "死者": 3774,
    "跪": 3775,
    "乞求": 3776,
    "如实": 3777,
    "救者": 3778,
    "遇难者": 3779,
    "搜救": 3780,
    "事理": 3781,
    "伤者": 3782,
    "局面": 3783,
    "拆开": 3784,
    "灾区": 3785,
    "破格": 3786,
    "仪式": 3787,
    "相识": 3788,
    "解放": 3789,
    "课件": 3790,
    "打印": 3791,
    "乞丐": 3792,
    "河": 3793,
    "女排": 3794,
    "马虎": 3795,
    "截止": 3796,
    "表白": 3797,
    "尊严": 3798,
    "台湾": 3799,
    "号召": 3800,
    "征服": 3801,
    "暴露": 3802,
    "童童": 3803,
    "从早到晚": 3804,
    "不快": 3805,
    "洗": 3806,
    "大一": 3807,
    "前边": 3808,
    "手里": 3809,
    "天阴": 3810,
    "买好": 3811,
    "几件": 3812,
    "多云": 3813,
    "来看": 3814,
    "酒吧": 3815,
    "请客": 3816,
    "快点": 3817,
    "有益": 3818,
    "各位": 3819,
    "厨房": 3820,
    "饭后": 3821,
    "酸": 3822,
    "轻": 3823,
    "换下": 3824,
    "带酒": 3825,
    "超出": 3826,
    "重量": 3827,
    "试衣间": 3828,
    "顶": 3829,
    "坐在": 3830,
    "喝水": 3831,
    "身患": 3832,
    "公众": 3833,
    "堂姐": 3834,
    "癌痛": 3835,
    "困扰": 3836,
    "二手烟": 3837,
    "污染源": 3838,
    "心脏病": 3839,
    "器官": 3840,
    "癌变": 3841,
    "一无所知": 3842,
    "危害性": 3843,
    "机能": 3844,
    "退化": 3845,
    "轻微": 3846,
    "阅读": 3847,
    "坚守": 3848,
    "南极": 3849,
    "疯玩": 3850,
    "任意": 3851,
    "穿越": 3852,
    "十字路口": 3853,
    "礼让": 3854,
    "左右": 3855,
    "张望": 3856,
    "数不胜数": 3857,
    "不耐烦": 3858,
    "喇叭": 3859,
    "抵制": 3860,
    "中国式": 3861,
    "生命线": 3862,
    "人行横道": 3863,
    "待人": 3864,
    "艰苦创业": 3865,
    "先辈": 3866,
    "后人": 3867,
    "穿孔": 3868,
    "无关": 3869,
    "实施": 3870,
    "内置": 3871,
    "无限": 3872,
    "匹配": 3873,
    "研制": 3874,
    "终端": 3875,
    "机密性": 3876,
    "安全性": 3877,
    "奖项": 3878,
    "上装": 3879,
    "驱动": 3880,
    "节省": 3881,
    "商业区": 3882,
    "最高": 3883,
    "评为": 3884,
    "医切": 3885,
    "切准": 3886,
    "要害": 3887,
    "紧紧": 3888,
    "与时俱进": 3889,
    "垂死者": 3890,
    "微弱": 3891,
    "察觉": 3892,
    "丝": 3893,
    "迹象": 3894,
    "加快": 3895,
    "微型化": 3896,
    "测量": 3897,
    "便携": 3898,
    "化": 3899,
    "体育馆": 3900,
    "测试": 3901,
    "考核表": 3902,
    "原始": 3903,
    "保留": 3904,
    "源于": 3905,
    "活字": 3906,
    "印刷术": 3907,
    "打字机": 3908,
    "打出": 3909,
    "空位": 3910,
    "附张": 3911,
    "蓝墨水": 3912,
    "拟": 3913,
    "设": 3914,
    "法人": 3915,
    "简历": 3916,
    "转悠": 3917,
    "复印室": 3918,
    "键": 3919,
    "重燃": 3920,
    "当中": 3921,
    "无微不至": 3922,
    "关怀": 3923,
    "窘迫": 3924,
    "哪怕": 3925,
    "一言一行": 3926,
    "途径": 3927,
    "亲近": 3928,
    "沦为": 3929,
    "口号": 3930,
    "心服口服": 3931,
    "免除": 3932,
    "后顾之忧": 3933,
    "正规": 3934,
    "骗局": 3935,
    "装置": 3936,
    "扎": 3937,
    "乱动": 3938,
    "药店": 3939,
    "浑身": 3940,
    "惨烈": 3941,
    "裹": 3942,
    "木乃伊": 3943,
    "焦急": 3944,
    "绑": 3945,
    "咬紧牙关": 3946,
    "便于": 3947,
    "电量": 3948,
    "性能": 3949,
    "奇奇怪怪": 3950,
    "进水": 3951,
    "高标准": 3952,
    "严": 3953,
    "学霸": 3954,
    "发音": 3955,
    "多加": 3956,
    "标准线": 3957,
    "之上": 3958,
    "世俗": 3959,
    "紧迫": 3960,
    "用到": 3961,
    "手势": 3962,
    "带给": 3963,
    "源泉": 3964,
    "工作者": 3965,
    "令人感动": 3966,
    "鼓舞": 3967,
    "长河": 3968,
    "怀抱": 3969,
    "犹如": 3970,
    "海洋": 3971,
    "搜": 3972,
    "共鸣": 3973,
    "水滴石穿": 3974,
    "赏心悦目": 3975,
    "乐观": 3976,
    "圆浑": 3977,
    "纯厚": 3978,
    "场上": 3979,
    "病菌": 3980,
    "肆虐": 3981,
    "五口": 3982,
    "幸免": 3983,
    "痊愈": 3984,
    "言不由衷": 3985,
    "自始自终": 3986,
    "演讲者": 3987,
    "讲稿": 3988,
    "慷慨": 3989,
    "激昂": 3990,
    "演唱": 3991,
    "声情并茂": 3992,
    "富": 3993,
    "推动力": 3994,
    "愉悦": 3995,
    "踏进": 3996,
    "迅猛": 3997,
    "潮流": 3998,
    "呈现": 3999,
    "景象": 4000,
    "改造": 4001,
    "后顿": 4002,
    "旧观": 4003,
    "判若云泥": 4004,
    "新陈代谢": 4005,
    "除旧更新": 4006,
    "一日千里": 4007,
    "汰": 4008,
    "惊人": 4009,
    "日新月异": 4010,
    "定义": 4011,
    "减员": 4012,
    "压锭": 4013,
    "陈旧": 4014,
    "纺织": 4015,
    "扭亏为盈": 4016,
    "陈": 4017,
    "自行其是": 4018,
    "对谈": 4019,
    "尽释前嫌": 4020,
    "国语": 4021,
    "南腔北调": 4022,
    "技巧": 4023,
    "落落大方": 4024,
    "讲话": 4025,
    "砥砺": 4026,
    "教学相长": 4027,
    "固执己见": 4028,
    "同志": 4029,
    "推心": 4030,
    "置": 4031,
    "腹地": 4032,
    "改进": 4033,
    "各国": 4034,
    "秋麦": 4035,
    "长势": 4036,
    "喜人": 4037,
    "亩产": 4038,
    "产量": 4039,
    "亩": 4040,
    "产": 4041,
    "一千万": 4042,
    "实事求是": 4043,
    "势均力敌": 4044,
    "鹿死谁手": 4045,
    "高地": 4046,
    "有备无患": 4047,
    "立于不败之地": 4048,
    "眼花缭乱": 4049,
    "屋子": 4050,
    "声": 4051,
    "回应": 4052,
    "忘掉": 4053,
    "话剧": 4054,
    "树根": 4055,
    "山体": 4056,
    "松动": 4057,
    "勘探队": 4058,
    "那儿": 4059,
    "敏感度": 4060,
    "经由": 4061,
    "比例": 4062,
    "持卡人": 4063,
    "发卡": 4064,
    "逐项": 4065,
    "止付": 4066,
    "付款人": 4067,
    "暂停": 4068,
    "兑奖": 4069,
    "凭证": 4070,
    "自惭形秽": 4071,
    "不可救药": 4072,
    "逢年过节": 4073,
    "望梅止渴": 4074,
    "某样": 4075,
    "伴随": 4076,
    "夜间": 4077,
    "处之泰然": 4078,
    "尸横遍野": 4079,
    "场景": 4080,
    "心惊肉跳": 4081,
    "风驰电掣": 4082,
    "不免": 4083,
    "屠户": 4084,
    "凶神恶煞": 4085,
    "怀着": 4086,
    "惴惴不安": 4087,
    "走进": 4088,
    "取笑": 4089,
    "因噎废食": 4090,
    "不再": 4091,
    "练": 4092,
    "教育家": 4093,
    "洽谈": 4094,
    "办学": 4095,
    "地狱": 4096,
    "理念": 4097,
    "校庆": 4098,
    "舞台剧": 4099,
    "促成": 4100,
    "跨国": 4101,
    "才华": 4102,
    "锋芒毕露": 4103,
    "看适": 4104,
    "各负其责": 4105,
    "缺课": 4106,
    "鬼鬼祟祟": 4107,
    "以来": 4108,
    "相反": 4109,
    "众口一词": 4110,
    "真话": 4111,
    "白发": 4112,
    "苍苍": 4113,
    "霜": 4114,
    "莞尔一笑": 4115,
    "再有": 4116,
    "至高无上": 4117,
    "雨量": 4118,
    "防汛": 4119,
    "抗旱": 4120,
    "并重": 4121,
    "小林": 4122,
    "众寡悬殊": 4123,
    "歼灭战": 4124,
    "谈谈": 4125,
    "照旧": 4126,
    "精简": 4127,
    "重叠": 4128,
    "旱灾": 4129,
    "一天天": 4130,
    "拯救": 4131,
    "濒危": 4132,
    "物种": 4133,
    "迫在眉睫": 4134,
    "进口": 4135,
    "以人为鉴": 4136,
    "废物": 4137,
    "变废为宝": 4138,
    "一举两得": 4139,
    "绿化": 4140,
    "虽": 4141,
    "法纪": 4142,
    "逍遥法外": 4143,
    "情形": 4144,
    "大为": 4145,
    "贯彻": 4146,
    "方针": 4147,
    "水电": 4148,
    "抚养": 4149,
    "电力": 4150,
    "用电": 4151,
    "修旧利废": 4152,
    "考证": 4153,
    "命中": 4154,
    "注定": 4155,
    "洗涤": 4156,
    "誓言": 4157,
    "青少年": 4158,
    "阅历": 4159,
    "浅": 4160,
    "骨太": 4161,
    "摔打": 4162,
    "顺风": 4163,
    "行船": 4164,
    "一帆风顺": 4165,
    "折腾": 4166,
    "燃放": 4167,
    "炮竹": 4168,
    "销毁": 4169,
    "核武器": 4170,
    "出台": 4171,
    "歌": 4172,
    "认定": 4173,
    "猎取": 4174,
    "珍稀": 4175,
    "野生": 4176,
    "作风": 4177,
    "手持": 4178,
    "爆竹": 4179,
    "正颜厉色": 4180,
    "无理": 4181,
    "劝告": 4182,
    "赌气": 4183,
    "自讨苦吃": 4184,
    "义正辞严": 4185,
    "断然": 4186,
    "汇集": 4187,
    "操场": 4188,
    "就绪": 4189,
    "各就各位": 4190,
    "来临": 4191,
    "军旅": 4192,
    "仓促": 4193,
    "细说": 4194,
    "上路": 4195,
    "麻痹大意": 4196,
    "简在": 4197,
    "车水马龙": 4198,
    "聚精会神": 4199,
    "分神": 4200,
    "情有可原": 4201,
    "从轻": 4202,
    "纠结": 4203,
    "沉默寡言": 4204,
    "放荡不羁": 4205,
    "复婚": 4206,
    "成天": 4207,
    "坚定": 4208,
    "情义": 4209,
    "断绝": 4210,
    "老婆": 4211,
    "恩爱": 4212,
    "忽然": 4213,
    "展现": 4214,
    "夫妇": 4215,
    "破镜重圆": 4216,
    "名不副实": 4217,
    "吃一堑长一智": 4218,
    "刻不容缓": 4219,
    "算心": 4220,
    "相连": 4221,
    "终究": 4222,
    "代": 4223,
    "隔阂": 4224,
    "消除": 4225,
    "生疏": 4226,
    "好久": 4227,
    "王哥": 4228,
    "下文": 4229,
    "上文": 4230,
    "厂长": 4231,
    "拥护": 4232,
    "萍水相逢": 4233,
    "改扮": 4234,
    "党组织": 4235,
    "孤家寡人": 4236,
    "来势": 4237,
    "凶猛": 4238,
    "病倒": 4239,
    "单人": 4240,
    "集思广益": 4241,
    "群策群力": 4242,
    "二三": 4243,
    "滤过性": 4244,
    "波": 4245,
    "美式": 4246,
    "速食": 4247,
    "餐馆": 4248,
    "雨后春笋": 4249,
    "曲子": 4250,
    "有别于": 4251,
    "靡靡之音": 4252,
    "唱片": 4253,
    "回响": 4254,
    "古典": 4255,
    "家居": 4256,
    "不同凡响": 4257,
    "资讯": 4258,
    "眼花": 4259,
    "人事部": 4260,
    "歪打正着": 4261,
    "不难": 4262,
    "想像": 4263,
    "北京大学": 4264,
    "光明": 4265,
    "祝贺": 4266,
    "同等": 4267,
    "择优": 4268,
    "得知": 4269,
    "忧愁": 4270,
    "一扫而空": 4271,
    "我校": 4272,
    "三千": 4273,
    "闲心": 4274,
    "黄山": 4275,
    "一拍即合": 4276,
    "山川": 4277,
    "秀丽": 4278,
    "眼下": 4279,
    "搞好": 4280,
    "淋": 4281,
    "五一": 4282,
    "节": 4283,
    "见闻": 4284,
    "风景区": 4285,
    "天然": 4286,
    "求": 4287,
    "正值": 4288,
    "旺季": 4289,
    "宾客盈门": 4290,
    "携": 4291,
    "外逃": 4292,
    "企图": 4293,
    "得逞": 4294,
    "手工": 4295,
    "气力": 4296,
    "烧": 4297,
    "猛": 4298,
    "间断": 4299,
    "歌星": 4300,
    "有模有样": 4301,
    "叫声": 4302,
    "口形": 4303,
    "开头": 4304,
    "再造": 4305,
    "气质": 4306,
    "只不过": 4307,
    "勉励": 4308,
    "获奖": 4309,
    "劣势": 4310,
    "超额": 4311,
    "成功者": 4312,
    "清醒": 4313,
    "定然": 4314,
    "器重": 4315,
    "事在人为": 4316,
    "知名": 4317,
    "周一": 4318,
    "彻夜": 4319,
    "辩论赛": 4320,
    "双打": 4321,
    "夺取": 4322,
    "齐心": 4323,
    "我方": 4324,
    "军民": 4325,
    "防线": 4326,
    "授意": 4327,
    "洋溢": 4328,
    "温馨": 4329,
    "仅": 4330,
    "例行": 4331,
    "公事": 4332,
    "天衣无缝": 4333,
    "捣乱": 4334,
    "严办": 4335,
    "高年级": 4336,
    "豪门": 4337,
    "子弟": 4338,
    "平民": 4339,
    "百姓": 4340,
    "懦弱": 4341,
    "乌合之众": 4342,
    "本事": 4343,
    "旗鼓相当": 4344,
    "倚财仗势": 4345,
    "众人": 4346,
    "人心不古": 4347,
    "流氓": 4348,
    "职能": 4349,
    "写明": 4350,
    "验收": 4351,
    "合格": 4352,
    "需方": 4353,
    "供方": 4354,
    "出货单": 4355,
    "加盖": 4356,
    "印章": 4357,
    "询证": 4358,
    "函": 4359,
    "审计师": 4360,
    "受款": 4361,
    "文具店": 4362,
    "签字笔": 4363,
    "备查": 4364,
    "还原": 4365,
    "铅封": 4366,
    "塑封": 4367,
    "报名单": 4368,
    "简明": 4369,
    "委托": 4370,
    "代理人": 4371,
    "一道": 4372,
    "自力更生": 4373,
    "排斥": 4374,
    "外援": 4375,
    "答卷": 4376,
    "看准": 4377,
    "解法": 4378,
    "设计者": 4379,
    "闭门造车": 4380,
    "本末倒置": 4381,
    "一致性": 4382,
    "存异": 4383,
    "探视": 4384,
    "概览": 4385,
    "不适": 4386,
    "法学院": 4387,
    "劳累": 4388,
    "旁": 4389,
    "协助": 4390,
    "空洞": 4391,
    "活力": 4392,
    "暮气沉沉": 4393,
    "知": 4394,
    "巧妇难为无米之炊": 4395,
    "生不逢时": 4396,
    "清苦": 4397,
    "甘之如饴": 4398,
    "充饥": 4399,
    "记不清": 4400,
    "患难": 4401,
    "无知": 4402,
    "逆境": 4403,
    "名言": 4404,
    "一而再": 4405,
    "扬扬": 4406,
    "得意": 4407,
    "心灰意冷": 4408,
    "夜郎自大": 4409,
    "当天": 4410,
    "夜里": 4411,
    "左思右想": 4412,
    "莫衷一是": 4413,
    "怨天尤人": 4414,
    "奔走相告": 4415,
    "之母": 4416,
    "滴": 4417,
    "老兄": 4418,
    "喝醉": 4419,
    "临床": 4420,
    "隐患": 4421,
    "对策": 4422,
    "管路": 4423,
    "参观者": 4424,
    "车间": 4425,
    "室内": 4426,
    "导管": 4427,
    "大哭": 4428,
    "瘦弱": 4429,
    "探讨": 4430,
    "精密": 4431,
    "过滤": 4432,
    "阔别": 4433,
    "鬼使神差": 4434,
    "般地": 4435,
    "留神": 4436,
    "当心": 4437,
    "身处": 4438,
    "异国他乡": 4439,
    "毫不": 4440,
    "迟疑": 4441,
    "孜孜不倦": 4442,
    "备课": 4443,
    "预习": 4444,
    "字词": 4445,
    "不至于": 4446,
    "措手不及": 4447,
    "汽车厂": 4448,
    "植树": 4449,
    "完工": 4450,
    "战斗": 4451,
    "满怀信心": 4452,
    "剧情": 4453,
    "上映": 4454,
    "老式": 4455,
    "黑白": 4456,
    "逼真": 4457,
    "省": 4458,
    "时不时": 4459,
    "烦": 4460,
    "轻信": 4461,
    "转发": 4462,
    "欠费": 4463,
    "笔记": 4464,
    "报告厅": 4465,
    "老家": 4466,
    "每张": 4467,
    "独一无二": 4468,
    "即可": 4469,
    "维码": 4470,
    "好奇": 4471,
    "权益": 4472,
    "颁布": 4473,
    "闹着玩": 4474,
    "废除": 4475,
    "写信": 4476,
    "其他人": 4477,
    "本店": 4478,
    "坐错": 4479,
    "顺着": 4480,
    "调转": 4481,
    "原": 4482,
    "返回": 4483,
    "辨别": 4484,
    "上越": 4485,
    "西北": 4486,
    "逆": 4487,
    "人流": 4488,
    "行走": 4489,
    "下课": 4490,
    "诞生": 4491,
    "静": 4492,
    "从家": 4493,
    "以内": 4494,
    "保质期": 4495,
    "望而生畏": 4496,
    "迷茫": 4497,
    "幸灾乐祸": 4498,
    "大大咧咧": 4499,
    "这时": 4500,
    "安详": 4501,
    "开房": 4502,
    "订好": 4503,
    "包落": 4504,
    "急匆匆": 4505,
    "病历卡": 4506,
    "看病": 4507,
    "病案": 4508,
    "调取": 4509,
    "涂抹": 4510,
    "家用": 4511,
    "购房": 4512,
    "市政府": 4513,
    "大幅": 4514,
    "退出": 4515,
    "被盗": 4516,
    "查明": 4517,
    "公家": 4518,
    "据为己有": 4519,
    "盗": 4520,
    "警": 4521,
    "抛": 4522,
    "逃走": 4523,
    "用餐": 4524,
    "餐巾": 4525,
    "纸到": 4526,
    "凉": 4527,
    "含有": 4528,
    "砂糖": 4529,
    "方便面": 4530,
    "流程": 4531,
    "死而复生": 4532,
    "不人道": 4533,
    "顶用": 4534,
    "价钱": 4535,
    "老规矩": 4536,
    "份数": 4537,
    "家教": 4538,
    "外快": 4539,
    "乐意": 4540,
    "伸": 4541,
    "招工": 4542,
    "载入": 4543,
    "史册": 4544,
    "较真": 4545,
    "诗歌": 4546,
    "决出": 4547,
    "填完": 4548,
    "财务": 4549,
    "纸张": 4550,
    "方形": 4551,
    "玻璃心": 4552,
    "挡风": 4553,
    "玻璃珠": 4554,
    "口感": 4555,
    "火车头": 4556,
    "发动机": 4557,
    "启动": 4558,
    "主机": 4559,
    "病变": 4560,
    "全身": 4561,
    "替换": 4562,
    "孤立": 4563,
    "讲讲": 4564,
    "司空见惯": 4565,
    "如果说": 4566,
    "猫腻": 4567,
    "英国人": 4568,
    "一气呵成": 4569,
    "笔迹": 4570,
    "正文": 4571,
    "心算": 4572,
    "免不了": 4573,
    "搬走": 4574,
    "心思": 4575,
    "存活": 4576,
    "期好": 4577,
    "代表大会": 4578,
    "车检": 4579,
    "检修": 4580,
    "开班": 4581,
    "购入": 4582,
    "谄媚": 4583,
    "油腻": 4584,
    "污蔑": 4585,
    "家伙": 4586,
    "收起": 4587,
    "开通": 4588,
    "喜爱": 4589,
    "外套": 4590,
    "侧门": 4591,
    "偷工减料": 4592,
    "平板": 4593,
    "让给": 4594,
    "留给": 4595,
    "性质": 4596,
    "坏处": 4597,
    "高低": 4598,
    "重逢": 4599,
    "让座": 4600,
    "无地自容": 4601,
    "揭穿": 4602,
    "懒觉": 4603,
    "人生观": 4604,
    "细节": 4605,
    "寿命": 4606,
    "出错": 4607,
    "达标": 4608,
    "厕所": 4609,
    "卫生纸": 4610,
    "小卖部": 4611,
    "包餐": 4612,
    "优异": 4613,
    "躲": 4614,
    "避孕药": 4615,
    "技能": 4616,
    "局势": 4617,
    "陡然": 4618,
    "面貌": 4619,
    "可喜": 4620,
    "认": 4621,
    "固然": 4622,
    "不安": 4623,
    "永恒": 4624,
    "不懂装懂": 4625,
    "明知故犯": 4626,
    "赶快": 4627,
    "耽搁": 4628,
    "念书": 4629,
    "对立": 4630,
    "片面": 4631,
    "弛懈": 4632,
    "客套": 4633,
    "忠诚": 4634,
    "自理": 4635,
    "晚玩": 4636,
    "时刻表": 4637,
    "账户": 4638,
    "通话": 4639,
    "拨": 4640,
    "重拨": 4641,
    "查号台": 4642,
    "考生": 4643,
    "生怕": 4644,
    "百分之七十": 4645,
    "高度": 4646,
    "售价": 4647,
    "小车": 4648,
    "超载": 4649,
    "实事": 4650,
    "列车员": 4651,
    "小青": 4652,
    "以礼相待": 4653,
    "交口称赞": 4654,
    "姹紫嫣红": 4655,
    "花朵": 4656,
    "待人接物": 4657,
    "进门": 4658,
    "献身": 4659,
    "建筑": 4660,
    "量力而行": 4661,
    "铺设": 4662,
    "铁路": 4663,
    "协调": 4664,
    "保障": 4665,
    "国营": 4666,
    "承包制": 4667,
    "自主权": 4668,
    "哪家": 4669,
    "无名英雄": 4670,
    "造就": 4671,
    "草率": 4672,
    "崇拜者": 4673,
    "维系": 4674,
    "所在": 4675,
    "来讲": 4676,
    "化验": 4677,
    "体重": 4678,
    "四五": 4679,
    "翻身": 4680,
    "前一天": 4681,
    "肇事者": 4682,
    "鉴定": 4683,
    "酒驾": 4684,
    "科研所": 4685,
    "验血": 4686,
    "出血": 4687,
    "天后": 4688,
    "针头": 4689,
    "抽错": 4690,
    "婴儿": 4691,
    "焕然一新": 4692,
    "远方": 4693,
    "夜班": 4694,
    "寂寞": 4695,
    "思念": 4696,
    "照料": 4697,
    "捎带": 4698,
    "千叮万嘱": 4699,
    "贪玩": 4700,
    "爸妈": 4701,
    "一连": 4702,
    "公寓": 4703,
    "业": 4704,
    "法规": 4705,
    "使用权": 4706,
    "街尾": 4707,
    "出租房": 4708,
    "各自": 4709,
    "打听": 4710,
    "做伴": 4711,
    "出租汽车": 4712,
    "该市": 4713,
    "礼服": 4714,
    "操持": 4715,
    "剩余": 4716,
    "三口": 4717,
    "侍奉": 4718,
    "教课": 4719,
    "大队": 4720,
    "辅导员": 4721,
    "医德": 4722,
    "认命": 4723,
    "坚持不懈": 4724,
    "蔓延": 4725,
    "有幸": 4726,
    "虫病": 4727,
    "余": 4728,
    "召": 4729,
    "笑声": 4730,
    "昆虫": 4731,
    "媒介": 4732,
    "稳妥": 4733,
    "宽裕": 4734,
    "非得": 4735,
    "机灵": 4736,
    "造纸厂": 4737,
    "污水": 4738,
    "排放": 4739,
    "河里": 4740,
    "鱼儿": 4741,
    "信件": 4742,
    "文档": 4743,
    "碰上": 4744,
    "辞职信": 4745,
    "晋级": 4746,
    "下定": 4747,
    "笨重": 4748,
    "动脑筋": 4749,
    "可贵": 4750,
    "责罚": 4751,
    "响亮": 4752,
    "负": 4753,
    "荒山": 4754,
    "寸步难行": 4755,
    "穷人": 4756,
    "高利贷": 4757,
    "职员": 4758,
    "无息贷款": 4759,
    "付清": 4760,
    "利率": 4761,
    "敞开": 4762,
    "上涨": 4763,
    "护送": 4764,
    "着想": 4765,
    "长途跋涉": 4766,
    "隔壁": 4767,
    "忧心忡忡": 4768,
    "熟能生巧": 4769,
    "嘛": 4770,
    "彗星": 4771,
    "下滑": 4772,
    "昏迷不醒": 4773,
    "语音": 4774,
    "门户": 4775,
    "解开": 4776,
    "感知": 4777,
    "月球车": 4778,
    "自主": 4779,
    "空间": 4780,
    "分散": 4781,
    "各处": 4782,
    "同伴": 4783,
    "吴": 4784,
    "考勤": 4785,
    "入住": 4786,
    "电表": 4787,
    "劳动部门": 4788,
    "招用": 4789,
    "未成年": 4790,
    "工": 4791,
    "小伙子": 4792,
    "本子": 4793,
    "住客": 4794,
    "问及": 4795,
    "国籍": 4796,
    "登记卡": 4797,
    "纽约": 4798,
    "自给自足": 4799,
    "定居者": 4800,
    "傍晚": 4801,
    "时分": 4802,
    "大街": 4803,
    "往日": 4804,
    "一刻钟": 4805,
    "市民": 4806,
    "市区": 4807,
    "主干道": 4808,
    "骂骂咧咧": 4809,
    "八点钟": 4810,
    "病房": 4811,
    "女孩儿": 4812,
    "不怎么": 4813,
    "人来人往": 4814,
    "深处": 4815,
    "出奇": 4816,
    "河水": 4817,
    "结冰": 4818,
    "小河": 4819,
    "以至于": 4820,
    "清晨": 4821,
    "动物园": 4822,
    "梦乡": 4823,
    "长满": 4824,
    "火红": 4825,
    "月亮": 4826,
    "空中": 4827,
    "虫子": 4828,
    "树梢": 4829,
    "中交": 4830,
    "白卷": 4831,
    "发白": 4832,
    "鼓鼓的": 4833,
    "说道": 4834,
    "添": 4835,
    "暖衣": 4836,
    "饥饿": 4837,
    "着手": 4838,
    "迟延": 4839,
    "犯罪分子": 4840,
    "气焰": 4841,
    "嚣张": 4842,
    "严惩": 4843,
    "刑事犯罪": 4844,
    "自信心": 4845,
    "健全": 4846,
    "真诚": 4847,
    "修养": 4848,
    "身高": 4849,
    "口渴": 4850,
    "一口气": 4851,
    "大大小小": 4852,
    "样": 4853,
    "材质": 4854,
    "年长": 4855,
    "冒险": 4856,
    "梨花": 4857,
    "落得": 4858,
    "层层": 4859,
    "花瓣": 4860,
    "市面": 4861,
    "开门": 4862,
    "晚餐": 4863,
    "七分": 4864,
    "苏醒": 4865,
    "三分之一": 4866,
    "逃脱": 4867,
    "滑": 4868,
    "跌倒": 4869,
    "布": 4870,
    "停住": 4871,
    "球重": 4872,
    "重地": 4873,
    "落入": 4874,
    "水中": 4875,
    "教诲": 4876,
    "草": 4877,
    "飞来": 4878,
    "休息日": 4879,
    "全力以赴": 4880,
    "大西北": 4881,
    "冰天雪地": 4882,
    "慨叹": 4883,
    "越发": 4884,
    "稳重": 4885,
    "历练": 4886,
    "百": 4887,
    "犯点": 4888,
    "填好": 4889,
    "存取款": 4890,
    "无间": 4891,
    "读研": 4892,
    "考进": 4893,
    "校区": 4894,
    "本地": 4895,
    "救": 4896,
    "呻吟": 4897,
    "自制": 4898,
    "简易": 4899,
    "贸然": 4900,
    "六月份": 4901,
    "收购": 4902,
    "异性": 4903,
    "确实": 4904,
    "机械": 4905,
    "用词": 4906,
    "悲剧": 4907,
    "找出": 4908,
    "乐趣": 4909,
    "班上": 4910,
    "通": 4911,
    "施展": 4912,
    "晓得": 4913,
    "随机": 4914,
    "应变": 4915,
    "平方米": 4916,
    "两个": 4917,
    "喜形于色": 4918,
    "广阔": 4919,
    "饭边": 4920,
    "多多少少": 4921,
    "要犯": 4922,
    "起楼": 4923,
    "人民币": 4924,
    "甜甜": 4925,
    "讲清": 4926,
    "议论": 4927,
    "详尽": 4928,
    "斥责": 4929,
    "清点": 4930,
    "票款": 4931,
    "自负": 4932,
    "一套": 4933,
    "恶性": 4934,
    "厂家": 4935,
    "老爸": 4936,
    "训": 4937,
    "唉": 4938,
    "纪录": 4939,
    "噩运": 4940,
    "无常": 4941,
    "幸运儿": 4942,
    "交替": 4943,
    "碰坏": 4944,
    "正要": 4945,
    "棵": 4946,
    "树干": 4947,
    "诱人": 4948,
    "附件": 4949,
    "接收": 4950,
    "布置": 4951,
    "分头": 4952,
    "百倍": 4953,
    "尽力而为": 4954,
    "本职工作": 4955,
    "鸿沟": 4956,
    "用途": 4957,
    "一手": 4958,
    "装饰": 4959,
    "淘汰": 4960,
    "尽": 4961,
    "助学金": 4962,
    "适用": 4963,
    "查下": 4964,
    "经费": 4965,
    "贪吃": 4966,
    "小伙伴": 4967,
    "食堂": 4968,
    "伙食": 4969,
    "发火": 4970,
    "容貌": 4971,
    "说起": 4972,
    "悲惨": 4973,
    "束": 4974,
    "光联": 4975,
    "环抱": 4976,
    "瓷娃娃": 4977,
    "连衣裙": 4978,
    "零用钱": 4979,
    "玩具": 4980,
    "地板": 4981,
    "红扑扑": 4982,
    "史努比": 4983,
    "取舍": 4984,
    "羞涩": 4985,
    "相伴": 4986,
    "求得": 4987,
    "高高兴兴": 4988,
    "招来": 4989,
    "看好": 4990,
    "巨石": 4991,
    "挡住": 4992,
    "去路": 4993,
    "险恶": 4994,
    "奋力": 4995,
    "奔跑": 4996,
    "团": 4997,
    "迷雾": 4998,
    "不远处": 4999,
    "滚滚": 5000,
    "散开": 5001,
    "奋斗": 5002,
    "喷子": 5003,
    "成群": 5004,
    "高昂": 5005,
    "战场": 5006,
    "观测": 5007,
    "行进": 5008,
    "反过来": 5009,
    "暖洋洋": 5010,
    "老朋友": 5011,
    "铭记": 5012,
    "舟曲": 5013,
    "总理": 5014,
    "青梅竹马": 5015,
    "旧识": 5016,
    "相遇": 5017,
    "主人": 5018,
    "大方": 5019,
    "温和": 5020,
    "言语": 5021,
    "饱含": 5022,
    "恳求": 5023,
    "无声": 5024,
    "相隔": 5025,
    "再见": 5026,
    "过火": 5027,
    "赞不绝口": 5028,
    "全神贯注": 5029,
    "魔术师": 5030,
    "投入": 5031,
    "体操": 5032,
    "连贯": 5033,
    "表演赛": 5034,
    "杂技": 5035,
    "鼓掌": 5036,
    "小芳": 5037,
    "台上": 5038,
    "扮演": 5039,
    "记忆力": 5040,
    "颇": 5041,
    "具": 5042,
    "非凡": 5043,
    "小看": 5044,
    "周杰伦": 5045,
    "何": 5046,
    "与否": 5047,
    "老天": 5048,
    "埋没": 5049,
    "善用": 5050,
    "出人头地": 5051,
    "不容": 5052,
    "每况愈下": 5053,
    "今日": 5054,
    "国民": 5055,
    "富强": 5056,
    "冲动": 5057,
    "初审": 5058,
    "歉意": 5059,
    "游乐园": 5060,
    "屋": 5061,
    "吓人": 5062,
    "鬼怪": 5063,
    "哭闹": 5064,
    "吓": 5065,
    "小牛": 5066,
    "跌进": 5067,
    "小溪": 5068,
    "游艇": 5069,
    "海风": 5070,
    "剧烈": 5071,
    "摇晃": 5072,
    "饱受": 5073,
    "枪声": 5074,
    "伤倒": 5075,
    "谋反": 5076,
    "者": 5077,
    "搂": 5078,
    "眼见": 5079,
    "专辑": 5080,
    "满满": 5081,
    "蒂姆": 5082,
    "脑子": 5083,
    "发呆": 5084,
    "会上": 5085,
    "热烈": 5086,
    "涉及": 5087,
    "诚恳": 5088,
    "邻国": 5089,
    "友好": 5090,
    "往来": 5091,
    "直爽": 5092,
    "愉快": 5093,
    "玲": 5094,
    "香惜": 5095,
    "玉": 5096,
    "周而不比": 5097,
    "厮守": 5098,
    "受益匪浅": 5099,
    "居民楼": 5100,
    "周全": 5101,
    "逃避": 5102,
    "世上": 5103,
    "踏踏实实": 5104,
    "溜走": 5105,
    "趁人": 5106,
    "逃掉": 5107,
    "静悄悄": 5108,
    "运作": 5109,
    "抗洪": 5110,
    "抢险": 5111,
    "趁机": 5112,
    "盗窃犯": 5113,
    "枪毙": 5114,
    "演唱会": 5115,
    "门票": 5116,
    "当成": 5117,
    "神": 5118,
    "能干": 5119,
    "鲜肉": 5120,
    "么": 5121,
    "为此": 5122,
    "领袖": 5123,
    "近乎": 5124,
    "太阳": 5125,
    "无条件": 5126,
    "当作": 5127,
    "女神": 5128,
    "列": 5129,
    "撑": 5130,
    "嘞": 5131,
    "好养": 5132,
    "勾心斗角": 5133,
    "无疑": 5134,
    "不说": 5135,
    "哎呀": 5136,
    "馋": 5137,
    "放心": 5138,
    "看轻": 5139,
    "改善": 5140,
    "弃": 5141,
    "此生": 5142,
    "心若": 5143,
    "容": 5144,
    "不满": 5145,
    "羞辱": 5146,
    "心疼": 5147,
    "埋怨": 5148,
    "忘仇": 5149,
    "忘恩": 5150,
    "记恩": 5151,
    "骂娘": 5152,
    "健忘": 5153,
    "遗忘": 5154,
    "仇心": 5155,
    "溺爱": 5156,
    "信用": 5157,
    "自杀": 5158,
    "秘诀": 5159,
    "诚信": 5160,
    "零": 5161,
    "宁愿": 5162,
    "及格": 5163,
    "监考": 5164,
    "左顾右盼": 5165,
    "羞愧": 5166,
    "狡辩": 5167,
    "夹带": 5168,
    "小抄": 5169,
    "高明": 5170,
    "面试官": 5171,
    "文学": 5172,
    "国界": 5173,
    "作品展": 5174,
    "心血": 5175,
    "创意": 5176,
    "无人问津": 5177,
    "精品": 5178,
    "加大": 5179,
    "黑社会": 5180,
    "摧毁": 5181,
    "领导班子": 5182,
    "五十六": 5183,
    "巧合": 5184,
    "不便": 5185,
    "大雪": 5186,
    "脚步": 5187,
    "乱跑": 5188,
    "合为": 5189,
    "一体": 5190,
    "冲出": 5191,
    "家门": 5192,
    "阻住": 5193,
    "横加": 5194,
    "说出": 5195,
    "多数": 5196,
    "得意忘形": 5197,
    "未必": 5198,
    "服装": 5199,
    "电线杆": 5200,
    "房屋": 5201,
    "租期": 5202,
    "租给": 5203,
    "翻译者": 5204,
    "校对者": 5205,
    "强制": 5206,
    "当课": 5207,
    "被迫": 5208,
    "多劳多得": 5209,
    "爱国": 5210,
    "补习班": 5211,
    "朋友圈": 5212,
    "删掉": 5213,
    "头像": 5214,
    "悠久": 5215,
    "为生": 5216,
    "日益": 5217,
    "军人": 5218,
    "自豪感": 5219,
    "足": 5220,
    "责骂": 5221,
    "悲观": 5222,
    "闪光点": 5223,
    "纸笔": 5224,
    "落选": 5225,
    "突发": 5226,
    "轻言": 5227,
    "庸俗": 5228,
    "顾不上": 5229,
    "巅峰": 5230,
    "醒": 5231,
    "亢奋": 5232,
    "小买卖": 5233,
    "净赚": 5234,
    "赚足": 5235,
    "脑神经": 5236,
    "数万": 5237,
    "人事": 5238,
    "帮帮": 5239,
    "货车": 5240,
    "低温": 5241,
    "冷藏": 5242,
    "舞蹈": 5243,
    "外公": 5244,
    "难得": 5245,
    "一遇": 5246,
    "流星雨": 5247,
    "从小到大": 5248,
    "弥补": 5249,
    "词典": 5250,
    "无缘": 5251,
    "恰恰": 5252,
    "退役": 5253,
    "画上": 5254,
    "句号": 5255,
    "后悔药": 5256,
    "心仪已久": 5257,
    "下架": 5258,
    "昨晚": 5259,
    "早知今日": 5260,
    "错话": 5261,
    "牙疼": 5262,
    "偷吃": 5263,
    "糖": 5264,
    "学渣": 5265,
    "诚心": 5266,
    "赔礼道歉": 5267,
    "软弱": 5268,
    "课上": 5269,
    "平常": 5270,
    "两三": 5271,
    "打人": 5272,
    "无数": 5273,
    "好不容易": 5274,
    "末班车": 5275,
    "换乘": 5276,
    "图册": 5277,
    "服务台": 5278,
    "标注": 5279,
    "刊物": 5280,
    "书名": 5281,
    "色彩": 5282,
    "研发": 5283,
    "冬春": 5284,
    "订": 5285,
    "流下": 5286,
    "吓死": 5287,
    "游学": 5288,
    "选择题": 5289,
    "派遣": 5290,
    "到期": 5291,
    "续签": 5292,
    "几号": 5293,
    "晋升": 5294,
    "职": 5295,
    "印刷": 5296,
    "临走": 5297,
    "云南": 5298,
    "咖啡豆": 5299,
    "打造": 5300,
    "互换": 5301,
    "酒会": 5302,
    "重做": 5303,
    "开黑": 5304,
    "健身房": 5305,
    "玩下": 5306,
    "魔兽": 5307,
    "拼团": 5308,
    "抽纸": 5309,
    "攀岩": 5310,
    "打折扣": 5311,
    "逛逛": 5312,
    "收集": 5313,
    "钥匙扣": 5314,
    "串": 5315,
    "掰断": 5316,
    "行政部": 5317,
    "断": 5318,
    "结": 5319,
    "大门": 5320,
    "电工": 5321,
    "世代": 5322,
    "出身": 5323,
    "清洁": 5324,
    "美容师": 5325,
    "厂里": 5326,
    "招收": 5327,
    "工地": 5328,
    "没日没夜": 5329,
    "石油": 5330,
    "大庆": 5331,
    "老工人": 5332,
    "三十几年": 5333,
    "每日": 5334,
    "定量": 5335,
    "辍学": 5336,
    "筑路": 5337,
    "洋": 5338,
    "凑": 5339,
    "懵": 5340,
    "俗话说": 5341,
    "远亲不如近邻": 5342,
    "兄妹": 5343,
    "菜系": 5344,
    "少先队员": 5345,
    "代表性": 5346,
    "守": 5347,
    "老大": 5348,
    "后代": 5349,
    "全额": 5350,
    "奖学金": 5351,
    "花粉": 5352,
    "责": 5353,
    "宠溺": 5354,
    "下一代": 5355,
    "老一辈": 5356,
    "咖啡厅": 5357,
    "有助于": 5358,
    "偏见": 5359,
    "融入": 5360,
    "一眼": 5361,
    "有钱人": 5362,
    "处世": 5363,
    "均": 5364,
    "摆": 5365,
    "搭理": 5366,
    "语气": 5367,
    "吼叫": 5368,
    "二十四": 5369,
    "一日三餐": 5370,
    "夜猫子": 5371,
    "失眠": 5372,
    "猖狂": 5373,
    "大白天": 5374,
    "光合作用": 5375,
    "领头羊": 5376,
    "投票": 5377,
    "罢免": 5378,
    "数字键": 5379,
    "班次": 5380,
    "单词": 5381,
    "接线员": 5382,
    "加载": 5383,
    "汇总": 5384,
    "应有尽有": 5385,
    "物资": 5386,
    "促销": 5387,
    "配送": 5388,
    "面包房": 5389,
    "碰巧": 5390,
    "筹备": 5391,
    "一大堆": 5392,
    "弱势": 5393,
    "理睬": 5394,
    "消极": 5395,
    "怪异": 5396,
    "不道德": 5397,
    "陪伴": 5398,
    "无尽": 5399,
    "圈": 5400,
    "嘲笑声": 5401,
    "厌恶": 5402,
    "肆无忌惮": 5403,
    "醉酒": 5404,
    "屡": 5405,
    "动摇": 5406,
    "军心": 5407,
    "既定": 5408,
    "投机倒把": 5409,
    "奖励": 5410,
    "恶人": 5411,
    "解雇": 5412,
    "甜品": 5413,
    "餐饮业": 5414,
    "美食": 5415,
    "贴近": 5416,
    "选材": 5417,
    "用料": 5418,
    "受不了": 5419,
    "动植物": 5420,
    "难以忘怀": 5421,
    "含羞草": 5422,
    "叶子": 5423,
    "收缩": 5424,
    "傻": 5425,
    "聪明一世": 5426,
    "糊涂一时": 5427,
    "传遍": 5428,
    "招": 5429,
    "测算": 5430,
    "得分": 5431,
    "总自": 5432,
    "多样": 5433,
    "违规": 5434,
    "一二": 5435,
    "决定性": 5436,
    "奋战": 5437,
    "安置": 5438,
    "商定": 5439,
    "死难者": 5440,
    "赔付": 5441,
    "区院": 5442,
    "几十": 5443,
    "家属区": 5444,
    "比宅": 5445,
    "文员": 5446,
    "辞去": 5447,
    "教书": 5448,
    "搜索": 5449,
    "按日": 5450,
    "计酬": 5451,
    "糕饼": 5452,
    "省去": 5453,
    "面向": 5454,
    "设有": 5455,
    "十佳": 5456,
    "评选": 5457,
    "无误": 5458,
    "立志": 5459,
    "恩情": 5460,
    "努里": 5461,
    "刁难": 5462,
    "算了": 5463,
    "运动鞋": 5464,
    "粗心": 5465,
    "随口": 5466,
    "敷衍": 5467,
    "宿命论": 5468,
    "意志力": 5469,
    "弱者": 5470,
    "匆匆": 5471,
    "国情": 5472,
    "合": 5473,
    "李强": 5474,
    "考察": 5475,
    "妄自尊大": 5476,
    "冤冤相报": 5477,
    "何时": 5478,
    "虚心": 5479,
    "低视": 5480,
    "争吵": 5481,
    "全料": 5482,
    "影片": 5483,
    "叙述": 5484,
    "必将": 5485,
    "审查": 5486,
    "不予": 5487,
    "采纳": 5488,
    "试": 5489,
    "面临": 5490,
    "远洋": 5491,
    "捕鱼": 5492,
    "贮存": 5493,
    "安然": 5494,
    "购物": 5495,
    "盛行": 5496,
    "不善": 5497,
    "赔钱": 5498,
    "小哥": 5499,
    "快运": 5500,
    "追踪": 5501,
    "寄送": 5502,
    "切除": 5503,
    "新卡": 5504,
    "三日": 5505,
    "屠刀": 5506,
    "畏惧": 5507,
    "急救箱": 5508,
    "中央": 5509,
    "红军": 5510,
    "重围": 5511,
    "举世闻名": 5512,
    "二万五千": 5513,
    "长征": 5514,
    "逆来顺受": 5515,
    "小吃": 5516,
    "快餐": 5517,
    "熟食": 5518,
    "糕点": 5519,
    "伪装": 5520,
    "识别": 5521,
    "五彩缤纷": 5522,
    "贝壳": 5523,
    "嘱咐": 5524,
    "咳嗽": 5525,
    "头疼": 5526,
    "培训班": 5527,
    "川剧": 5528,
    "顾名思义": 5529,
    "地方戏": 5530,
    "脸颊": 5531,
    "修剪": 5532,
    "藏污纳垢": 5533,
    "光泽": 5534,
    "打票": 5535,
    "瘫": 5536,
    "模仿者": 5537,
    "并非": 5538,
    "特征": 5539,
    "过多": 5540,
    "干涉": 5541,
    "种子": 5542,
    "茂盛": 5543,
    "政治": 5544,
    "说到做到": 5545,
    "捷径": 5546,
    "目的地": 5547,
    "顾问": 5548,
    "法案": 5549,
    "领养": 5550,
    "全区": 5551,
    "两百多": 5552,
    "任性": 5553,
    "迪士尼": 5554,
    "房价": 5555,
    "城区": 5556,
    "光荣": 5557,
    "战果": 5558,
    "围": 5559,
    "镇": 5560,
    "顾及": 5561,
    "袒露": 5562,
    "强将手下无弱兵": 5563,
    "个个": 5564,
    "绝招": 5565,
    "争论": 5566,
    "手绢": 5567,
    "冗员": 5568,
    "犬": 5569,
    "纸包装": 5570,
    "原味": 5571,
    "避孕套": 5572,
    "外包装": 5573,
    "套上": 5574,
    "戳": 5575,
    "四十": 5576,
    "斑白": 5577,
    "欲": 5578,
    "使领馆": 5579,
    "被告": 5580,
    "凑够": 5581,
    "诉讼费": 5582,
    "贪污": 5583,
    "监狱": 5584,
    "问话": 5585,
    "支吾其词": 5586,
    "说词": 5587,
    "真实性": 5588,
    "诗": 5589,
    "吟诗": 5590,
    "揭露": 5591,
    "阴谋": 5592,
    "演技": 5593,
    "安心": 5594,
    "短短的": 5595,
    "一日三秋": 5596,
    "山上": 5597,
    "买买": 5598,
    "营造": 5599,
    "变化无穷": 5600,
    "走过": 5601,
    "陶醉": 5602,
    "手脚": 5603,
    "敷": 5604,
    "血液": 5605,
    "畅": 5606,
    "聚沙成塔": 5607,
    "每人": 5608,
    "数千万": 5609,
    "吨": 5610,
    "过门": 5611,
    "媳妇": 5612,
    "脸嫩": 5613,
    "有心": 5614,
    "栽": 5615,
    "花花": 5616,
    "无心插柳柳成荫": 5617,
    "逃逸": 5618,
    "对比": 5619,
    "肥": 5620,
    "减": 5621,
    "埃菲尔铁塔": 5622,
    "法国": 5623,
    "巴黎": 5624,
    "特地": 5625,
    "台布": 5626,
    "争议": 5627,
    "展开": 5628,
    "辩论": 5629,
    "时速": 5630,
    "公里": 5631,
    "忍无可忍": 5632,
    "闭": 5633,
    "乖乖": 5634,
    "骚扰": 5635,
    "帐": 5636,
    "法定": 5637,
    "监护人": 5638,
    "陪同": 5639,
    "游玩": 5640,
    "受益人": 5641,
    "秘书": 5642,
    "私事": 5643,
    "成都": 5644,
    "瓜": 5645,
    "娃子": 5646,
    "饱览": 5647,
    "首都": 5648,
    "名胜古迹": 5649,
    "贫污": 5650,
    "不以为耻": 5651,
    "滔滔不绝": 5652,
    "据": 5653,
    "有待": 5654,
    "提案": 5655,
    "拿来": 5656,
    "一千三百": 5657,
    "守株待兔": 5658,
    "放手": 5659,
    "七千五百": 5660,
    "新加坡人": 5661,
    "凡": 5662,
    "造谣": 5663,
    "可恶": 5664,
    "深受": 5665,
    "发病": 5666,
    "中年": 5667,
    "静电": 5668,
    "墨粉": 5669,
    "耗材": 5670,
    "琐碎": 5671,
    "抗战": 5672,
    "党外": 5673,
    "开明": 5674,
    "盛大": 5675,
    "阅兵式": 5676,
    "歌名": 5677,
    "古词": 5678,
    "升": 5679,
    "国旗": 5680,
    "国歌": 5681,
    "年间": 5682,
    "快餐店": 5683,
    "抢劫": 5684,
    "障碍物": 5685,
    "叠餐": 5686,
    "抛砖引玉": 5687,
    "音响": 5688,
    "开玩笑": 5689,
    "分寸": 5690,
    "大约": 5691,
    "旅行家": 5692,
    "人造": 5693,
    "人行道": 5694,
    "惊喜": 5695,
    "背诵": 5696,
    "古诗": 5697,
    "积压": 5698,
    "军事": 5699,
    "检察官": 5700,
    "纸媒": 5701,
    "那时": 5702,
    "狭窄": 5703,
    "掂斤播两": 5704,
    "阴影": 5705,
    "大亨": 5706,
    "太阳光": 5707,
    "护目镜": 5708,
    "协管员": 5709,
    "劝阻": 5710,
    "确诊": 5711,
    "跑车": 5712,
    "配置": 5713,
    "自私": 5714,
    "上场": 5715,
    "加速": 5716,
    "升高": 5717,
    "私自": 5718,
    "录制": 5719,
    "摘抄": 5720,
    "收藏": 5721,
    "上体": 5722,
    "操课": 5723,
    "纱布": 5724,
    "通力合作": 5725,
    "大权独揽": 5726,
    "手中": 5727,
    "文化区": 5728,
    "物以类聚": 5729,
    "阻力": 5730,
    "机身": 5731,
    "流线型": 5732,
    "优良": 5733,
    "吝啬": 5734,
    "委婉": 5735,
    "公正": 5736,
    "执法": 5737,
    "当事人": 5738,
    "赠送": 5739,
    "央行": 5740,
    "货币": 5741,
    "分崩离析": 5742,
    "燃料": 5743,
    "供应方": 5744,
    "悬崖勒马": 5745,
    "呐喊": 5746,
    "助威": 5747,
    "拉近": 5748,
    "前夕": 5749,
    "大理": 5750,
    "四季如春": 5751,
    "波动": 5752,
    "照猫画虎": 5753,
    "成语": 5754,
    "照着": 5755,
    "争先恐后": 5756,
    "情景": 5757,
    "复见": 5758,
    "后方": 5759,
    "演说": 5760,
    "甘心": 5761,
    "全民": 5762,
    "狡猾": 5763,
    "单车": 5764,
    "黑": 5765,
    "补贴费": 5766,
    "拿走": 5767,
    "兔子": 5768,
    "三十二": 5769,
    "圆形": 5770,
    "日复一日": 5771,
    "出席": 5772,
    "业余": 5773,
    "象棋": 5774,
    "聘请": 5775,
    "独创性": 5776,
    "缺席": 5777,
    "假装": 5778,
    "脾气": 5779,
    "暴躁": 5780,
    "续期": 5781,
    "脸部": 5782,
    "美容院": 5783,
    "虫": 5784,
    "料理": 5785,
    "出力": 5786,
    "小算盘": 5787,
    "灭": 5788,
    "推断": 5789,
    "乌云": 5790,
    "消防": 5791,
    "大火": 5792,
    "劝说": 5793,
    "幡然醒悟": 5794,
    "回头": 5795,
    "六神无主": 5796,
    "镇定": 5797,
    "猎犬": 5798,
    "笼子": 5799,
    "挖掘": 5800,
    "潜能": 5801,
    "培养": 5802,
    "抢走": 5803,
    "肖像权": 5804,
    "邮费": 5805,
    "四星级": 5806,
    "悦耳": 5807,
    "联产承包": 5808,
    "责任制": 5809,
    "好转": 5810,
    "集团": 5811,
    "合约": 5812,
    "肖邦": 5813,
    "作曲家": 5814,
    "同桌": 5815,
    "文凭": 5816,
    "学历": 5817,
    "抵押": 5818,
    "担保": 5819,
    "转弯": 5820,
    "航行": 5821,
    "轮船": 5822,
    "发射": 5823,
    "北斗": 5824,
    "汉语": 5825,
    "强化": 5826,
    "会后": 5827,
    "秘书长": 5828,
    "自古以来": 5829,
    "新疆": 5830,
    "种植": 5831,
    "葡萄": 5832,
    "早晚": 5833,
    "一头": 5834,
    "百折不挠": 5835,
    "心不在焉": 5836,
    "缺陷": 5837,
    "菜花": 5838,
    "衣裳": 5839,
    "整棵": 5840,
    "灯笼": 5841,
    "厌烦": 5842,
    "加法": 5843,
    "口诀": 5844,
    "蛀牙": 5845,
    "悔改": 5846,
    "车胎": 5847,
    "瘪": 5848,
    "漏嘴": 5849,
    "冻红": 5850,
    "杭州": 5851,
    "西湖": 5852,
    "纪念品": 5853,
    "钢笔": 5854,
    "灵感": 5855,
    "百分之九十九": 5856,
    "学问": 5857,
    "锲而不舍": 5858,
    "前程": 5859,
    "远大": 5860,
    "人证": 5861,
    "物证": 5862,
    "俱备": 5863,
    "保险柜": 5864,
    "偷走": 5865,
    "餐会": 5866,
    "活络": 5867,
    "显然": 5868,
    "作者": 5869,
    "狂热": 5870,
    "崇敬": 5871,
    "性爱": 5872,
    "幻想": 5873,
    "仰慕": 5874,
    "前任": 5875,
    "情欲": 5876,
    "高涨": 5877,
    "身为": 5878,
    "了如指掌": 5879,
    "属性": 5880,
    "拍卖会": 5881,
    "成交": 5882,
    "人脑": 5883,
    "警告": 5884,
    "小酒馆": 5885,
    "孙子": 5886,
    "巧遇": 5887,
    "亲堂": 5888,
    "吉祥物": 5889,
    "福娃": 5890,
    "浓厚": 5891,
    "迂腐": 5892,
    "费尽": 5893,
    "千辛万苦": 5894,
    "开设": 5895,
    "证券": 5896,
    "仔仔细细": 5897,
    "通信": 5898,
    "核桃": 5899,
    "捏": 5900,
    "损害": 5901,
    "牙": 5902,
    "必修": 5903,
    "攀比": 5904,
    "遗失": 5905,
    "破财消灾": 5906,
    "若干": 5907,
    "顺丰": 5908,
    "申通": 5909,
    "业务量": 5910,
    "关口": 5911,
    "盲肠": 5912,
    "发病率": 5913,
    "腹腔镜": 5914,
    "制卡": 5915,
    "任一": 5916,
    "网点": 5917,
    "补发": 5918,
    "黑帮": 5919,
    "植被": 5920,
    "风沙": 5921,
    "吞没": 5922,
    "气球": 5923,
    "艳丽": 5924,
    "针尖": 5925,
    "刺": 5926,
    "青砖": 5927,
    "岁月": 5928,
    "风蚀": 5929,
    "长出": 5930,
    "青苔": 5931,
    "互补": 5932,
    "赵本山": 5933,
    "活灵活现": 5934,
    "格式": 5935,
    "道德": 5936,
    "失败者": 5937,
    "寺院": 5938,
    "敲钟": 5939,
    "书包": 5940,
    "免得": 5941,
    "发泄": 5942,
    "沐浴": 5943,
    "液洗": 5944,
    "长成": 5945,
    "真面目": 5946,
    "袜子": 5947,
    "初中": 5948,
    "消磨": 5949,
    "烹调": 5950,
    "蒸": 5951,
    "炒": 5952,
    "炸": 5953,
    "七十五": 5954,
    "亿": 5955,
    "交待": 5956,
    "法院": 5957,
    "宽": 5958,
    "灵活性": 5959,
    "星期天": 5960,
    "湖边": 5961,
    "铃声": 5962,
    "蝉": 5963,
    "草丛": 5964,
    "知名演员": 5965,
    "演": 5966,
    "角色": 5967,
    "蹲": 5968,
    "真臭": 5969,
    "蜡烛": 5970,
    "火矩": 5971,
    "天海": 5972,
    "帅气": 5973,
    "和尚": 5974,
    "智久": 5975,
    "夏季": 5976,
    "档": 5977,
    "日剧": 5978,
    "可谓": 5979,
    "收视": 5980,
    "惨淡": 5981,
    "百分之二": 5982,
    "百分之九十八": 5983,
    "事事": 5984,
    "一面": 5985,
    "歌迷": 5986,
    "望穿秋水": 5987,
    "怨言": 5988,
    "坨": 5989,
    "屎": 5990,
    "臭": 5991,
    "隆重": 5992,
    "总结会": 5993,
    "旅游局": 5994,
    "圣诞节": 5995,
    "美甲": 5996,
    "圆圈": 5997,
    "字形": 5998,
    "奔驰": 5999,
    "被子": 6000,
    "聘用": 6001,
    "私人": 6002,
    "皮囊": 6003,
    "灵魂": 6004,
    "万里": 6005,
    "挑一": 6006,
    "图像": 6007,
    "边缘": 6008,
    "弱": 6009,
    "噪声": 6010,
    "仪器": 6011,
    "超": 6012,
    "麻": 6013,
    "怔怔": 6014,
    "伤腿": 6015,
    "敷点": 6016,
    "大江南北": 6017,
    "痘痘": 6018,
    "地窖": 6019,
    "水分": 6020,
    "散失": 6021,
    "口技": 6022,
    "开动": 6023,
    "下里巴人": 6024,
    "阳春白雪": 6025,
    "锤": 6026,
    "刀": 6027,
    "插向": 6028,
    "股": 6029,
    "撒到": 6030,
    "拿出": 6031,
    "擦拭": 6032,
    "鼠蚤": 6033,
    "給人": 6034,
    "铤而走险": 6035,
    "墙壁": 6036,
    "刷成": 6037,
    "行子": 6038,
    "砍": 6039,
    "伐": 6040,
    "修来": 6041,
    "姐": 6042,
    "养猪": 6043,
    "低空": 6044,
    "突入": 6045,
    "神风特": 6046,
    "攻机": 6047,
    "烟团": 6048,
    "墙": 6049,
    "此话": 6050,
    "直面": 6051,
    "粗壮": 6052,
    "大腿": 6053,
    "隆起": 6054,
    "小腹": 6055,
    "隔夜": 6056,
    "论": 6057,
    "平头": 6058,
    "哥": 6059,
    "臭鼬": 6060,
    "公益": 6061,
    "团体": 6062,
    "原子": 6063,
    "湖上": 6064,
    "划船": 6065,
    "房东": 6066,
    "原版": 6067,
    "实用": 6068,
    "盲人": 6069,
    "钥匙孔": 6070,
    "满分": 6071,
    "停运": 6072,
    "喜宴": 6073,
    "会员卡": 6074,
    "长春": 6075,
    "稳": 6076,
    "奔": 6077,
    "票据": 6078,
    "丧失": 6079,
    "失票": 6080,
    "门当户对": 6081,
    "率领": 6082,
    "民兵": 6083,
    "会议室": 6084,
    "一句": 6085,
    "说错": 6086,
    "腕表": 6087,
    "拾金不昧": 6088,
    "大忙": 6089,
    "讲理": 6090,
    "报答": 6091,
    "馈赠": 6092,
    "厚待": 6093,
    "顾全大局": 6094,
    "美颜": 6095,
    "言之有理": 6096,
    "起因": 6097,
    "人数": 6098,
    "结肠": 6099,
    "管状": 6100,
    "炎症": 6101,
    "示范": 6102,
    "先生": 6103,
    "手续": 6104,
    "泰然自若": 6105,
    "取之不尽": 6106,
    "摇摇欲坠": 6107,
    "吊桥": 6108,
    "通行": 6109,
    "自然界": 6110,
    "千丝万缕": 6111,
    "眼界": 6112,
    "引": 6113,
    "发笑": 6114,
    "自有": 6115,
    "特质": 6116,
    "井然有序": 6117,
    "争抢": 6118,
    "协商": 6119,
    "抓获": 6120,
    "微": 6121,
    "成分": 6122,
    "容忍": 6123,
    "花花公子": 6124,
    "怪怪": 6125,
    "花瓶": 6126,
    "台下": 6127,
    "循序渐进": 6128,
    "制订": 6129,
    "规划": 6130,
    "步行街": 6131,
    "精神文明": 6132,
    "指手画脚": 6133,
    "之所以": 6134,
    "途中": 6135,
    "逗留": 6136,
    "饱饭": 6137,
    "短浅": 6138,
    "发胖": 6139,
    "借酒浇愁": 6140,
    "顺其自然": 6141,
    "东方明珠": 6142,
    "杂技团": 6143,
    "目瞪口呆": 6144,
    "平易近人": 6145,
    "厅": 6146,
    "租房": 6147,
    "考题": 6148,
    "东方": 6149,
    "明珠": 6150,
    "商家": 6151,
    "流露": 6152,
    "老兵": 6153,
    "弄巧成拙": 6154,
    "冰雪": 6155,
    "恍然大悟": 6156,
    "迷惑": 6157,
    "饱食终日": 6158,
    "一无所获": 6159,
    "服药": 6160,
    "致盲": 6161,
    "眼病": 6162,
    "捉": 6163,
    "机动车": 6164,
    "避让": 6165,
    "常识": 6166,
    "端口": 6167,
    "防火墙": 6168,
    "阻塞": 6169,
    "发自": 6170,
    "莫名": 6171,
    "春风": 6172,
    "大好": 6173,
    "万岁": 6174,
    "追根究底": 6175,
    "核实": 6176,
    "满意度": 6177,
    "明言": 6178,
    "听计": 6179,
    "传出": 6180,
    "喊叫声": 6181,
    "火患": 6182,
    "上山": 6183,
    "火种": 6184,
    "同床异梦": 6185,
    "红梅": 6186,
    "江河": 6187,
    "初来乍到": 6188,
    "迟迟": 6189,
    "有没有": 6190,
    "方方": 6191,
    "煎熬": 6192,
    "毁坏": 6193,
    "贫困户": 6194,
    "台风": 6195,
    "双色球": 6196,
    "大英": 6197,
    "兰亭序": 6198,
    "细小": 6199,
    "售货员": 6200,
    "终点": 6201,
    "全世界": 6202,
    "一概": 6203,
    "拼命": 6204,
    "看不惯": 6205,
    "是非": 6206,
    "朝": 6207,
    "育龄": 6208,
    "药具": 6209,
    "收走": 6210,
    "传染性": 6211,
    "慎重": 6212,
    "起死回生": 6213,
    "精度": 6214,
    "走近路": 6215,
    "茶叶": 6216,
    "球场": 6217,
    "切磋": 6218,
    "精进": 6219,
    "药盒": 6220,
    "非处方药": 6221,
    "游泳队": 6222,
    "关爱": 6223,
    "根": 6224,
    "欺凌": 6225,
    "戴上": 6226,
    "一刻": 6227,
    "手绘": 6228,
    "二十": 6229,
    "填表": 6230,
    "酒保": 6231,
    "工时": 6232,
    "面议": 6233,
    "往前": 6234,
    "淡然处之": 6235,
    "症": 6236,
    "癌": 6237,
    "防治": 6238,
    "免疫": 6239,
    "红丝": 6240,
    "患有": 6241,
    "遗传": 6242,
    "家族": 6243,
    "白血病": 6244,
    "酸软": 6245,
    "视力": 6246,
    "衰退": 6247,
    "老会": 6248,
    "先天性": 6249,
    "秋分": 6250,
    "平行": 6251,
    "实线": 6252,
    "斑马": 6253,
    "线条": 6254,
    "调头": 6255,
    "天桥": 6256,
    "拆掉": 6257,
    "鼠": 6258,
    "标分": 6259,
    "体征": 6260,
    "之中": 6261,
    "女婴": 6262,
    "询问": 6263,
    "签署": 6264,
    "死亡证": 6265,
    "测过": 6266,
    "事宜": 6267,
    "刷新": 6268,
    "手指头": 6269,
    "残疾证": 6270,
    "税单": 6271,
    "礼遇": 6272,
    "迸发": 6273,
    "较为": 6274,
    "仍旧": 6275,
    "面不改色": 6276,
    "房改": 6277,
    "想方设法": 6278,
    "骗取": 6279,
    "部位": 6280,
    "时尚": 6281,
    "硬件": 6282,
    "检验": 6283,
    "调皮": 6284,
    "混为一谈": 6285,
    "着实": 6286,
    "动人心弦": 6287,
    "指导员": 6288,
    "装备": 6289,
    "招兵买马": 6290,
    "人才库": 6291,
    "词库": 6292,
    "插秧": 6293,
    "南北": 6294,
    "分上": 6295,
    "中下游": 6296,
    "墙上": 6297,
    "如今": 6298,
    "四海为家": 6299,
    "住所": 6300,
    "相亲": 6301,
    "征信": 6302,
    "饭卡": 6303,
    "客服": 6304,
    "以及": 6305,
    "罕见": 6306,
    "叮咬": 6307,
    "抓痒": 6308,
    "尘螨": 6309,
    "加湿器": 6310,
    "过敏症": 6311,
    "专科": 6312,
    "大夫": 6313,
    "化学": 6314,
    "香味": 6315,
    "认同": 6316,
    "过敏者": 6317,
    "勇挑重担": 6318,
    "避重就轻": 6319,
    "内幕": 6320,
    "竟": 6321,
    "杀人灭口": 6322,
    "下饭": 6323,
    "纸老虎": 6324,
    "母": 6325,
    "发威": 6326,
    "病猫": 6327,
    "共事": 6328,
    "更进一步": 6329,
    "蠢人": 6330,
    "平息": 6331,
    "政客": 6332,
    "明智": 6333,
    "嫉妒者": 6334,
    "闭嘴": 6335,
    "集": 6336,
    "剪纸": 6337,
    "工艺": 6338,
    "精华": 6339,
    "博采众长": 6340,
    "独领风骚": 6341,
    "每篇": 6342,
    "变化多端": 6343,
    "课外": 6344,
    "威胁": 6345,
    "耕地": 6346,
    "扩大": 6347,
    "开支": 6348,
    "赤字": 6349,
    "不力": 6350,
    "低碳": 6351,
    "口头禅": 6352,
    "暮鼓晨钟": 6353,
    "耳边": 6354,
    "敲响": 6355,
    "时时": 6356,
    "掌声": 6357,
    "逻辑性": 6358,
    "禁不住": 6359,
    "立": 6360,
    "提示牌": 6361,
    "治安": 6362,
    "封建迷信": 6363,
    "鬼神": 6364,
    "婉转": 6365,
    "发出": 6366,
    "洗碗": 6367,
    "斩钉截铁": 6368,
    "商人": 6369,
    "温柔乡": 6370,
    "学年": 6371,
    "开端": 6372,
    "向上": 6373,
    "兴高采烈": 6374,
    "播种": 6375,
    "入座": 6376,
    "迎新": 6377,
    "海滨": 6378,
    "解脱": 6379,
    "太太": 6380,
    "诉请": 6381,
    "村长": 6382,
    "喜新厌旧": 6383,
    "硬是": 6384,
    "良性": 6385,
    "互": 6386,
    "争端": 6387,
    "热身": 6388,
    "鸽子": 6389,
    "产业": 6390,
    "影视": 6391,
    "许可证": 6392,
    "周岁": 6393,
    "公民": 6394,
    "英国": 6395,
    "五十多": 6396,
    "回国": 6397,
    "临别": 6398,
    "河边": 6399,
    "食饵": 6400,
    "二十年": 6401,
    "国庆": 6402,
    "拥堵": 6403,
    "小镇": 6404,
    "轻盈": 6405,
    "雪花": 6406,
    "飘扬": 6407,
    "初雪": 6408,
    "端": 6409,
    "热面": 6410,
    "白里透红": 6411,
    "不仅仅": 6412,
    "吃饱穿暖": 6413,
    "改掉": 6414,
    "周边": 6415,
    "大敌": 6416,
    "仅仅": 6417,
    "活着": 6418,
    "预想": 6419,
    "喜悦": 6420,
    "透漏": 6421,
    "嗯": 6422,
    "差一点": 6423,
    "关门": 6424,
    "写稿": 6425,
    "独来独往": 6426,
    "愁眉苦脸": 6427,
    "梦里": 6428,
    "哭醒": 6429,
    "凭": 6430,
    "腔": 6431,
    "埋头苦干": 6432,
    "劳而无功": 6433,
    "心仪": 6434,
    "公立": 6435,
    "足球场": 6436,
    "昏迷": 6437,
    "举手": 6438,
    "责怪": 6439,
    "腰围": 6440,
    "粗": 6441,
    "草画": 6442,
    "忍耐": 6443,
    "桥": 6444,
    "建": 6445,
    "告白": 6446,
    "遭": 6447,
    "拒": 6448,
    "大失": 6449,
    "男友": 6450,
    "调情": 6451,
    "泼": 6452,
    "查看": 6453,
    "邮箱": 6454,
    "很少": 6455,
    "必不可少": 6456,
    "财会": 6457,
    "书写": 6458,
    "洁净": 6459,
    "三八": 6460,
    "妇女节": 6461,
    "整洁": 6462,
    "递交": 6463,
    "单身": 6464,
    "悲观主义": 6465,
    "家养": 6466,
    "陶瓷": 6467,
    "摆放": 6468,
    "愁": 6469,
    "圆圆": 6470,
    "小宝宝": 6471,
    "望": 6472,
    "夜空": 6473,
    "发愁": 6474,
    "全副": 6475,
    "武装": 6476,
    "开赴": 6477,
    "人影": 6478,
    "此刻": 6479,
    "暗光": 6480,
    "理": 6481,
    "业内": 6482,
    "大于": 6483,
    "可观": 6484,
    "简朴": 6485,
    "小鸟": 6486,
    "气恼": 6487,
    "一时间": 6488,
    "似的": 6489,
    "粗茶淡饭": 6490,
    "仓库": 6491,
    "小气": 6492,
    "哎": 6493,
    "诉说": 6494,
    "骂人": 6495,
    "气度": 6496,
    "放下": 6497,
    "仇恨": 6498,
    "光彩": 6499,
    "高科技": 6500,
    "杜绝": 6501,
    "考场": 6502,
    "上乘": 6503,
    "连忙": 6504,
    "合租": 6505,
    "舞台": 6506,
    "台词": 6507,
    "脏话": 6508,
    "自卑感": 6509,
    "不懈": 6510,
    "呆滞": 6511,
    "显露": 6512,
    "萌芽": 6513,
    "稳赚": 6514,
    "寻求": 6515,
    "念念": 6516,
    "卖光": 6517,
    "反": 6518,
    "面包店": 6519,
    "岁月不饶人": 6520,
    "老去": 6521,
    "欲望": 6522,
    "练习本": 6523,
    "呼吸道": 6524,
    "感染性": 6525,
    "加重": 6526,
    "时限": 6527,
    "无效": 6528,
    "大会堂": 6529,
    "救人": 6530,
    "实惠": 6531,
    "家家户户": 6532,
    "年货": 6533,
    "团购": 6534,
    "郊外": 6535,
    "钥匙圈": 6536,
    "拖欠": 6537,
    "爆发": 6538,
    "罢工": 6539,
    "堂妹": 6540,
    "不良": 6541,
    "铃": 6542,
    "嬉闹": 6543,
    "按下": 6544,
    "关键词": 6545,
    "不要紧": 6546,
    "五月份": 6547,
    "落榜": 6548,
    "野外": 6549,
    "探险": 6550,
    "策略": 6551,
    "某种": 6552,
    "口服液": 6553,
    "店里": 6554,
    "样式": 6555,
    "不如说": 6556,
    "傻瓜": 6557,
    "油": 6558,
    "就医": 6559,
    "回馈": 6560,
    "存储": 6561,
    "备生": 6562,
    "频道": 6563,
    "全方位": 6564,
    "商法": 6565,
    "落地": 6566,
    "日企": 6567,
    "跌价": 6568,
    "知法犯法": 6569,
    "膝关节": 6570,
    "关节痛": 6571,
    "致命": 6572,
    "绘画": 6573,
    "互利": 6574,
    "外壳": 6575,
    "海关": 6576,
    "持有": 6577,
    "外交部": 6578,
    "签发": 6579,
    "共和国": 6580,
    "国徽": 6581,
    "高烧": 6582,
    "就诊": 6583,
    "昂贵": 6584,
    "急救": 6585,
    "水利": 6586,
    "现代化": 6587,
    "老实": 6588,
    "礼品": 6589,
    "受难者": 6590,
    "深表": 6591,
    "哀悼": 6592,
    "公车": 6593,
    "探望": 6594,
    "选票": 6595,
    "并列": 6596,
    "健美": 6597,
    "体形": 6598,
    "咬牙": 6599,
    "运送": 6600,
    "代收": 6601,
    "店家": 6602,
    "二十多": 6603,
    "糖尿病": 6604,
    "并发症": 6605,
    "眼科": 6606,
    "品行": 6607,
    "端正": 6608,
    "腹部": 6609,
    "右": 6610,
    "初期": 6611,
    "客流量": 6612,
    "平凡": 6613,
    "取掉": 6614,
    "急救包": 6615,
    "担忧": 6616,
    "播音员": 6617,
    "方言": 6618,
    "上百万": 6619,
    "大王": 6620,
    "幼猫": 6621,
    "家手": 6622,
    "腕痛": 6623,
    "唇膏": 6624,
    "嘴唇": 6625,
    "抗": 6626,
    "拣精拣肥": 6627,
    "躲躲藏藏": 6628,
    "房产": 6629,
    "迟早": 6630,
    "枯竭": 6631,
    "长久": 6632,
    "懒散": 6633,
    "拉拢": 6634,
    "春耕": 6635,
    "浇灌": 6636,
    "田地": 6637,
    "奉命": 6638,
    "趁着": 6639,
    "一心": 6640,
    "流行语": 6641,
    "鬼": 6642,
    "生命力": 6643,
    "宣扬": 6644,
    "得力": 6645,
    "祸害": 6646,
    "死活": 6647,
    "签名": 6648,
    "副总经理": 6649,
    "代行": 6650,
    "注射剂": 6651,
    "医药": 6652,
    "制剂": 6653,
    "针状": 6654,
    "管": 6655,
    "链接": 6656,
    "药瓶": 6657,
    "取药": 6658,
    "劳动力": 6659,
    "待遇": 6660,
    "编号": 6661,
    "大方向": 6662,
    "眨": 6663,
    "豪华": 6664,
    "前台": 6665,
    "接待员": 6666,
    "优惠券": 6667,
    "书夹": 6668,
    "实习": 6669,
    "撕成": 6670,
    "两半": 6671,
    "层": 6672,
    "箱": 6673,
    "交情": 6674,
    "划伤": 6675,
    "取出": 6676,
    "碎片": 6677,
    "指望": 6678,
    "投机": 6679,
    "暴富": 6680,
    "捐献": 6681,
    "堆满": 6682,
    "废弃": 6683,
    "清新": 6684,
    "偏远": 6685,
    "迎来": 6686,
    "冲刺": 6687,
    "世界杯": 6688,
    "腻": 6689,
    "德智体": 6690,
    "插头": 6691,
    "拔掉": 6692,
    "书海": 6693,
    "酒色": 6694,
    "颓废": 6695,
    "只得": 6696,
    "车速": 6697,
    "售卖": 6698,
    "查封": 6699,
    "交费": 6700,
    "添麻烦": 6701,
    "宣泄": 6702,
    "两万": 6703,
    "失掉": 6704,
    "光顾": 6705,
    "经事": 6706,
    "承包人": 6707,
    "光环": 6708,
    "追悼会": 6709,
    "亲属": 6710,
    "友人": 6711,
    "公安": 6712,
    "打消": 6713,
    "顾虑": 6714,
    "揭发": 6715,
    "宽大": 6716,
    "科学界": 6717,
    "绝技": 6718,
    "迁徙": 6719,
    "胃口": 6720,
    "改道": 6721,
    "外语": 6722,
    "管用": 6723,
    "猫声": 6724,
    "惊觉": 6725,
    "吐血": 6726,
    "中医": 6727,
    "对症下药": 6728,
    "抬到": 6729,
    "烈日": 6730,
    "黑黝黝": 6731,
    "石头": 6732,
    "改行": 6733,
    "关掉": 6734,
    "碍眼": 6735,
    "迷人": 6736,
    "马": 6737,
    "下跌": 6738,
    "闹": 6739,
    "不可告人": 6740,
    "飞": 6741,
    "心肠": 6742,
    "混水摸鱼": 6743,
    "从中": 6744,
    "捞一把": 6745,
    "华盛顿": 6746,
    "分明": 6747,
    "食神": 6748,
    "变动": 6749,
    "进场": 6750,
    "凶恶": 6751,
    "预留": 6752,
    "租完": 6753,
    "配有": 6754,
    "山顶": 6755,
    "骨折": 6756,
    "嫁": 6757,
    "访谈": 6758,
    "嫁人": 6759,
    "泡温泉": 6760,
    "幸好": 6761,
    "藏": 6762,
    "国内": 6763,
    "五湖四海": 6764,
    "养护": 6765,
    "树木": 6766,
    "分家": 6767,
    "大吵": 6768,
    "累觉": 6769,
    "不爱": 6770,
    "国际化": 6771,
    "洋房": 6772,
    "高层": 6773,
    "蛋": 6774,
    "蛋白": 6775,
    "源": 6776,
    "步态": 6777,
    "腿部": 6778,
    "明": 6779,
    "胃痛": 6780,
    "胃": 6781,
    "堵塞": 6782,
    "暗中": 6783,
    "摸索": 6784,
    "发言人": 6785,
    "取件": 6786,
    "患病率": 6787,
    "借书": 6788,
    "雨天": 6789,
    "检票": 6790,
    "先取": 6791,
    "洒": 6792,
    "要点": 6793,
    "喝酸": 6794,
    "苹果酸": 6795,
    "借车": 6796,
    "茶送": 6797,
    "借给": 6798,
    "变瘦": 6799,
    "笔用": 6800,
    "伞用": 6801,
    "借伞": 6802,
    "一路": 6803,
    "经济舱": 6804,
    "程票": 6805,
    "只用": 6806,
    "下车": 6807,
    "晴": 6808,
    "菜单": 6809,
    "极其": 6810,
    "涌": 6811,
    "一阵阵": 6812,
    "老生常谈": 6813,
    "厉行节约": 6814,
    "名人": 6815,
    "值钱": 6816,
    "背面": 6817,
    "标准化": 6818,
    "赝品": 6819,
    "真迹": 6820,
    "人血": 6821,
    "常规": 6822,
    "数值": 6823,
    "判断": 6824,
    "右手": 6825,
    "无视": 6826,
    "鉴赏家": 6827,
    "鉴别": 6828,
    "真伪": 6829,
    "二者": 6830,
    "举止": 6831,
    "大呼小叫": 6832,
    "打情骂俏": 6833,
    "提交": 6834,
    "估算": 6835,
    "抄": 6836,
    "狂奔": 6837,
    "湿透": 6838,
    "留宿": 6839,
    "一整天": 6840,
    "泥泞": 6841,
    "天请": 6842,
    "减速": 6843,
    "总算": 6844,
    "巧": 6845,
    "裁缝": 6846,
    "面馆": 6847,
    "好玩": 6848,
    "安宁": 6849,
    "钉子户": 6850,
    "农田": 6851,
    "口碑": 6852,
    "饭点": 6853,
    "寥寥无几": 6854,
    "周到": 6855,
    "那位": 6856,
    "霸王": 6857,
    "派出所": 6858,
    "夺得": 6859,
    "花落": 6860,
    "谁家": 6861,
    "拭目以待": 6862,
    "压倒性": 6863,
    "亚军": 6864,
    "关注度": 6865,
    "骄傲自满": 6866,
    "高级": 6867,
    "现阶段": 6868,
    "暂时": 6869,
    "赛": 6870,
    "阶段性": 6871,
    "收尾": 6872,
    "切分": 6873,
    "意味着": 6874,
    "传闻": 6875,
    "肢体": 6876,
    "红透": 6877,
    "跌": 6878,
    "大名鼎鼎": 6879,
    "人物": 6880,
    "席卷": 6881,
    "帝国": 6882,
    "贪心": 6883,
    "咨询": 6884,
    "小雨": 6885,
    "视线": 6886,
    "转移": 6887,
    "全局": 6888,
    "因小失大": 6889,
    "转播": 6890,
    "不懈努力": 6891,
    "挺进": 6892,
    "玩玩": 6893,
    "打赢": 6894,
    "拼尽": 6895,
    "八点": 6896,
    "美国队": 6897,
    "率先": 6898,
    "上万": 6899,
    "开遍": 6900,
    "楼下": 6901,
    "启蒙": 6902,
    "指出": 6903,
    "代课": 6904,
    "考卷": 6905,
    "每周五": 6906,
    "精心": 6907,
    "心意": 6908,
    "棒": 6909,
    "选题": 6910,
    "头绪": 6911,
    "毕业证": 6912,
    "错别字": 6913,
    "退货": 6914,
    "发展中国家": 6915,
    "代价": 6916,
    "推动": 6917,
    "照": 6918,
    "发展期": 6919,
    "向前": 6920,
    "放任": 6921,
    "事态": 6922,
    "出乎": 6923,
    "辱骂": 6924,
    "反对票": 6925,
    "亲事": 6926,
    "极力": 6927,
    "早恋": 6928,
    "否决权": 6929,
    "男尊女卑": 6930,
    "全盘": 6931,
    "结论": 6932,
    "毫不犹豫": 6933,
    "双重": 6934,
    "表": 6935,
    "钱款": 6936,
    "点清": 6937,
    "概": 6938,
    "向来": 6939,
    "偷懒": 6940,
    "信任": 6941,
    "插播": 6942,
    "插上": 6943,
    "一脚": 6944,
    "插嘴": 6945,
    "插话": 6946,
    "插座": 6947,
    "后取": 6948,
    "插件": 6949,
    "自找": 6950,
    "与众不同": 6951,
    "防": 6952,
    "家破人亡": 6953,
    "一落千丈": 6954,
    "毁": 6955,
    "丢脸": 6956,
    "舒畅": 6957,
    "而已": 6958,
    "承": 6959,
    "钱包": 6960,
    "本地人": 6961,
    "罚站": 6962,
    "稍微": 6963,
    "奇特": 6964,
    "眼光": 6965,
    "动人": 6966,
    "任": 6967,
    "小姑娘": 6968,
    "善罢甘休": 6969,
    "抓捕": 6970,
    "刺眼": 6971,
    "阳光": 6972,
    "犀利": 6973,
    "爆炸": 6974,
    "翻书": 6975,
    "认账": 6976,
    "逼急": 6977,
    "达成": 6978,
    "打盹": 6979,
    "面熟": 6980,
    "红红的": 6981,
    "提到": 6982,
    "痛": 6983,
    "罐": 6984,
    "变质": 6985,
    "灭火器": 6986,
    "问问": 6987,
    "民情": 6988,
    "胎儿": 6989,
    "怀孕": 6990,
    "吸入": 6991,
    "未婚": 6992,
    "先孕": 6993,
    "休": 6994,
    "产假": 6995,
    "危险性": 6996,
    "复查": 6997,
    "点名": 6998,
    "直": 6999,
    "吐": 7000,
    "售票": 7001,
    "驶": 7002,
    "开走": 7003,
    "前排": 7004,
    "接待处": 7005,
    "鱼龙混杂": 7006,
    "日积月累": 7007,
    "沾沾自喜": 7008,
    "成绩单": 7009,
    "卸": 7010,
    "载掉": 7011,
    "干嘛": 7012,
    "三号": 7013,
    "单向": 7014,
    "入口": 7015,
    "出口额": 7016,
    "同比": 7017,
    "农产品": 7018,
    "堆放": 7019,
    "杂物": 7020,
    "进出口": 7021,
    "总量": 7022,
    "平衡": 7023,
    "地道": 7024,
    "隐秘": 7025,
    "内销": 7026,
    "药剂师": 7027,
    "配好": 7028,
    "药名": 7029,
    "弄错": 7030,
    "恐怕": 7031,
    "恨": 7032,
    "删": 7033,
    "词语": 7034,
    "卖掉": 7035,
    "无忧": 7036,
    "分组": 7037,
    "乐子": 7038,
    "嘴里": 7039,
    "瞌睡": 7040,
    "哈士奇": 7041,
    "无礼": 7042,
    "太困": 7043,
    "好戏": 7044,
    "姓": 7045,
    "番": 7046,
    "生性": 7047,
    "合群": 7048,
    "起初": 7049,
    "身后": 7050,
    "脑袋": 7051,
    "露": 7052,
    "硬着头皮": 7053,
    "撤换": 7054,
    "称职": 7055,
    "捡回": 7056,
    "那场": 7057,
    "犯法": 7058,
    "犯下": 7059,
    "获胜": 7060,
    "幸运": 7061,
    "诈骗犯": 7062,
    "猜中": 7063,
    "抓": 7064,
    "视而不见": 7065,
    "推移": 7066,
    "睡醒": 7067,
    "聊聊": 7068,
    "不解": 7069,
    "想通": 7070,
    "听见": 7071,
    "原地": 7072,
    "盯": 7073,
    "天花板": 7074,
    "深挚": 7075,
    "儿女": 7076,
    "镇静": 7077,
    "止住": 7078,
    "低落": 7079,
    "完毕": 7080,
    "安装费": 7081,
    "说明书": 7082,
    "次架": 7083,
    "边上": 7084,
    "真舍": 7085,
    "衣物": 7086,
    "多亏": 7087,
    "巩固": 7088,
    "老太": 7089,
    "太过": 7090,
    "心地": 7091,
    "仁慈": 7092,
    "体系": 7093,
    "基础教育": 7094,
    "海外": 7095,
    "包装费": 7096,
    "共计": 7097,
    "年头": 7098,
    "精美": 7099,
    "送礼": 7100,
    "选购": 7101,
    "完好": 7102,
    "包装纸": 7103,
    "促进": 7104,
    "销售": 7105,
    "网址": 7106,
    "踊跃": 7107,
    "恋人": 7108,
    "拖拖拉拉": 7109,
    "抒情": 7110,
    "诗人": 7111,
    "抓药": 7112,
    "遵从": 7113,
    "衡量": 7114,
    "日趋": 7115,
    "书信": 7116,
    "周密": 7117,
    "钥匙包": 7118,
    "便利店": 7119,
    "让位": 7120,
    "证人": 7121,
    "恒心": 7122,
    "虎头蛇尾": 7123,
    "蛮不讲理": 7124,
    "零敲碎打": 7125,
    "挣": 7126,
    "养活": 7127,
    "迫不及待": 7128,
    "武力": 7129,
    "误解": 7130,
    "加深": 7131,
    "窃听": 7132,
    "情报": 7133,
    "这才": 7134,
    "一箭双雕": 7135,
    "水灾": 7136,
    "通俗": 7137,
    "浅白": 7138,
    "明日": 7139,
    "黄花": 7140,
    "昙花一现": 7141,
    "菊花": 7142,
    "凋谢": 7143,
    "上限": 7144,
    "品好": 7145,
    "应聘": 7146,
    "反问": 7147,
    "考官": 7148,
    "答": 7149,
    "天安门": 7150,
    "游览": 7151,
    "成千上万": 7152,
    "持刀": 7153,
    "各级": 7154,
    "党": 7155,
    "志气": 7156,
    "侦破": 7157,
    "爆炸案": 7158,
    "艰巨": 7159,
    "户外": 7160,
    "骄阳似火": 7161,
    "树荫": 7162,
    "凉快": 7163,
    "堂": 7164,
    "呼应": 7165,
    "生动活泼": 7166,
    "侦察兵": 7167,
    "浑身是胆": 7168,
    "只身": 7169,
    "深入虎穴": 7170,
    "小分队": 7171,
    "顽匪": 7172,
    "头目": 7173,
    "动画片": 7174,
    "柯南": 7175,
    "侦探": 7176,
    "气愤填膺": 7177,
    "握": 7178,
    "纠正": 7179,
    "搞活": 7180,
    "生财之道": 7181,
    "恭喜发财": 7182,
    "明察秋毫": 7183,
    "无所不知": 7184,
    "延长": 7185,
    "无端": 7186,
    "谈恋爱": 7187,
    "顶级": 7188,
    "防守": 7189,
    "中场": 7190,
    "暴露无遗": 7191,
    "守护神": 7192,
    "守护": 7193,
    "名师": 7194,
    "指点": 7195,
    "一无所有": 7196,
    "过失": 7197,
    "分享": 7198,
    "相见": 7199,
    "易": 7200,
    "奥妙": 7201,
    "我军": 7202,
    "抵抗": 7203,
    "进攻": 7204,
    "心痛": 7205,
    "一次次": 7206,
    "味如鸡肋": 7207,
    "治病": 7208,
    "无菌": 7209,
    "小华": 7210,
    "名将": 7211,
    "如数家珍": 7212,
    "齐全": 7213,
    "高中生": 7214,
    "到校": 7215,
    "露天": 7216,
    "恐怖": 7217,
    "鬼屋": 7218,
    "保": 7219,
    "失恋": 7220,
    "当做": 7221,
    "参考": 7222,
    "学习室": 7223,
    "互动性": 7224,
    "公交站": 7225,
    "显示屏": 7226,
    "车次": 7227,
    "主持": 7228,
    "公道": 7229,
    "动力": 7230,
    "冷笑": 7231,
    "三星级": 7232,
    "会长": 7233,
    "高高的": 7234,
    "突击": 7235,
    "贫困生": 7236,
    "账": 7237,
    "公然": 7238,
    "光天化日": 7239,
    "之下": 7240,
    "抢夺": 7241,
    "违法": 7242,
    "损坏": 7243,
    "照价": 7244,
    "一律": 7245,
    "上缴": 7246,
    "老妈": 7247,
    "测试仪": 7248,
    "谨防": 7249,
    "洗衣机": 7250,
    "口里": 7251,
    "超速": 7252,
    "味": 7253,
    "十二": 7254,
    "飞人": 7255,
    "超越": 7256,
    "乐于": 7257,
    "助人": 7258,
    "血本": 7259,
    "应得": 7260,
    "铁来": 7261,
    "冒充": 7262,
    "古老": 7263,
    "绝大部分": 7264,
    "有毒": 7265,
    "航天": 7266,
    "洗衣粉": 7267,
    "心路": 7268,
    "技术部": 7269,
    "造": 7270,
    "火箭": 7271,
    "贝多芬": 7272,
    "炒出": 7273,
    "天价": 7274,
    "天边": 7275,
    "彩虹": 7276,
    "涨水": 7277,
    "开张": 7278,
    "网红店": 7279,
    "托儿": 7280,
    "连续": 7281,
    "排球": 7282,
    "男排": 7283,
    "奥运": 7284,
    "代言": 7285,
    "搜集": 7286,
    "心境": 7287,
    "神秘": 7288,
    "麻醉": 7289,
    "局部性": 7290,
    "所谓": 7291,
    "隐私": 7292,
    "炸鸡": 7293,
    "百吃": 7294,
    "不厌": 7295,
    "交上": 7296,
    "放慢": 7297,
    "邪恶": 7298,
    "提议": 7299,
    "建造": 7300,
    "值日": 7301,
    "电源": 7302,
    "花插": 7303,
    "玻璃瓶": 7304,
    "插曲": 7305,
    "插图": 7306,
    "插班生": 7307,
    "插入": 7308,
    "不能不": 7309,
    "偏激": 7310,
    "自拔": 7311,
    "证据": 7312,
    "积蓄": 7313,
    "跳级": 7314,
    "扣掉": 7315,
    "月工资": 7316,
    "难看": 7317,
    "圆滑": 7318,
    "上司": 7319,
    "不理": 7320,
    "熊": 7321,
    "挑拨": 7322,
    "吃掉": 7323,
    "星期二": 7324,
    "不候": 7325,
    "捐款": 7326,
    "二万": 7327,
    "出售": 7328,
    "临近": 7329,
    "代金券": 7330,
    "优惠": 7331,
    "换办": 7332,
    "比如说": 7333,
    "呕吐": 7334,
    "头痛": 7335,
    "小心眼": 7336,
    "死心": 7337,
    "表明": 7338,
    "去向": 7339,
    "变样": 7340,
    "老龄化": 7341,
    "持平": 7342,
    "多于": 7343,
    "收支": 7344,
    "平衡表": 7345,
    "盒子": 7346,
    "油倒": 7347,
    "自助": 7348,
    "广播": 7349,
    "规范": 7350,
    "东路": 7351,
    "治": 7352,
    "慈善": 7353,
    "空隙": 7354,
    "感想": 7355,
    "简洁": 7356,
    "美感": 7357,
    "会计": 7358,
    "无趣": 7359,
    "风趣": 7360,
    "骗人": 7361,
    "当真": 7362,
    "眼疾手快": 7363,
    "刹车": 7364,
    "理智": 7365,
    "姥姥": 7366,
    "徘徊": 7367,
    "神色": 7368,
    "吹牛": 7369,
    "耳背": 7370,
    "钱袋": 7371,
    "村里": 7372,
    "车库": 7373,
    "不准": 7374,
    "照明": 7375,
    "搏器": 7376,
    "窃听器": 7377,
    "盗版": 7378,
    "天亮": 7379,
    "缴纳": 7380,
    "学杂费": 7381,
    "纪念": 7382,
    "透过": 7383,
    "知名度": 7384,
    "女星": 7385,
    "无不": 7386,
    "球赛": 7387,
    "当下": 7388,
    "陈列": 7389,
    "文物": 7390,
    "献": 7391,
    "悔过自新": 7392,
    "语文": 7393,
    "交际": 7394,
    "语法": 7395,
    "丑陋": 7396,
    "早日": 7397,
    "力求": 7398,
    "彩纸": 7399,
    "礼品袋": 7400,
    "香烟": 7401,
    "征兵": 7402,
    "名额": 7403,
    "有限": 7404,
    "报名表": 7405,
    "填错": 7406,
    "入伍": 7407,
    "前线": 7408,
    "恳切": 7409,
    "转眼": 7410,
    "合影": 7411,
    "留念": 7412,
    "那年": 7413,
    "离校": 7414,
    "温度计": 7415,
    "灵敏": 7416,
    "时刻": 7417,
    "细微": 7418,
    "信服": 7419,
    "旅费": 7420,
    "限于": 7421,
    "转借": 7422,
    "名称": 7423,
    "注册": 7424,
    "图画": 7425,
    "想像力": 7426,
    "华而不实": 7427,
    "点缀": 7428,
    "大面积": 7429,
    "学家": 7430,
    "茶树": 7431,
    "高山": 7432,
    "渎职": 7433,
    "追究": 7434,
    "球队": 7435,
    "升职": 7436,
    "吃惊": 7437,
    "昔日": 7438,
    "充实": 7439,
    "按期": 7440,
    "缴付": 7441,
    "伯父": 7442,
    "无论如何": 7443,
    "筹到": 7444,
    "救援队": 7445,
    "救援": 7446,
    "登山者": 7447,
    "路线": 7448,
    "会员": 7449,
    "帐号": 7450,
    "必": 7451,
    "行必果": 7452,
    "准则": 7453,
    "要不是": 7454,
    "素质": 7455,
    "朴实": 7456,
    "一不小心": 7457,
    "删除": 7458,
    "费": 7459,
    "轻巧": 7460,
    "常情": 7461,
    "下列": 7462,
    "五月": 7463,
    "惯例": 7464,
    "重罚": 7465,
    "一板一眼": 7466,
    "一年半载": 7467,
    "书柜": 7468,
    "尺寸": 7469,
    "订做": 7470,
    "准时": 7471,
    "集合": 7472,
    "塑造": 7473,
    "烧菜": 7474,
    "许诺": 7475,
    "考取": 7476,
    "变换": 7477,
    "发球": 7478,
    "欠钱": 7479
  },
  "word_idx2word": {
    "0": "<PAD>",
    "1": "<BOS>",
    "2": "<EOS>",
    "3": "<UNK>",
    "4": "的",
    "5": "我",
    "6": "了",
    "7": "他",
    "8": "不",
    "9": "你",
    "10": "是",
    "11": "在",
    "12": "很",
    "13": "我们",
    "14": "人",
    "15": "有",
    "16": "一",
    "17": "去",
    "18": "都",
    "19": "要",
    "20": "这",
    "21": "会",
    "22": "和",
    "23": "能",
    "24": "就",
    "25": "好",
    "26": "想",
    "27": "上",
    "28": "没有",
    "29": "自己",
    "30": "对",
    "31": "什么",
    "32": "吃",
    "33": "也",
    "34": "到",
    "35": "可以",
    "36": "一个",
    "37": "喜欢",
    "38": "工作",
    "39": "买",
    "40": "老师",
    "41": "看",
    "42": "多",
    "43": "这个",
    "44": "做",
    "45": "给",
    "46": "让",
    "47": "不要",
    "48": "个",
    "49": "很多",
    "50": "把",
    "51": "今天",
    "52": "得",
    "53": "吗",
    "54": "来",
    "55": "还",
    "56": "着",
    "57": "里",
    "58": "地",
    "59": "时候",
    "60": "他们",
    "61": "说",
    "62": "现在",
    "63": "妈妈",
    "64": "被",
    "65": "中",
    "66": "太",
    "67": "没",
    "68": "时",
    "69": "为",
    "70": "学习",
    "71": "大家",
    "72": "明天",
    "73": "爸爸",
    "74": "但",
    "75": "学校",
    "76": "公司",
    "77": "用",
    "78": "大",
    "79": "后",
    "80": "最",
    "81": "同学",
    "82": "件",
    "83": "不是",
    "84": "过",
    "85": "请",
    "86": "已经",
    "87": "因为",
    "88": "手机",
    "89": "生活",
    "90": "喝",
    "91": "那",
    "92": "们",
    "93": "找",
    "94": "非常",
    "95": "吧",
    "96": "每天",
    "97": "下",
    "98": "应该",
    "99": "怎么",
    "100": "钱",
    "101": "种",
    "102": "中国",
    "103": "朋友",
    "104": "晚上",
    "105": "需要",
    "106": "电影",
    "107": "为了",
    "108": "时间",
    "109": "事情",
    "110": "几",
    "111": "她",
    "112": "旅游",
    "113": "又",
    "114": "事",
    "115": "但是",
    "116": "再",
    "117": "只",
    "118": "还是",
    "119": "两",
    "120": "考试",
    "121": "孩子",
    "122": "身体",
    "123": "如果",
    "124": "从",
    "125": "努力",
    "126": "回家",
    "127": "超市",
    "128": "就是",
    "129": "别人",
    "130": "写",
    "131": "衣服",
    "132": "上海",
    "133": "准备",
    "134": "小",
    "135": "与",
    "136": "而",
    "137": "医生",
    "138": "更",
    "139": "东西",
    "140": "新",
    "141": "问题",
    "142": "走",
    "143": "大学",
    "144": "必须",
    "145": "坐",
    "146": "开始",
    "147": "年",
    "148": "知道",
    "149": "漂亮",
    "150": "带",
    "151": "条",
    "152": "才",
    "153": "点",
    "154": "总是",
    "155": "开车",
    "156": "哪里",
    "157": "方便",
    "158": "感到",
    "159": "错误",
    "160": "感冒",
    "161": "认识",
    "162": "虽然",
    "163": "一起",
    "164": "北京",
    "165": "电脑",
    "166": "学生",
    "167": "一下",
    "168": "张",
    "169": "向",
    "170": "出",
    "171": "父母",
    "172": "将",
    "173": "真",
    "174": "一些",
    "175": "帮助",
    "176": "这次",
    "177": "每个",
    "178": "结果",
    "179": "次",
    "180": "这是",
    "181": "并",
    "182": "谁",
    "183": "医院",
    "184": "吃饭",
    "185": "你们",
    "186": "发现",
    "187": "呢",
    "188": "这么",
    "189": "发展",
    "190": "觉得",
    "191": "运动",
    "192": "天气",
    "193": "完",
    "194": "却",
    "195": "老板",
    "196": "比赛",
    "197": "天",
    "198": "第一",
    "199": "等",
    "200": "这种",
    "201": "打",
    "202": "睡觉",
    "203": "每",
    "204": "手语",
    "205": "经常",
    "206": "互相",
    "207": "房间",
    "208": "一定",
    "209": "聪明",
    "210": "菜",
    "211": "一点",
    "212": "决定",
    "213": "美国",
    "214": "帮",
    "215": "一直",
    "216": "通过",
    "217": "社会",
    "218": "比",
    "219": "担心",
    "220": "快",
    "221": "技术",
    "222": "崇拜",
    "223": "少",
    "224": "成功",
    "225": "白天",
    "226": "困难",
    "227": "这里",
    "228": "有点",
    "229": "查询",
    "230": "经验",
    "231": "地方",
    "232": "护照",
    "233": "受到",
    "234": "饭店",
    "235": "了解",
    "236": "答案",
    "237": "进行",
    "238": "安静",
    "239": "女儿",
    "240": "提高",
    "241": "尊重",
    "242": "下雨",
    "243": "穿",
    "244": "重要",
    "245": "工资",
    "246": "注意",
    "247": "水果",
    "248": "生日",
    "249": "最近",
    "250": "拿",
    "251": "地铁",
    "252": "失败",
    "253": "昨天",
    "254": "害怕",
    "255": "像",
    "256": "出来",
    "257": "不同",
    "258": "成绩",
    "259": "发",
    "260": "分钟",
    "261": "发生",
    "262": "一样",
    "263": "情况",
    "264": "玩",
    "265": "爷爷",
    "266": "处理",
    "267": "方式",
    "268": "礼物",
    "269": "别",
    "270": "安全",
    "271": "图书馆",
    "272": "它",
    "273": "容易",
    "274": "附近",
    "275": "起来",
    "276": "这家",
    "277": "系统",
    "278": "上班",
    "279": "小时",
    "280": "高",
    "281": "姐姐",
    "282": "送",
    "283": "起",
    "284": "方法",
    "285": "组织",
    "286": "所以",
    "287": "只有",
    "288": "世界",
    "289": "快递",
    "290": "股票",
    "291": "封面",
    "292": "这些",
    "293": "为什么",
    "294": "哥哥",
    "295": "使",
    "296": "总",
    "297": "人们",
    "298": "儿子",
    "299": "那个",
    "300": "水",
    "301": "银行",
    "302": "份",
    "303": "多少",
    "304": "生病",
    "305": "啊",
    "306": "身份证",
    "307": "懂",
    "308": "好吃",
    "309": "前",
    "310": "牛奶",
    "311": "高铁",
    "312": "广告",
    "313": "十分",
    "314": "以",
    "315": "受",
    "316": "追求",
    "317": "三",
    "318": "之后",
    "319": "杯",
    "320": "迟到",
    "321": "当",
    "322": "火车",
    "323": "听",
    "324": "可能",
    "325": "除了",
    "326": "乘坐",
    "327": "联系",
    "328": "红包",
    "329": "完成",
    "330": "办法",
    "331": "提前",
    "332": "家里",
    "333": "微信",
    "334": "下来",
    "335": "长",
    "336": "许多",
    "337": "我家",
    "338": "出去",
    "339": "越来越",
    "340": "国家",
    "341": "猫",
    "342": "跑步",
    "343": "跟",
    "344": "出差",
    "345": "班长",
    "346": "拒绝",
    "347": "道理",
    "348": "法律",
    "349": "十",
    "350": "月",
    "351": "早上",
    "352": "这样",
    "353": "作业",
    "354": "作为",
    "355": "打车",
    "356": "咖啡",
    "357": "开",
    "358": "打算",
    "359": "那么",
    "360": "名",
    "361": "工人",
    "362": "表演",
    "363": "冷",
    "364": "难",
    "365": "宾馆",
    "366": "那些",
    "367": "由于",
    "368": "变",
    "369": "要求",
    "370": "找到",
    "371": "女朋友",
    "372": "一般",
    "373": "可",
    "374": "作品",
    "375": "今年",
    "376": "比较",
    "377": "上课",
    "378": "看到",
    "379": "不够",
    "380": "之间",
    "381": "报名",
    "382": "下午",
    "383": "飞机",
    "384": "告诉",
    "385": "过去",
    "386": "短信",
    "387": "保险",
    "388": "由",
    "389": "感受",
    "390": "机场",
    "391": "榜样",
    "392": "标准",
    "393": "总结",
    "394": "代替",
    "395": "叫",
    "396": "结婚",
    "397": "使用",
    "398": "缺少",
    "399": "及时",
    "400": "讲",
    "401": "表格",
    "402": "故障",
    "403": "住",
    "404": "交流",
    "405": "方面",
    "406": "的话",
    "407": "后悔",
    "408": "累",
    "409": "妹妹",
    "410": "喝酒",
    "411": "堵车",
    "412": "影响",
    "413": "参加",
    "414": "表情",
    "415": "过敏",
    "416": "终于",
    "417": "家",
    "418": "看见",
    "419": "好好",
    "420": "艾滋病",
    "421": "离婚",
    "422": "还有",
    "423": "贵",
    "424": "舒服",
    "425": "沟通",
    "426": "既",
    "427": "理解",
    "428": "商店",
    "429": "听说",
    "430": "说话",
    "431": "贷款",
    "432": "蓝牙",
    "433": "笔记本",
    "434": "出国",
    "435": "签字",
    "436": "抱怨",
    "437": "差不多",
    "438": "爱护",
    "439": "嘲笑",
    "440": "一家",
    "441": "回来",
    "442": "休息",
    "443": "希望",
    "444": "刚才",
    "445": "经过",
    "446": "各种",
    "447": "怀疑",
    "448": "彻底",
    "449": "急诊室",
    "450": "岁",
    "451": "先",
    "452": "人生",
    "453": "领导",
    "454": "核磁共振",
    "455": "精神",
    "456": "斑马线",
    "457": "行为",
    "458": "估计",
    "459": "保护",
    "460": "爱",
    "461": "倒霉",
    "462": "裙子",
    "463": "吃饱",
    "464": "班",
    "465": "超过",
    "466": "日期",
    "467": "地图",
    "468": "刺激",
    "469": "惭愧",
    "470": "导航",
    "471": "足球",
    "472": "就要",
    "473": "好看",
    "474": "减少",
    "475": "人民",
    "476": "排队",
    "477": "相处",
    "478": "申请",
    "479": "苹果",
    "480": "妻子",
    "481": "变化",
    "482": "弟弟",
    "483": "熟悉",
    "484": "计划",
    "485": "活动",
    "486": "承认",
    "487": "毕业",
    "488": "应",
    "489": "模仿",
    "490": "能力",
    "491": "兼职",
    "492": "作弊",
    "493": "大致",
    "494": "借口",
    "495": "天赋",
    "496": "最好",
    "497": "汽车",
    "498": "其实",
    "499": "蛋糕",
    "500": "之前",
    "501": "位",
    "502": "强调",
    "503": "方向",
    "504": "道歉",
    "505": "自卑",
    "506": "名片",
    "507": "怎么样",
    "508": "还要",
    "509": "严重",
    "510": "任何",
    "511": "家属",
    "512": "元",
    "513": "负责",
    "514": "报酬",
    "515": "小明",
    "516": "饮料",
    "517": "刚",
    "518": "合肥",
    "519": "状态",
    "520": "阑尾炎",
    "521": "产品",
    "522": "挂失",
    "523": "合作",
    "524": "配合",
    "525": "欺负",
    "526": "话",
    "527": "偶像",
    "528": "定居",
    "529": "嫌弃",
    "530": "自愿",
    "531": "自豪",
    "532": "遗憾",
    "533": "组团",
    "534": "处罚",
    "535": "杯子",
    "536": "公交车",
    "537": "健康",
    "538": "环境",
    "539": "才能",
    "540": "安装",
    "541": "篇",
    "542": "节约",
    "543": "害羞",
    "544": "重复",
    "545": "高兴",
    "546": "起床",
    "547": "场",
    "548": "辞职",
    "549": "离",
    "550": "房子",
    "551": "票",
    "552": "车站",
    "553": "病人",
    "554": "得到",
    "555": "绷带",
    "556": "解决",
    "557": "成熟",
    "558": "惊吓",
    "559": "委屈",
    "560": "记仇",
    "561": "阻拦",
    "562": "傲慢",
    "563": "关节",
    "564": "桌子",
    "565": "记得",
    "566": "主要",
    "567": "早饭",
    "568": "只能",
    "569": "检查",
    "570": "提供",
    "571": "只是",
    "572": "王",
    "573": "随着",
    "574": "感动",
    "575": "已",
    "576": "保持",
    "577": "任务",
    "578": "录取",
    "579": "按照",
    "580": "赚",
    "581": "个人",
    "582": "电视",
    "583": "大雨",
    "584": "遇到",
    "585": "所有",
    "586": "根据",
    "587": "办理",
    "588": "集中",
    "589": "出现",
    "590": "请假",
    "591": "连",
    "592": "八宝粥",
    "593": "部分",
    "594": "顾客",
    "595": "打扮",
    "596": "小王",
    "597": "以后",
    "598": "远",
    "599": "跳舞",
    "600": "男朋友",
    "601": "书",
    "602": "胖",
    "603": "裤子",
    "604": "夏天",
    "605": "最后",
    "606": "只要",
    "607": "马上",
    "608": "游戏",
    "609": "原因",
    "610": "冠军",
    "611": "知识",
    "612": "补贴",
    "613": "钥匙",
    "614": "分别",
    "615": "前方",
    "616": "否认",
    "617": "吃货",
    "618": "字幕",
    "619": "您",
    "620": "饭",
    "621": "爬山",
    "622": "路",
    "623": "上学",
    "624": "低",
    "625": "规定",
    "626": "生命",
    "627": "取得",
    "628": "禁止",
    "629": "该",
    "630": "恶心",
    "631": "大概",
    "632": "远亲",
    "633": "有人",
    "634": "面包",
    "635": "应当",
    "636": "教育",
    "637": "对象",
    "638": "财物",
    "639": "踢",
    "640": "在家",
    "641": "便宜",
    "642": "不用",
    "643": "警察",
    "644": "癌症",
    "645": "网络",
    "646": "存折",
    "647": "禁不起",
    "648": "安慰",
    "649": "感觉",
    "650": "多媒体",
    "651": "组成",
    "652": "反对",
    "653": "差点儿",
    "654": "厨师",
    "655": "联想",
    "656": "可爱",
    "657": "手术",
    "658": "样子",
    "659": "来说",
    "660": "生产",
    "661": "彩票",
    "662": "晚饭",
    "663": "服务员",
    "664": "平时",
    "665": "固定",
    "666": "接触",
    "667": "当面",
    "668": "午饭",
    "669": "冬天",
    "670": "价格",
    "671": "所",
    "672": "车",
    "673": "邮件",
    "674": "学会",
    "675": "有些",
    "676": "脉搏",
    "677": "感染",
    "678": "小孩子",
    "679": "质量",
    "680": "否定",
    "681": "吃不消",
    "682": "担架",
    "683": "亲切",
    "684": "睡",
    "685": "网上",
    "686": "坏",
    "687": "奶奶",
    "688": "不断",
    "689": "教学",
    "690": "二维码",
    "691": "五",
    "692": "肯德基",
    "693": "过期",
    "694": "定期",
    "695": "处方",
    "696": "抽血",
    "697": "本书",
    "698": "吃药",
    "699": "介绍",
    "700": "做饭",
    "701": "小心",
    "702": "研究",
    "703": "正确",
    "704": "对于",
    "705": "生气",
    "706": "病历",
    "707": "差别",
    "708": "论文",
    "709": "福气",
    "710": "学",
    "711": "上网",
    "712": "不少",
    "713": "游泳",
    "714": "从来",
    "715": "故事",
    "716": "自然",
    "717": "场合",
    "718": "单纯",
    "719": "弹幕",
    "720": "冷场",
    "721": "或",
    "722": "设计",
    "723": "成为",
    "724": "无法",
    "725": "多余",
    "726": "工厂",
    "727": "做事",
    "728": "草稿",
    "729": "称赞",
    "730": "得罪",
    "731": "侥幸",
    "732": "茫然",
    "733": "回",
    "734": "站",
    "735": "期间",
    "736": "丢",
    "737": "程序",
    "738": "我国",
    "739": "各",
    "740": "敌人",
    "741": "包括",
    "742": "决赛",
    "743": "躲避",
    "744": "红色",
    "745": "西瓜",
    "746": "忘",
    "747": "出门",
    "748": "忘记",
    "749": "治疗",
    "750": "把握",
    "751": "而是",
    "752": "坚持",
    "753": "他人",
    "754": "真是",
    "755": "唱",
    "756": "花",
    "757": "流行",
    "758": "教训",
    "759": "水平",
    "760": "信息",
    "761": "包装",
    "762": "下去",
    "763": "阶段",
    "764": "想法",
    "765": "金融",
    "766": "操心",
    "767": "登记",
    "768": "娃娃",
    "769": "热",
    "770": "过年",
    "771": "路上",
    "772": "以前",
    "773": "客户",
    "774": "令",
    "775": "意见",
    "776": "每次",
    "777": "办",
    "778": "动物",
    "779": "这部",
    "780": "动车",
    "781": "怪不得",
    "782": "乏味",
    "783": "犯",
    "784": "椅子",
    "785": "见",
    "786": "辣",
    "787": "认真",
    "788": "大多数",
    "789": "过程",
    "790": "人员",
    "791": "反应",
    "792": "清楚",
    "793": "往往",
    "794": "政府",
    "795": "危险",
    "796": "输液",
    "797": "套",
    "798": "喝茶",
    "799": "鱼",
    "800": "下雪",
    "801": "复习",
    "802": "同事",
    "803": "城市",
    "804": "白内障",
    "805": "不管",
    "806": "流量",
    "807": "接受",
    "808": "思想",
    "809": "习惯",
    "810": "本",
    "811": "电话",
    "812": "获得",
    "813": "读书",
    "814": "店",
    "815": "表现",
    "816": "出口",
    "817": "突然",
    "818": "流产",
    "819": "自拍",
    "820": "标志",
    "821": "正在",
    "822": "新鲜",
    "823": "哪",
    "824": "聋人",
    "825": "司机",
    "826": "因",
    "827": "疾病",
    "828": "电子",
    "829": "心",
    "830": "心里",
    "831": "事物",
    "832": "沉迷",
    "833": "面条",
    "834": "手表",
    "835": "放",
    "836": "相信",
    "837": "周日",
    "838": "火锅",
    "839": "老人",
    "840": "照顾",
    "841": "事故",
    "842": "通常",
    "843": "之",
    "844": "幸福",
    "845": "外出",
    "846": "声音",
    "847": "制作",
    "848": "翻脸",
    "849": "小张",
    "850": "进",
    "851": "机会",
    "852": "于",
    "853": "食物",
    "854": "进入",
    "855": "餐巾纸",
    "856": "狗",
    "857": "常常",
    "858": "现代",
    "859": "能够",
    "860": "干部",
    "861": "更新",
    "862": "母亲",
    "863": "文章",
    "864": "减肥",
    "865": "做好",
    "866": "理想",
    "867": "简单",
    "868": "因此",
    "869": "精彩",
    "870": "肯定",
    "871": "国外",
    "872": "电影院",
    "873": "越",
    "874": "选择",
    "875": "预订",
    "876": "很快",
    "877": "交通",
    "878": "护士",
    "879": "放假",
    "880": "收到",
    "881": "完全",
    "882": "这位",
    "883": "经济",
    "884": "软件",
    "885": "家长",
    "886": "便",
    "887": "一切",
    "888": "支持",
    "889": "人类",
    "890": "女人",
    "891": "读",
    "892": "行",
    "893": "问",
    "894": "真的",
    "895": "适合",
    "896": "这项",
    "897": "如何",
    "898": "积极",
    "899": "差",
    "900": "出租",
    "901": "名字",
    "902": "送给",
    "903": "病",
    "904": "看看",
    "905": "里面",
    "906": "敢",
    "907": "群众",
    "908": "句",
    "909": "先进",
    "910": "教室",
    "911": "留下",
    "912": "懂得",
    "913": "吸引",
    "914": "语言",
    "915": "英语",
    "916": "反调",
    "917": "搬家",
    "918": "视频",
    "919": "眼睛",
    "920": "消息",
    "921": "离开",
    "922": "篮球",
    "923": "美",
    "924": "道",
    "925": "怕",
    "926": "服务",
    "927": "鼓励",
    "928": "老",
    "929": "合同",
    "930": "艺术",
    "931": "原来",
    "932": "空气",
    "933": "无论",
    "934": "管理",
    "935": "成",
    "936": "考上",
    "937": "内容",
    "938": "玻璃",
    "939": "关心",
    "940": "难以",
    "941": "台",
    "942": "些",
    "943": "笔",
    "944": "外面",
    "945": "伞",
    "946": "过来",
    "947": "久",
    "948": "满意",
    "949": "火车票",
    "950": "辆",
    "951": "每年",
    "952": "丰富",
    "953": "根本",
    "954": "原则",
    "955": "性格",
    "956": "全部",
    "957": "讨论",
    "958": "演员",
    "959": "产生",
    "960": "改变",
    "961": "想到",
    "962": "过后",
    "963": "随便",
    "964": "遍",
    "965": "不见",
    "966": "传染",
    "967": "哪儿",
    "968": "快乐",
    "969": "欢迎",
    "970": "火车站",
    "971": "空调",
    "972": "打开",
    "973": "路口",
    "974": "行李箱",
    "975": "弄",
    "976": "春节",
    "977": "地球",
    "978": "一边",
    "979": "员工",
    "980": "简直",
    "981": "历史",
    "982": "无",
    "983": "农民",
    "984": "是否",
    "985": "优秀",
    "986": "高考",
    "987": "不必",
    "988": "市场",
    "989": "事业",
    "990": "逐渐",
    "991": "付出",
    "992": "承包",
    "993": "请问",
    "994": "米饭",
    "995": "忙",
    "996": "茶",
    "997": "一会儿",
    "998": "不但",
    "999": "而且",
    "1000": "酒",
    "1001": "打扫",
    "1002": "预防",
    "1003": "导致",
    "1004": "达到",
    "1005": "复印",
    "1006": "损失",
    "1007": "携带",
    "1008": "颗",
    "1009": "建设",
    "1010": "难过",
    "1011": "认为",
    "1012": "全",
    "1013": "紧张",
    "1014": "奇怪",
    "1015": "有所",
    "1016": "商品",
    "1017": "永远",
    "1018": "强",
    "1019": "没关系",
    "1020": "这儿",
    "1021": "丈夫",
    "1022": "兴趣",
    "1023": "不行",
    "1024": "新闻",
    "1025": "周六",
    "1026": "位置",
    "1027": "亲戚",
    "1028": "部",
    "1029": "教",
    "1030": "碗",
    "1031": "功能",
    "1032": "抓住",
    "1033": "做出",
    "1034": "小说",
    "1035": "药",
    "1036": "心情",
    "1037": "不过",
    "1038": "年轻人",
    "1039": "局部",
    "1040": "原谅",
    "1041": "明白",
    "1042": "谢谢",
    "1043": "星期",
    "1044": "看书",
    "1045": "颜色",
    "1046": "哪个",
    "1047": "同意",
    "1048": "带上",
    "1049": "特别",
    "1050": "相关",
    "1051": "拥有",
    "1052": "充分",
    "1053": "理由",
    "1054": "面对",
    "1055": "依然",
    "1056": "分析",
    "1057": "想要",
    "1058": "好几",
    "1059": "座",
    "1060": "心理",
    "1061": "班级",
    "1062": "共产党",
    "1063": "早",
    "1064": "回去",
    "1065": "着急",
    "1066": "然后",
    "1067": "冰箱",
    "1068": "早点",
    "1069": "年龄",
    "1070": "公园",
    "1071": "作",
    "1072": "只好",
    "1073": "等待",
    "1074": "号码",
    "1075": "态度",
    "1076": "祖国",
    "1077": "运动会",
    "1078": "行动",
    "1079": "副",
    "1080": "爱情",
    "1081": "情绪",
    "1082": "破坏",
    "1083": "活",
    "1084": "可是",
    "1085": "失望",
    "1086": "跑",
    "1087": "男人",
    "1088": "避孕",
    "1089": "避免",
    "1090": "去年",
    "1091": "预报",
    "1092": "引起",
    "1093": "父亲",
    "1094": "支付",
    "1095": "谈",
    "1096": "错",
    "1097": "家人",
    "1098": "各种各样",
    "1099": "听到",
    "1100": "愿意",
    "1101": "反复",
    "1102": "真正",
    "1103": "天天",
    "1104": "卖",
    "1105": "存在",
    "1106": "靠",
    "1107": "既然",
    "1108": "巨大",
    "1109": "增加",
    "1110": "思考",
    "1111": "企业",
    "1112": "好多",
    "1113": "男生",
    "1114": "瘦",
    "1115": "关系",
    "1116": "楼",
    "1117": "下周",
    "1118": "接",
    "1119": "你好",
    "1120": "气温",
    "1121": "鞋子",
    "1122": "饿",
    "1123": "人体",
    "1124": "力量",
    "1125": "设备",
    "1126": "科技",
    "1127": "卡",
    "1128": "运动员",
    "1129": "批评",
    "1130": "麻烦",
    "1131": "那种",
    "1132": "改革",
    "1133": "安排",
    "1134": "填写",
    "1135": "银行卡",
    "1136": "唯一",
    "1137": "搞",
    "1138": "明显",
    "1139": "美丽",
    "1140": "夫妻",
    "1141": "重点",
    "1142": "竞争",
    "1143": "其",
    "1144": "脸",
    "1145": "较",
    "1146": "梦想",
    "1147": "正",
    "1148": "事实",
    "1149": "年轻",
    "1150": "天才",
    "1151": "网站",
    "1152": "有时候",
    "1153": "对不起",
    "1154": "四",
    "1155": "乒乓球",
    "1156": "旁边",
    "1157": "雨",
    "1158": "关于",
    "1159": "客人",
    "1160": "双",
    "1161": "证明",
    "1162": "内",
    "1163": "另",
    "1164": "推出",
    "1165": "难道",
    "1166": "速度",
    "1167": "即使",
    "1168": "项目",
    "1169": "绝对",
    "1170": "干",
    "1171": "处于",
    "1172": "以为",
    "1173": "表示",
    "1174": "从不",
    "1175": "及",
    "1176": "劳动",
    "1177": "最终",
    "1178": "背后",
    "1179": "画",
    "1180": "周围",
    "1181": "出租车",
    "1182": "劳动者",
    "1183": "客气",
    "1184": "女生",
    "1185": "新年",
    "1186": "其他",
    "1187": "取",
    "1188": "下班",
    "1189": "说明",
    "1190": "传染病",
    "1191": "继续",
    "1192": "建议",
    "1193": "机器",
    "1194": "加",
    "1195": "手指",
    "1196": "看上去",
    "1197": "严肃",
    "1198": "到处",
    "1199": "双方",
    "1200": "锻炼",
    "1201": "从小",
    "1202": "条件",
    "1203": "确定",
    "1204": "反而",
    "1205": "效率",
    "1206": "人人",
    "1207": "形式",
    "1208": "成果",
    "1209": "资料",
    "1210": "未来",
    "1211": "越是",
    "1212": "校园",
    "1213": "话题",
    "1214": "星期一",
    "1215": "出院",
    "1216": "粉色",
    "1217": "不错",
    "1218": "晴天",
    "1219": "没事",
    "1220": "相同",
    "1221": "地铁站",
    "1222": "出发",
    "1223": "自行车",
    "1224": "味道",
    "1225": "有效",
    "1226": "宣传",
    "1227": "常见",
    "1228": "街",
    "1229": "复杂",
    "1230": "照片",
    "1231": "可不",
    "1232": "哭",
    "1233": "强大",
    "1234": "严格",
    "1235": "仍",
    "1236": "万象更新",
    "1237": "必然",
    "1238": "文化",
    "1239": "收入",
    "1240": "仔细",
    "1241": "通知",
    "1242": "公共",
    "1243": "纪律",
    "1244": "对方",
    "1245": "作文",
    "1246": "结束",
    "1247": "通知书",
    "1248": "经理",
    "1249": "购买",
    "1250": "多年",
    "1251": "采用",
    "1252": "记",
    "1253": "直接",
    "1254": "抄袭",
    "1255": "造成",
    "1256": "主动",
    "1257": "员",
    "1258": "白色",
    "1259": "浑水摸鱼",
    "1260": "租",
    "1261": "有着",
    "1262": "李",
    "1263": "课",
    "1264": "笑",
    "1265": "阴天",
    "1266": "一块",
    "1267": "公交",
    "1268": "马路",
    "1269": "汽车站",
    "1270": "巾纸",
    "1271": "巧克力",
    "1272": "发烧",
    "1273": "寻找",
    "1274": "极",
    "1275": "错过",
    "1276": "按时",
    "1277": "良好",
    "1278": "基本",
    "1279": "更加",
    "1280": "普遍",
    "1281": "免费",
    "1282": "相应",
    "1283": "若",
    "1284": "总会",
    "1285": "受伤",
    "1286": "伤",
    "1287": "缺乏",
    "1288": "相互",
    "1289": "失去",
    "1290": "战争",
    "1291": "清",
    "1292": "多次",
    "1293": "会议",
    "1294": "民族",
    "1295": "随身",
    "1296": "进步",
    "1297": "权利",
    "1298": "周",
    "1299": "自我",
    "1300": "三十",
    "1301": "面前",
    "1302": "物品",
    "1303": "就算",
    "1304": "旅行",
    "1305": "药物",
    "1306": "解释",
    "1307": "以免",
    "1308": "顿",
    "1309": "大声",
    "1310": "特色",
    "1311": "小红",
    "1312": "中午",
    "1313": "睡着",
    "1314": "分",
    "1315": "包间",
    "1316": "饺子",
    "1317": "甜",
    "1318": "卫生间",
    "1319": "行人",
    "1320": "加班",
    "1321": "患者",
    "1322": "数据",
    "1323": "交给",
    "1324": "病毒",
    "1325": "演讲",
    "1326": "防止",
    "1327": "资金",
    "1328": "变得",
    "1329": "尽管",
    "1330": "仍然",
    "1331": "如",
    "1332": "暑假",
    "1333": "放松",
    "1334": "应用",
    "1335": "垃圾",
    "1336": "图",
    "1337": "手",
    "1338": "道路",
    "1339": "全国",
    "1340": "观众",
    "1341": "一致",
    "1342": "老是",
    "1343": "一半",
    "1344": "团结",
    "1345": "街道",
    "1346": "一生",
    "1347": "秘密",
    "1348": "感谢",
    "1349": "满",
    "1350": "疼痛",
    "1351": "号",
    "1352": "上午",
    "1353": "字",
    "1354": "他家",
    "1355": "有意思",
    "1356": "明年",
    "1357": "航班",
    "1358": "一共",
    "1359": "晚",
    "1360": "乘客",
    "1361": "香蕉",
    "1362": "住宿",
    "1363": "保暖",
    "1364": "蔬菜",
    "1365": "伟大",
    "1366": "必要",
    "1367": "目前",
    "1368": "手段",
    "1369": "躺",
    "1370": "岗位",
    "1371": "项",
    "1372": "复印件",
    "1373": "小孩",
    "1374": "形势",
    "1375": "缺点",
    "1376": "身边",
    "1377": "办公室",
    "1378": "不得不",
    "1379": "地区",
    "1380": "段",
    "1381": "精力",
    "1382": "利用",
    "1383": "普通",
    "1384": "考验",
    "1385": "死",
    "1386": "放弃",
    "1387": "否则",
    "1388": "抽烟",
    "1389": "考虑",
    "1390": "友谊",
    "1391": "带来",
    "1392": "正式",
    "1393": "动作",
    "1394": "门口",
    "1395": "晚会",
    "1396": "同",
    "1397": "允许",
    "1398": "教师",
    "1399": "和睦",
    "1400": "反映",
    "1401": "下载",
    "1402": "骗",
    "1403": "家庭",
    "1404": "纸",
    "1405": "值得",
    "1406": "报告",
    "1407": "叔叔",
    "1408": "科学技术",
    "1409": "运行",
    "1410": "作用",
    "1411": "米",
    "1412": "自信",
    "1413": "本身",
    "1414": "创业",
    "1415": "发放",
    "1416": "打破",
    "1417": "强烈",
    "1418": "辛苦",
    "1419": "农村",
    "1420": "赚钱",
    "1421": "重新",
    "1422": "定位",
    "1423": "签证",
    "1424": "慢",
    "1425": "快要",
    "1426": "那边",
    "1427": "感",
    "1428": "飞机票",
    "1429": "挺",
    "1430": "刚刚",
    "1431": "风",
    "1432": "咸",
    "1433": "靠近",
    "1434": "选",
    "1435": "出示",
    "1436": "奶茶",
    "1437": "借",
    "1438": "女孩",
    "1439": "果汁",
    "1440": "帽子",
    "1441": "戴",
    "1442": "打电话",
    "1443": "引发",
    "1444": "慢慢",
    "1445": "尽量",
    "1446": "明星",
    "1447": "不足",
    "1448": "深刻",
    "1449": "兴奋",
    "1450": "热情",
    "1451": "善于",
    "1452": "进一步",
    "1453": "高中",
    "1454": "稳定",
    "1455": "养成",
    "1456": "承担",
    "1457": "日常",
    "1458": "时期",
    "1459": "要是",
    "1460": "他俩",
    "1461": "回到",
    "1462": "外国",
    "1463": "来不及",
    "1464": "吸取",
    "1465": "意外",
    "1466": "传统",
    "1467": "印象",
    "1468": "第二",
    "1469": "分为",
    "1470": "礼貌",
    "1471": "消灭",
    "1472": "当年",
    "1473": "勇敢",
    "1474": "立即",
    "1475": "单",
    "1476": "密码",
    "1477": "你家",
    "1478": "多久",
    "1479": "预定",
    "1480": "早就",
    "1481": "取消",
    "1482": "那里",
    "1483": "聊天",
    "1484": "长期",
    "1485": "传播",
    "1486": "关闭",
    "1487": "情感",
    "1488": "行业",
    "1489": "符合",
    "1490": "露出",
    "1491": "目的",
    "1492": "象征",
    "1493": "具有",
    "1494": "音乐",
    "1495": "宝贵",
    "1496": "深",
    "1497": "后果",
    "1498": "掉",
    "1499": "美好",
    "1500": "本来",
    "1501": "道题",
    "1502": "学期",
    "1503": "尝试",
    "1504": "特定",
    "1505": "普及",
    "1506": "装",
    "1507": "勉强",
    "1508": "何必",
    "1509": "小时候",
    "1510": "一部分",
    "1511": "对待",
    "1512": "幅",
    "1513": "得出",
    "1514": "来到",
    "1515": "一大",
    "1516": "拿到",
    "1517": "坚决",
    "1518": "存",
    "1519": "改正",
    "1520": "大学生",
    "1521": "有趣",
    "1522": "装修",
    "1523": "不可",
    "1524": "首先",
    "1525": "中文",
    "1526": "商业",
    "1527": "抢",
    "1528": "几天",
    "1529": "这块",
    "1530": "门",
    "1531": "旧",
    "1532": "报纸",
    "1533": "周末",
    "1534": "有事",
    "1535": "或者",
    "1536": "干净",
    "1537": "定",
    "1538": "倒",
    "1539": "酒店",
    "1540": "打折",
    "1541": "骑",
    "1542": "前面",
    "1543": "陪",
    "1544": "打针",
    "1545": "树立",
    "1546": "提起",
    "1547": "黑夜",
    "1548": "乱",
    "1549": "也许",
    "1550": "开发",
    "1551": "好榜样",
    "1552": "单位",
    "1553": "缠",
    "1554": "够用",
    "1555": "抱",
    "1556": "默默",
    "1557": "英雄",
    "1558": "感染力",
    "1559": "发票",
    "1560": "有时",
    "1561": "分工",
    "1562": "不然",
    "1563": "目光",
    "1564": "地上",
    "1565": "权力",
    "1566": "解放军",
    "1567": "长大",
    "1568": "间",
    "1569": "土地",
    "1570": "留",
    "1571": "接到",
    "1572": "片",
    "1573": "千万",
    "1574": "犯罪",
    "1575": "句子",
    "1576": "争取",
    "1577": "默契",
    "1578": "惹",
    "1579": "一百",
    "1580": "遵守",
    "1581": "假如",
    "1582": "整体",
    "1583": "青年",
    "1584": "代表",
    "1585": "领域",
    "1586": "生意",
    "1587": "观察",
    "1588": "恋爱",
    "1589": "这笔",
    "1590": "外婆",
    "1591": "女性",
    "1592": "增长",
    "1593": "冷静",
    "1594": "压力",
    "1595": "职业",
    "1596": "算",
    "1597": "血压",
    "1598": "饱",
    "1599": "身上",
    "1600": "夹",
    "1601": "抬",
    "1602": "聪明人",
    "1603": "将来",
    "1604": "租金",
    "1605": "翻译",
    "1606": "金钱",
    "1607": "兄弟",
    "1608": "核磁",
    "1609": "含义",
    "1610": "联欢会",
    "1611": "皮肤",
    "1612": "长江",
    "1613": "安全套",
    "1614": "国民党",
    "1615": "晚期",
    "1616": "耳机",
    "1617": "某些",
    "1618": "外卖",
    "1619": "饭馆",
    "1620": "等等",
    "1621": "半",
    "1622": "放在",
    "1623": "同一个",
    "1624": "见面",
    "1625": "穿着",
    "1626": "课程",
    "1627": "窗户",
    "1628": "干燥",
    "1629": "按",
    "1630": "形象",
    "1631": "多种",
    "1632": "采取",
    "1633": "掌握",
    "1634": "读者",
    "1635": "俩",
    "1636": "开放",
    "1637": "克服",
    "1638": "坏事",
    "1639": "老鼠",
    "1640": "欺骗",
    "1641": "勤俭节约",
    "1642": "打击",
    "1643": "全面",
    "1644": "维护",
    "1645": "自从",
    "1646": "肯",
    "1647": "毛病",
    "1648": "上个月",
    "1649": "便利",
    "1650": "寄",
    "1651": "实验",
    "1652": "效果",
    "1653": "区别",
    "1654": "调整",
    "1655": "小偷",
    "1656": "头",
    "1657": "毛",
    "1658": "可惜",
    "1659": "食品",
    "1660": "毫无",
    "1661": "召开",
    "1662": "骄傲",
    "1663": "不住",
    "1664": "费用",
    "1665": "中心",
    "1666": "珍惜",
    "1667": "花费",
    "1668": "之外",
    "1669": "同时",
    "1670": "发挥",
    "1671": "专门",
    "1672": "日子",
    "1673": "日本",
    "1674": "真实",
    "1675": "光",
    "1676": "痛苦",
    "1677": "仿佛",
    "1678": "指",
    "1679": "教导",
    "1680": "偷偷",
    "1681": "忍受",
    "1682": "节日",
    "1683": "游客",
    "1684": "上面",
    "1685": "收",
    "1686": "卧铺",
    "1687": "餐",
    "1688": "点餐",
    "1689": "睡眠",
    "1690": "大部分",
    "1691": "在场",
    "1692": "变成",
    "1693": "赢得",
    "1694": "种类",
    "1695": "令行禁止",
    "1696": "驾驶",
    "1697": "广泛",
    "1698": "目标",
    "1699": "方案",
    "1700": "常",
    "1701": "特殊",
    "1702": "缺",
    "1703": "交往",
    "1704": "表达",
    "1705": "哦",
    "1706": "调查",
    "1707": "印",
    "1708": "出行",
    "1709": "住院",
    "1710": "每月",
    "1711": "大量",
    "1712": "悄悄",
    "1713": "五十",
    "1714": "体育",
    "1715": "今晚",
    "1716": "精致",
    "1717": "耐心",
    "1718": "从事",
    "1719": "杂志",
    "1720": "肚子",
    "1721": "格外",
    "1722": "主意",
    "1723": "矛盾",
    "1724": "博物馆",
    "1725": "青年人",
    "1726": "有关",
    "1727": "负担",
    "1728": "表面",
    "1729": "之一",
    "1730": "年代",
    "1731": "当场",
    "1732": "天生",
    "1733": "症状",
    "1734": "报复",
    "1735": "小狗",
    "1736": "下面",
    "1737": "发送",
    "1738": "近",
    "1739": "帮忙",
    "1740": "呀",
    "1741": "块",
    "1742": "爱好",
    "1743": "站台",
    "1744": "主食",
    "1745": "重",
    "1746": "补办",
    "1747": "新来",
    "1748": "钓鱼",
    "1749": "不如",
    "1750": "蓝色",
    "1751": "黑色",
    "1752": "过于",
    "1753": "星星",
    "1754": "灯",
    "1755": "急性",
    "1756": "患",
    "1757": "提升",
    "1758": "车流量",
    "1759": "似乎",
    "1760": "以身作则",
    "1761": "智慧",
    "1762": "医疗",
    "1763": "伤员",
    "1764": "优点",
    "1765": "羡慕",
    "1766": "维修",
    "1767": "回答",
    "1768": "脸上",
    "1769": "充满",
    "1770": "内心",
    "1771": "观念",
    "1772": "规律",
    "1773": "大地",
    "1774": "究竟",
    "1775": "准确",
    "1776": "一辈子",
    "1777": "情节",
    "1778": "人家",
    "1779": "神经",
    "1780": "走路",
    "1781": "想象",
    "1782": "企业家",
    "1783": "并且",
    "1784": "职责",
    "1785": "机构",
    "1786": "水资源",
    "1787": "富裕",
    "1788": "虚假",
    "1789": "校",
    "1790": "信",
    "1791": "计较",
    "1792": "撞",
    "1793": "一向",
    "1794": "共同",
    "1795": "经",
    "1796": "多么",
    "1797": "外地",
    "1798": "款",
    "1799": "脸色",
    "1800": "早晨",
    "1801": "头脑",
    "1802": "考",
    "1803": "队员",
    "1804": "气氛",
    "1805": "贫穷",
    "1806": "试卷",
    "1807": "多种多样",
    "1808": "书面",
    "1809": "一再",
    "1810": "工程",
    "1811": "未",
    "1812": "请求",
    "1813": "批准",
    "1814": "针对",
    "1815": "提出",
    "1816": "美的",
    "1817": "在于",
    "1818": "实践",
    "1819": "送到",
    "1820": "用于",
    "1821": "业务",
    "1822": "尽快",
    "1823": "现实",
    "1824": "车票",
    "1825": "发来",
    "1826": "病情",
    "1827": "天上",
    "1828": "包",
    "1829": "八",
    "1830": "填",
    "1831": "负责人",
    "1832": "细致",
    "1833": "顺利",
    "1834": "小学",
    "1835": "大力",
    "1836": "物价",
    "1837": "接近",
    "1838": "电梯",
    "1839": "自由",
    "1840": "盲目",
    "1841": "摔倒",
    "1842": "承包商",
    "1843": "争相",
    "1844": "恐惧",
    "1845": "外",
    "1846": "妥善",
    "1847": "极了",
    "1848": "古人",
    "1849": "登记表",
    "1850": "厉害",
    "1851": "喧哗",
    "1852": "雪白",
    "1853": "童年",
    "1854": "想起",
    "1855": "报道",
    "1856": "做成",
    "1857": "爱上",
    "1858": "差点",
    "1859": "男孩",
    "1860": "边",
    "1861": "饭菜",
    "1862": "照亮",
    "1863": "满足",
    "1864": "发言",
    "1865": "逛",
    "1866": "笨",
    "1867": "自拍照",
    "1868": "活跃",
    "1869": "图片",
    "1870": "划算",
    "1871": "配",
    "1872": "带领",
    "1873": "长辈",
    "1874": "选举",
    "1875": "规则",
    "1876": "买卖",
    "1877": "火灾",
    "1878": "难关",
    "1879": "律师",
    "1880": "大桥",
    "1881": "泡脚",
    "1882": "影子",
    "1883": "领导人",
    "1884": "信用卡",
    "1885": "惊讶",
    "1886": "麦当劳",
    "1887": "普通话",
    "1888": "嫉妒",
    "1889": "诊断",
    "1890": "著名",
    "1891": "黑暗",
    "1892": "在内",
    "1893": "模特",
    "1894": "基金会",
    "1895": "打招呼",
    "1896": "和平",
    "1897": "吵架",
    "1898": "块钱",
    "1899": "左边",
    "1900": "别的",
    "1901": "桌上",
    "1902": "春天",
    "1903": "觉",
    "1904": "不仅",
    "1905": "座位",
    "1906": "推荐",
    "1907": "约",
    "1908": "结账",
    "1909": "支",
    "1910": "红灯",
    "1911": "汤",
    "1912": "甜食",
    "1913": "战胜",
    "1914": "措施",
    "1915": "职工",
    "1916": "需求",
    "1917": "善良",
    "1918": "感情",
    "1919": "不知",
    "1920": "岩石",
    "1921": "攻击",
    "1922": "脸红",
    "1923": "讲课",
    "1924": "污染",
    "1925": "生",
    "1926": "曾经",
    "1927": "踏实",
    "1928": "共",
    "1929": "对手",
    "1930": "自觉",
    "1931": "记录",
    "1932": "宣布",
    "1933": "本人",
    "1934": "课堂",
    "1935": "不久",
    "1936": "做法",
    "1937": "比起",
    "1938": "贵重",
    "1939": "体检",
    "1940": "关注",
    "1941": "餐厅",
    "1942": "理论",
    "1943": "同样",
    "1944": "详细",
    "1945": "停",
    "1946": "供",
    "1947": "激烈",
    "1948": "展示",
    "1949": "风格",
    "1950": "控制",
    "1951": "观点",
    "1952": "一会",
    "1953": "地震",
    "1954": "纷纷",
    "1955": "吵",
    "1956": "大事",
    "1957": "人工",
    "1958": "近年来",
    "1959": "听话",
    "1960": "主席",
    "1961": "愿",
    "1962": "干什么",
    "1963": "服用",
    "1964": "品质",
    "1965": "旅客",
    "1966": "交警",
    "1967": "数量",
    "1968": "出色",
    "1969": "现象",
    "1970": "爬",
    "1971": "树",
    "1972": "随时",
    "1973": "客观",
    "1974": "科学",
    "1975": "补救",
    "1976": "它们",
    "1977": "财产",
    "1978": "涨跌",
    "1979": "屋里",
    "1980": "洪水",
    "1981": "法官",
    "1982": "保养",
    "1983": "拍",
    "1984": "学费",
    "1985": "工具",
    "1986": "一日",
    "1987": "后面",
    "1988": "不冷不热",
    "1989": "上来",
    "1990": "几乎",
    "1991": "斤",
    "1992": "安检",
    "1993": "付钱",
    "1994": "挑选",
    "1995": "房",
    "1996": "候车厅",
    "1997": "赶上",
    "1998": "肉",
    "1999": "换",
    "2000": "女",
    "2001": "完善",
    "2002": "设置",
    "2003": "作出",
    "2004": "全班",
    "2005": "赔偿",
    "2006": "好像",
    "2007": "建立",
    "2008": "师傅",
    "2009": "成长",
    "2010": "大大",
    "2011": "非",
    "2012": "有利于",
    "2013": "手续费",
    "2014": "队伍",
    "2015": "脆弱",
    "2016": "再三",
    "2017": "谎言",
    "2018": "浪费",
    "2019": "不许",
    "2020": "合理",
    "2021": "分配",
    "2022": "军",
    "2023": "友爱",
    "2024": "流行性",
    "2025": "所有人",
    "2026": "怪",
    "2027": "年纪",
    "2028": "实际",
    "2029": "钻研",
    "2030": "开工",
    "2031": "评价",
    "2032": "期待",
    "2033": "举行",
    "2034": "前进",
    "2035": "力气",
    "2036": "运气",
    "2037": "说谎",
    "2038": "数学",
    "2039": "文件",
    "2040": "无聊",
    "2041": "正常",
    "2042": "想想",
    "2043": "思路",
    "2044": "没用",
    "2045": "行驶",
    "2046": "经历",
    "2047": "眼神",
    "2048": "资格",
    "2049": "婚礼",
    "2050": "适当",
    "2051": "看起来",
    "2052": "伤心",
    "2053": "开除",
    "2054": "谦虚",
    "2055": "用功",
    "2056": "山区",
    "2057": "忙碌",
    "2058": "血",
    "2059": "责任",
    "2060": "发布",
    "2061": "姓名",
    "2062": "九",
    "2063": "给予",
    "2064": "做到",
    "2065": "接下来",
    "2066": "文字",
    "2067": "倒闭",
    "2068": "群",
    "2069": "而言",
    "2070": "承诺",
    "2071": "集体",
    "2072": "高速",
    "2073": "没收",
    "2074": "因素",
    "2075": "疼",
    "2076": "招聘",
    "2077": "成像",
    "2078": "申办",
    "2079": "幽默",
    "2080": "敏感",
    "2081": "灰心",
    "2082": "倾诉",
    "2083": "几月",
    "2084": "星期六",
    "2085": "十点",
    "2086": "几点",
    "2087": "到家",
    "2088": "六点",
    "2089": "门外",
    "2090": "早起",
    "2091": "电影票",
    "2092": "南方",
    "2093": "当然",
    "2094": "假",
    "2095": "洗手间",
    "2096": "对面",
    "2097": "机票",
    "2098": "祝",
    "2099": "托运",
    "2100": "牛肉",
    "2101": "带伞",
    "2102": "老年人",
    "2103": "喊",
    "2104": "黄色",
    "2105": "去世",
    "2106": "斗争",
    "2107": "程度",
    "2108": "恐慌",
    "2109": "般",
    "2110": "握手",
    "2111": "最佳",
    "2112": "夜晚",
    "2113": "始终",
    "2114": "早早",
    "2115": "低头",
    "2116": "闯",
    "2117": "饮食",
    "2118": "类",
    "2119": "连接",
    "2120": "资源",
    "2121": "移动",
    "2122": "人流量",
    "2123": "构成",
    "2124": "话费",
    "2125": "时代",
    "2126": "跳动",
    "2127": "量",
    "2128": "相对",
    "2129": "在外",
    "2130": "来自",
    "2131": "与其",
    "2132": "创造",
    "2133": "人身",
    "2134": "事迹",
    "2135": "一代",
    "2136": "伤口",
    "2137": "激情",
    "2138": "开心",
    "2139": "厂",
    "2140": "改",
    "2141": "适应",
    "2142": "粮食",
    "2143": "夸大",
    "2144": "足够",
    "2145": "贴",
    "2146": "那段",
    "2147": "记忆",
    "2148": "实在",
    "2149": "存款",
    "2150": "中奖",
    "2151": "体质",
    "2152": "人群",
    "2153": "逃跑",
    "2154": "演出",
    "2155": "眼泪",
    "2156": "春游",
    "2157": "听讲",
    "2158": "然而",
    "2159": "生物",
    "2160": "好事",
    "2161": "严明",
    "2162": "能源",
    "2163": "早已",
    "2164": "诱惑",
    "2165": "推敲",
    "2166": "场所",
    "2167": "主张",
    "2168": "播放",
    "2169": "半点",
    "2170": "差错",
    "2171": "即将",
    "2172": "提醒",
    "2173": "老公",
    "2174": "嫖娼",
    "2175": "难怪",
    "2176": "紧密",
    "2177": "加强",
    "2178": "各地",
    "2179": "广大",
    "2180": "名单",
    "2181": "中学",
    "2182": "答应",
    "2183": "好友",
    "2184": "生存",
    "2185": "扑灭",
    "2186": "唱歌",
    "2187": "汗水",
    "2188": "赢",
    "2189": "一唱一和",
    "2190": "弱小",
    "2191": "愤怒",
    "2192": "用户",
    "2193": "准许",
    "2194": "机遇",
    "2195": "疲劳",
    "2196": "护理",
    "2197": "室",
    "2198": "小路",
    "2199": "一带",
    "2200": "地形",
    "2201": "口味",
    "2202": "渐渐",
    "2203": "团队",
    "2204": "薪水",
    "2205": "提倡",
    "2206": "口头",
    "2207": "列车",
    "2208": "保存",
    "2209": "采访",
    "2210": "扫描",
    "2211": "图案",
    "2212": "发明",
    "2213": "刷",
    "2214": "往",
    "2215": "隔",
    "2216": "还好",
    "2217": "海边",
    "2218": "风景",
    "2219": "热水",
    "2220": "结合",
    "2221": "贫困",
    "2222": "力度",
    "2223": "职务",
    "2224": "立刻",
    "2225": "报",
    "2226": "桌",
    "2227": "咱们",
    "2228": "命运",
    "2229": "打碎",
    "2230": "调试",
    "2231": "据说",
    "2232": "发表",
    "2233": "居然",
    "2234": "享受",
    "2235": "充足",
    "2236": "创作",
    "2237": "电视台",
    "2238": "呆",
    "2239": "查",
    "2240": "意义",
    "2241": "处在",
    "2242": "赌博",
    "2243": "美妙",
    "2244": "到底",
    "2245": "伤害",
    "2246": "汇报",
    "2247": "参观",
    "2248": "图书",
    "2249": "公布",
    "2250": "红",
    "2251": "老奶奶",
    "2252": "区分",
    "2253": "体会",
    "2254": "持续",
    "2255": "搬",
    "2256": "歹徒",
    "2257": "部队",
    "2258": "几年",
    "2259": "外表",
    "2260": "强迫",
    "2261": "选手",
    "2262": "五千",
    "2263": "五百",
    "2264": "五百万",
    "2265": "以上",
    "2266": "总经理",
    "2267": "抽",
    "2268": "不顾",
    "2269": "收获",
    "2270": "万",
    "2271": "数",
    "2272": "当初",
    "2273": "包办",
    "2274": "亲密",
    "2275": "七",
    "2276": "月球",
    "2277": "卫星",
    "2278": "早期",
    "2279": "安安静静",
    "2280": "呼吸",
    "2281": "轮",
    "2282": "严厉",
    "2283": "打交道",
    "2284": "中餐",
    "2285": "人口",
    "2286": "偷",
    "2287": "名牌",
    "2288": "好心人",
    "2289": "聪明才智",
    "2290": "勤奋",
    "2291": "一百万",
    "2292": "讲述",
    "2293": "秒",
    "2294": "双手",
    "2295": "天黑",
    "2296": "滴水",
    "2297": "温暖",
    "2298": "洋娃娃",
    "2299": "这点",
    "2300": "微笑",
    "2301": "小品",
    "2302": "生来",
    "2303": "必定",
    "2304": "人才",
    "2305": "遭到",
    "2306": "看不起",
    "2307": "大型",
    "2308": "警方",
    "2309": "无线",
    "2310": "基础",
    "2311": "事件",
    "2312": "做人",
    "2313": "书皮",
    "2314": "十一",
    "2315": "偏偏",
    "2316": "心中",
    "2317": "车子",
    "2318": "舍不得",
    "2319": "退",
    "2320": "红领巾",
    "2321": "加入",
    "2322": "惩罚",
    "2323": "突出",
    "2324": "竞选",
    "2325": "处",
    "2326": "大脑",
    "2327": "题目",
    "2328": "代理",
    "2329": "通宵",
    "2330": "包裹",
    "2331": "卫生",
    "2332": "坏人",
    "2333": "市中心",
    "2334": "郊区",
    "2335": "头发",
    "2336": "托",
    "2337": "循环",
    "2338": "舅舅",
    "2339": "能否",
    "2340": "新加坡",
    "2341": "人士",
    "2342": "做爱",
    "2343": "叫做",
    "2344": "邀请",
    "2345": "警惕",
    "2346": "领事馆",
    "2347": "公路",
    "2348": "高峰",
    "2349": "一个个",
    "2350": "灰尘",
    "2351": "腿",
    "2352": "外强中干",
    "2353": "敢于",
    "2354": "保管",
    "2355": "死亡",
    "2356": "免疫力",
    "2357": "膝盖",
    "2358": "违反",
    "2359": "紧握",
    "2360": "蚊子",
    "2361": "人格",
    "2362": "泄露",
    "2363": "宗教",
    "2364": "记者",
    "2365": "尴尬",
    "2366": "残疾人",
    "2367": "有点儿",
    "2368": "怎么办",
    "2369": "走走",
    "2370": "季节",
    "2371": "渴",
    "2372": "不好",
    "2373": "进去",
    "2374": "亮",
    "2375": "放进",
    "2376": "地下",
    "2377": "实现",
    "2378": "候车室",
    "2379": "春运",
    "2380": "身份",
    "2381": "其中",
    "2382": "不已",
    "2383": "人为",
    "2384": "机",
    "2385": "更新换代",
    "2386": "统一",
    "2387": "奉献",
    "2388": "相比",
    "2389": "一番",
    "2390": "维持",
    "2391": "风险",
    "2392": "交",
    "2393": "每当",
    "2394": "密切",
    "2395": "一旦",
    "2396": "前后",
    "2397": "尽力",
    "2398": "部门",
    "2399": "果然",
    "2400": "丝毫",
    "2401": "看来",
    "2402": "怎样",
    "2403": "揭晓",
    "2404": "分数",
    "2405": "旅馆",
    "2406": "分子",
    "2407": "苍白",
    "2408": "题",
    "2409": "挫折",
    "2410": "消费",
    "2411": "教材",
    "2412": "陌生",
    "2413": "情人节",
    "2414": "那天",
    "2415": "面试",
    "2416": "祝福",
    "2417": "陌生人",
    "2418": "优质",
    "2419": "街上",
    "2420": "设施",
    "2421": "二",
    "2422": "早餐",
    "2423": "修改",
    "2424": "领",
    "2425": "偶尔",
    "2426": "相似",
    "2427": "自带",
    "2428": "艺术家",
    "2429": "熟人",
    "2430": "胡乱",
    "2431": "糟糕",
    "2432": "阿姨",
    "2433": "小区",
    "2434": "玩耍",
    "2435": "气",
    "2436": "等候",
    "2437": "明明",
    "2438": "什么样",
    "2439": "整理",
    "2440": "刻苦",
    "2441": "那样",
    "2442": "性",
    "2443": "学科",
    "2444": "服从",
    "2445": "奢侈",
    "2446": "碰到",
    "2447": "绝不",
    "2448": "勇气",
    "2449": "跳",
    "2450": "来往",
    "2451": "沉迷于",
    "2452": "做错",
    "2453": "下次",
    "2454": "身",
    "2455": "两边",
    "2456": "妇女",
    "2457": "好处",
    "2458": "撒谎",
    "2459": "递给",
    "2460": "恶劣",
    "2461": "情侣",
    "2462": "材料",
    "2463": "单调",
    "2464": "养",
    "2465": "描述",
    "2466": "抢救",
    "2467": "到达",
    "2468": "半天",
    "2469": "签",
    "2470": "形成",
    "2471": "地点",
    "2472": "邻居",
    "2473": "封",
    "2474": "学院",
    "2475": "决心",
    "2476": "一时",
    "2477": "工程师",
    "2478": "当前",
    "2479": "正是",
    "2480": "逼",
    "2481": "小学生",
    "2482": "追",
    "2483": "无线电",
    "2484": "心灵",
    "2485": "大自然",
    "2486": "大海",
    "2487": "旅途",
    "2488": "球迷",
    "2489": "魔术",
    "2490": "共有",
    "2491": "中华",
    "2492": "哪些",
    "2493": "打工",
    "2494": "差异",
    "2495": "条例",
    "2496": "发行",
    "2497": "降低",
    "2498": "成像仪",
    "2499": "预约",
    "2500": "专业",
    "2501": "统计",
    "2502": "志愿者",
    "2503": "打架",
    "2504": "五星级",
    "2505": "科学家",
    "2506": "晚点",
    "2507": "镜子",
    "2508": "牺牲",
    "2509": "开学",
    "2510": "伯伯",
    "2511": "急诊",
    "2512": "鲁迅",
    "2513": "牛",
    "2514": "六",
    "2515": "行李",
    "2516": "买单",
    "2517": "意识",
    "2518": "潜伏期",
    "2519": "拼搏",
    "2520": "法",
    "2521": "脱离",
    "2522": "变迁",
    "2523": "式",
    "2524": "期末",
    "2525": "罪犯",
    "2526": "距离",
    "2527": "青春",
    "2528": "人品",
    "2529": "如饥似渴",
    "2530": "下降",
    "2531": "激动",
    "2532": "前来",
    "2533": "犹豫",
    "2534": "队",
    "2535": "试验",
    "2536": "收取",
    "2537": "货物",
    "2538": "贡献",
    "2539": "受骗",
    "2540": "上当",
    "2541": "全厂",
    "2542": "操作",
    "2543": "付款",
    "2544": "待",
    "2545": "讨厌",
    "2546": "异常",
    "2547": "千篇一律",
    "2548": "显得",
    "2549": "上去",
    "2550": "猜",
    "2551": "施工",
    "2552": "高楼",
    "2553": "大厦",
    "2554": "轻轻",
    "2555": "危机",
    "2556": "财富",
    "2557": "重大",
    "2558": "犯错",
    "2559": "表扬",
    "2560": "醒来",
    "2561": "持",
    "2562": "倾听",
    "2563": "各个",
    "2564": "作废",
    "2565": "不幸",
    "2566": "聊",
    "2567": "打动",
    "2568": "赶到",
    "2569": "保证",
    "2570": "子女",
    "2571": "分手",
    "2572": "具体",
    "2573": "航空",
    "2574": "转让",
    "2575": "开销",
    "2576": "有力",
    "2577": "最为",
    "2578": "适龄",
    "2579": "迅速",
    "2580": "四处",
    "2581": "延续",
    "2582": "慰问",
    "2583": "画画",
    "2584": "加以",
    "2585": "常用",
    "2586": "流泪",
    "2587": "系列",
    "2588": "炒股",
    "2589": "成本",
    "2590": "捐",
    "2591": "线路",
    "2592": "群里",
    "2593": "保修",
    "2594": "外界",
    "2595": "发热",
    "2596": "合适",
    "2597": "股民",
    "2598": "对此",
    "2599": "金",
    "2600": "上市",
    "2601": "抢修",
    "2602": "严重性",
    "2603": "商场",
    "2604": "寻常",
    "2605": "则",
    "2606": "栏",
    "2607": "电",
    "2608": "共振",
    "2609": "仪",
    "2610": "压岁钱",
    "2611": "过节",
    "2612": "注重",
    "2613": "即便",
    "2614": "点滴",
    "2615": "攻克",
    "2616": "大胆",
    "2617": "见义勇为",
    "2618": "义务",
    "2619": "骗子",
    "2620": "内在",
    "2621": "减轻",
    "2622": "包庇",
    "2623": "迷信",
    "2624": "想念",
    "2625": "十月",
    "2626": "几日",
    "2627": "六月",
    "2628": "五点",
    "2629": "星期五",
    "2630": "九月",
    "2631": "两天",
    "2632": "外边",
    "2633": "点儿",
    "2634": "北方",
    "2635": "三年",
    "2636": "后来",
    "2637": "到时候",
    "2638": "有名",
    "2639": "以外",
    "2640": "花钱",
    "2641": "延误",
    "2642": "试试",
    "2643": "赶",
    "2644": "堵",
    "2645": "取票",
    "2646": "暖和",
    "2647": "取款",
    "2648": "红绿灯",
    "2649": "挂号",
    "2650": "回复",
    "2651": "用来",
    "2652": "步行",
    "2653": "崩溃",
    "2654": "信心",
    "2655": "谈虎色变",
    "2656": "依据",
    "2657": "奇迹",
    "2658": "治愈",
    "2659": "防范",
    "2660": "开展",
    "2661": "可怕",
    "2662": "平均",
    "2663": "时机",
    "2664": "床上",
    "2665": "翻来覆去",
    "2666": "犯困",
    "2667": "穿过",
    "2668": "心胸",
    "2669": "开阔",
    "2670": "无穷",
    "2671": "革命",
    "2672": "原理",
    "2673": "协议",
    "2674": "逐步",
    "2675": "功耗",
    "2676": "消耗",
    "2677": "必需",
    "2678": "套餐",
    "2679": "偏",
    "2680": "值",
    "2681": "赶紧",
    "2682": "体温",
    "2683": "复印机",
    "2684": "此",
    "2685": "落泪",
    "2686": "情",
    "2687": "首",
    "2688": "微小",
    "2689": "万分",
    "2690": "不知不觉",
    "2691": "防患未然",
    "2692": "保险金",
    "2693": "止血",
    "2694": "有用",
    "2695": "不停",
    "2696": "病床",
    "2697": "新款",
    "2698": "成年人",
    "2699": "练习",
    "2700": "择偶",
    "2701": "约束",
    "2702": "老张",
    "2703": "辛勤",
    "2704": "坚固",
    "2705": "船",
    "2706": "深深",
    "2707": "一视同仁",
    "2708": "散文",
    "2709": "听众",
    "2710": "不禁",
    "2711": "以便",
    "2712": "计算机",
    "2713": "社会主义",
    "2714": "亦",
    "2715": "彼此",
    "2716": "言归于好",
    "2717": "师生",
    "2718": "国",
    "2719": "交换",
    "2720": "桥梁",
    "2721": "以往",
    "2722": "难度",
    "2723": "缩小",
    "2724": "未卜先知",
    "2725": "剧本",
    "2726": "制度",
    "2727": "储蓄",
    "2728": "申请表",
    "2729": "核对",
    "2730": "包含",
    "2731": "记名",
    "2732": "有病",
    "2733": "某",
    "2734": "草木皆兵",
    "2735": "惊险",
    "2736": "责备",
    "2737": "人间",
    "2738": "经营",
    "2739": "联合",
    "2740": "作战",
    "2741": "大扫除",
    "2742": "宁可",
    "2743": "女王",
    "2744": "涣散",
    "2745": "胜利",
    "2746": "过分",
    "2747": "机关",
    "2748": "处事",
    "2749": "十全十美",
    "2750": "风力",
    "2751": "发电",
    "2752": "用水",
    "2753": "讲求",
    "2754": "整天",
    "2755": "虚伪",
    "2756": "身子",
    "2757": "烟花",
    "2758": "一贯",
    "2759": "言行",
    "2760": "军队",
    "2761": "民众",
    "2762": "行车",
    "2763": "吸烟",
    "2764": "善意",
    "2765": "竟然",
    "2766": "得失",
    "2767": "跃跃欲试",
    "2768": "雨季",
    "2769": "防洪",
    "2770": "生涯",
    "2771": "酒后",
    "2772": "违章",
    "2773": "罚款",
    "2774": "甚至",
    "2775": "力不从心",
    "2776": "须",
    "2777": "老王",
    "2778": "不料",
    "2779": "眼前",
    "2780": "盼望",
    "2781": "平等",
    "2782": "相爱",
    "2783": "信赖",
    "2784": "联络",
    "2785": "近来",
    "2786": "乔装",
    "2787": "设法",
    "2788": "便捷",
    "2789": "新近",
    "2790": "流行歌曲",
    "2791": "罪魁祸首",
    "2792": "本科",
    "2793": "考核",
    "2794": "清华",
    "2795": "前途",
    "2796": "菲",
    "2797": "烦恼",
    "2798": "观光",
    "2799": "暑期",
    "2800": "万一",
    "2801": "遇",
    "2802": "泰山",
    "2803": "火",
    "2804": "鸟",
    "2805": "给出",
    "2806": "出丑",
    "2807": "罢了",
    "2808": "作家",
    "2809": "手法",
    "2810": "全体",
    "2811": "秩序井然",
    "2812": "络绎不绝",
    "2813": "上车",
    "2814": "拥挤",
    "2815": "男子",
    "2816": "足球赛",
    "2817": "紧急",
    "2818": "调动",
    "2819": "和谐",
    "2820": "固执",
    "2821": "相当",
    "2822": "低年级",
    "2823": "落后",
    "2824": "无缘无故",
    "2825": "小朋友",
    "2826": "仗",
    "2827": "围观",
    "2828": "支票",
    "2829": "盖章",
    "2830": "金额",
    "2831": "退回",
    "2832": "申报",
    "2833": "认可",
    "2834": "审题",
    "2835": "试题",
    "2836": "带薪",
    "2837": "吸引力",
    "2838": "看似",
    "2839": "食粮",
    "2840": "算是",
    "2841": "欢乐",
    "2842": "雪",
    "2843": "独特",
    "2844": "上次",
    "2845": "输液瓶",
    "2846": "输液泵",
    "2847": "验证",
    "2848": "大都",
    "2849": "输液器",
    "2850": "登山",
    "2851": "面孔",
    "2852": "可取",
    "2853": "适度",
    "2854": "字典",
    "2855": "全年",
    "2856": "夜以继日",
    "2857": "特效",
    "2858": "票价",
    "2859": "动",
    "2860": "取代",
    "2861": "发给",
    "2862": "好运",
    "2863": "新增",
    "2864": "投影仪",
    "2865": "讲座",
    "2866": "现金",
    "2867": "扫",
    "2868": "失效",
    "2869": "了不起",
    "2870": "漏洞",
    "2871": "残忍",
    "2872": "抽查",
    "2873": "庆祝",
    "2874": "十五",
    "2875": "曾",
    "2876": "面部",
    "2877": "浮现",
    "2878": "搞笑",
    "2879": "富有",
    "2880": "回老家",
    "2881": "度过",
    "2882": "艰难",
    "2883": "削减",
    "2884": "加上",
    "2885": "随意",
    "2886": "来得及",
    "2887": "处分",
    "2888": "店名",
    "2889": "八宝",
    "2890": "粥",
    "2891": "奶奶家",
    "2892": "忘带",
    "2893": "有的是",
    "2894": "养育",
    "2895": "嘴",
    "2896": "公平",
    "2897": "一等奖",
    "2898": "二等奖",
    "2899": "晕",
    "2900": "至少",
    "2901": "交易",
    "2902": "灵活",
    "2903": "属于",
    "2904": "中国队",
    "2905": "现场",
    "2906": "半路",
    "2907": "个性",
    "2908": "过度",
    "2909": "翻脸不认人",
    "2910": "孕妇",
    "2911": "看望",
    "2912": "财政",
    "2913": "堆",
    "2914": "编",
    "2915": "床",
    "2916": "快捷",
    "2917": "面",
    "2918": "透露",
    "2919": "谈话",
    "2920": "看法",
    "2921": "说来",
    "2922": "风气",
    "2923": "颠覆",
    "2924": "听懂",
    "2925": "意思",
    "2926": "谢",
    "2927": "独立",
    "2928": "差距",
    "2929": "不得",
    "2930": "家乡",
    "2931": "专心",
    "2932": "拖延",
    "2933": "决不",
    "2934": "只顾",
    "2935": "瞎",
    "2936": "余额",
    "2937": "以下",
    "2938": "空",
    "2939": "栋",
    "2940": "大楼",
    "2941": "人次",
    "2942": "同行",
    "2943": "欣赏",
    "2944": "好学",
    "2945": "早出晚归",
    "2946": "标",
    "2947": "签订",
    "2948": "实行",
    "2949": "警官",
    "2950": "一味",
    "2951": "外国人",
    "2952": "大失所望",
    "2953": "关键",
    "2954": "空腹",
    "2955": "扎破",
    "2956": "入职",
    "2957": "托付",
    "2958": "大爷",
    "2959": "出租屋",
    "2960": "孤单",
    "2961": "载",
    "2962": "起步价",
    "2963": "租车",
    "2964": "家务",
    "2965": "医术",
    "2966": "灾难",
    "2967": "邻里",
    "2968": "安定",
    "2969": "批",
    "2970": "养家",
    "2971": "无比",
    "2972": "助学",
    "2973": "富人",
    "2974": "供应",
    "2975": "传来",
    "2976": "一如既往",
    "2977": "摔跤",
    "2978": "口语",
    "2979": "出事",
    "2980": "如此",
    "2981": "带有",
    "2982": "整个",
    "2983": "当地",
    "2984": "全家人",
    "2985": "政策",
    "2986": "艰苦",
    "2987": "车辆",
    "2988": "骂",
    "2989": "见到",
    "2990": "文明",
    "2991": "两旁",
    "2992": "小花",
    "2993": "金黄",
    "2994": "银白",
    "2995": "挂",
    "2996": "三大",
    "2997": "喝足",
    "2998": "逼迫",
    "2999": "儿童",
    "3000": "入学",
    "3001": "依法",
    "3002": "条理",
    "3003": "考好",
    "3004": "愿望",
    "3005": "铺",
    "3006": "店铺",
    "3007": "回忆",
    "3008": "鸟儿",
    "3009": "狠狠",
    "3010": "一万",
    "3011": "轻松",
    "3012": "放到",
    "3013": "决",
    "3014": "不好意思",
    "3015": "神情",
    "3016": "诚实",
    "3017": "股市",
    "3018": "面积",
    "3019": "石榴",
    "3020": "交谈",
    "3021": "背",
    "3022": "另外",
    "3023": "自言自语",
    "3024": "自认倒霉",
    "3025": "度假",
    "3026": "摸",
    "3027": "丰硕",
    "3028": "外观",
    "3029": "热爱",
    "3030": "腼腆",
    "3031": "参与",
    "3032": "现状",
    "3033": "唠叨",
    "3034": "难题",
    "3035": "朵",
    "3036": "整片",
    "3037": "牌子",
    "3038": "幼儿园",
    "3039": "时光",
    "3040": "床头",
    "3041": "涨",
    "3042": "在世",
    "3043": "过日子",
    "3044": "盏",
    "3045": "解说",
    "3046": "下方",
    "3047": "一草一木",
    "3048": "乡",
    "3049": "亲切感",
    "3050": "倍感",
    "3051": "受灾",
    "3052": "班主任",
    "3053": "温柔",
    "3054": "观看",
    "3055": "喝彩",
    "3056": "提心吊胆",
    "3057": "摔",
    "3058": "叫好",
    "3059": "联欢",
    "3060": "戏",
    "3061": "好奇心",
    "3062": "众所周知",
    "3063": "除",
    "3064": "不论",
    "3065": "忽视",
    "3066": "知足",
    "3067": "无可",
    "3068": "故意",
    "3069": "风吹草动",
    "3070": "经不起",
    "3071": "笑话",
    "3072": "力",
    "3073": "动不动",
    "3074": "提问",
    "3075": "自始至终",
    "3076": "融洽",
    "3077": "心直口快",
    "3078": "和睦相处",
    "3079": "摸鱼",
    "3080": "理性",
    "3081": "思维",
    "3082": "要么",
    "3083": "胖子",
    "3084": "本领",
    "3085": "错怪",
    "3086": "记事",
    "3087": "坏话",
    "3088": "作弊者",
    "3089": "经典",
    "3090": "全都",
    "3091": "生前",
    "3092": "班会",
    "3093": "组成部分",
    "3094": "真相",
    "3095": "书籍",
    "3096": "前人",
    "3097": "创新",
    "3098": "字幕组",
    "3099": "乡村",
    "3100": "西",
    "3101": "自拍杆",
    "3102": "崇高",
    "3103": "道具",
    "3104": "真理",
    "3105": "大钱",
    "3106": "面子",
    "3107": "过世",
    "3108": "三百",
    "3109": "完美",
    "3110": "啦",
    "3111": "啥",
    "3112": "诚意",
    "3113": "情愿",
    "3114": "公开",
    "3115": "记住",
    "3116": "抓紧",
    "3117": "秩序",
    "3118": "素材",
    "3119": "宝宝",
    "3120": "留学",
    "3121": "养家糊口",
    "3122": "离职",
    "3123": "吉利",
    "3124": "助理",
    "3125": "发到",
    "3126": "拜访",
    "3127": "国庆节",
    "3128": "男",
    "3129": "一元",
    "3130": "爱好者",
    "3131": "姐妹",
    "3132": "备份",
    "3133": "流水线",
    "3134": "修车",
    "3135": "急招",
    "3136": "熟练",
    "3137": "攒钱",
    "3138": "表弟",
    "3139": "表姐",
    "3140": "上门",
    "3141": "热闹",
    "3142": "自称",
    "3143": "申请书",
    "3144": "家园",
    "3145": "花草",
    "3146": "晚辈",
    "3147": "群体",
    "3148": "总共",
    "3149": "营业",
    "3150": "称为",
    "3151": "写作",
    "3152": "电视机",
    "3153": "担任",
    "3154": "网页",
    "3155": "琳琅满目",
    "3156": "采购",
    "3157": "瓶",
    "3158": "收银员",
    "3159": "换来",
    "3160": "见识",
    "3161": "违背",
    "3162": "跳伞",
    "3163": "出息",
    "3164": "单一",
    "3165": "有钱",
    "3166": "研究生",
    "3167": "假期",
    "3168": "最低",
    "3169": "心态",
    "3170": "概念",
    "3171": "期限",
    "3172": "冲",
    "3173": "农业",
    "3174": "受害者",
    "3175": "鲜花",
    "3176": "招待",
    "3177": "确保",
    "3178": "计算",
    "3179": "适得其反",
    "3180": "训练",
    "3181": "美术",
    "3182": "探索",
    "3183": "编造",
    "3184": "借鉴",
    "3185": "轻视",
    "3186": "取决于",
    "3187": "总统",
    "3188": "分公司",
    "3189": "关",
    "3190": "理会",
    "3191": "执行",
    "3192": "国际",
    "3193": "阑尾",
    "3194": "本月",
    "3195": "放学",
    "3196": "四川",
    "3197": "粗糙",
    "3198": "劳务",
    "3199": "森林",
    "3200": "仇",
    "3201": "谈笑风生",
    "3202": "武汉",
    "3203": "百分之一",
    "3204": "洞",
    "3205": "全家",
    "3206": "白",
    "3207": "动物界",
    "3208": "交代",
    "3209": "百货",
    "3210": "跟着",
    "3211": "旁人",
    "3212": "档案",
    "3213": "氛围",
    "3214": "自动",
    "3215": "扣",
    "3216": "香港",
    "3217": "词",
    "3218": "即",
    "3219": "需求量",
    "3220": "武器",
    "3221": "挑战",
    "3222": "旅游区",
    "3223": "包扎",
    "3224": "医用",
    "3225": "集中营",
    "3226": "小姐",
    "3227": "加油",
    "3228": "朝鲜",
    "3229": "涂",
    "3230": "社区",
    "3231": "跳高",
    "3232": "克制",
    "3233": "好听",
    "3234": "歌曲",
    "3235": "钢琴",
    "3236": "灯塔",
    "3237": "选民",
    "3238": "经商",
    "3239": "口",
    "3240": "洁白",
    "3241": "牙齿",
    "3242": "零食",
    "3243": "美满",
    "3244": "填补",
    "3245": "医护",
    "3246": "救护车",
    "3247": "树上",
    "3248": "糖果",
    "3249": "不时",
    "3250": "她们",
    "3251": "气味",
    "3252": "排除",
    "3253": "定时",
    "3254": "破",
    "3255": "现今",
    "3256": "原件",
    "3257": "彩色",
    "3258": "异想天开",
    "3259": "切",
    "3260": "土豆",
    "3261": "编写",
    "3262": "响",
    "3263": "山",
    "3264": "挤",
    "3265": "年底",
    "3266": "晒",
    "3267": "脚",
    "3268": "文艺",
    "3269": "咬",
    "3270": "自已",
    "3271": "气势汹汹",
    "3272": "一点点",
    "3273": "生效",
    "3274": "引人注目",
    "3275": "长远",
    "3276": "自",
    "3277": "无可奈何",
    "3278": "拨款",
    "3279": "受益",
    "3280": "制定",
    "3281": "双胞胎",
    "3282": "进城",
    "3283": "真心",
    "3284": "强者",
    "3285": "丑",
    "3286": "做生意",
    "3287": "日",
    "3288": "遗传病",
    "3289": "短",
    "3290": "鼠标",
    "3291": "有线",
    "3292": "平静",
    "3293": "号召力",
    "3294": "春回大地",
    "3295": "换卡",
    "3296": "远离",
    "3297": "过敏源",
    "3298": "室外",
    "3299": "同伙",
    "3300": "老虎",
    "3301": "智者",
    "3302": "信仰",
    "3303": "姑娘",
    "3304": "行贿",
    "3305": "戏剧",
    "3306": "美德",
    "3307": "主流",
    "3308": "专家",
    "3309": "汉堡",
    "3310": "环节",
    "3311": "支出",
    "3312": "珍贵",
    "3313": "文化局",
    "3314": "高峰期",
    "3315": "自私自利",
    "3316": "白云",
    "3317": "占",
    "3318": "一家人",
    "3319": "抵挡",
    "3320": "拍照",
    "3321": "摆脱",
    "3322": "回报",
    "3323": "做梦",
    "3324": "推迟",
    "3325": "劝",
    "3326": "建筑物",
    "3327": "蛋黄",
    "3328": "离家",
    "3329": "右边",
    "3330": "趟",
    "3331": "收银台",
    "3332": "散步",
    "3333": "绿灯",
    "3334": "起飞",
    "3335": "够",
    "3336": "秋天",
    "3337": "开会",
    "3338": "物质",
    "3339": "歧视",
    "3340": "大觉",
    "3341": "恐怖片",
    "3342": "通道",
    "3343": "说法",
    "3344": "宽厚",
    "3345": "监控",
    "3346": "回顾",
    "3347": "古代",
    "3348": "处处",
    "3349": "顽强",
    "3350": "不光",
    "3351": "种种",
    "3352": "心头",
    "3353": "歌声",
    "3354": "中华民族",
    "3355": "蓬勃",
    "3356": "困境",
    "3357": "破裂",
    "3358": "推广",
    "3359": "变化无常",
    "3360": "度",
    "3361": "捡",
    "3362": "地步",
    "3363": "成就",
    "3364": "轻易",
    "3365": "退步",
    "3366": "注意力",
    "3367": "战术",
    "3368": "使得",
    "3369": "次数",
    "3370": "参",
    "3371": "不堪设想",
    "3372": "宽容",
    "3373": "办事",
    "3374": "一下子",
    "3375": "新生",
    "3376": "毕业生",
    "3377": "雨伞",
    "3378": "谈起",
    "3379": "景色",
    "3380": "犹豫不决",
    "3381": "缘故",
    "3382": "大人",
    "3383": "徒劳",
    "3384": "无益",
    "3385": "校长",
    "3386": "插队",
    "3387": "饮品",
    "3388": "全力",
    "3389": "予以",
    "3390": "应有",
    "3391": "参军",
    "3392": "凡是",
    "3393": "本质",
    "3394": "早退",
    "3395": "垂头丧气",
    "3396": "迎合",
    "3397": "匆忙",
    "3398": "票房",
    "3399": "长途",
    "3400": "年前",
    "3401": "争",
    "3402": "领取",
    "3403": "触犯",
    "3404": "指引",
    "3405": "不景气",
    "3406": "家中",
    "3407": "行不通",
    "3408": "星球",
    "3409": "成人",
    "3410": "本次",
    "3411": "远远",
    "3412": "特制",
    "3413": "潦草",
    "3414": "尤其",
    "3415": "回收",
    "3416": "铅笔",
    "3417": "贵贱",
    "3418": "左手",
    "3419": "规矩",
    "3420": "对照",
    "3421": "自习",
    "3422": "窗外",
    "3423": "可疑",
    "3424": "书店",
    "3425": "菜品",
    "3426": "优势",
    "3427": "低级",
    "3428": "届",
    "3429": "青春期",
    "3430": "突破",
    "3431": "节目",
    "3432": "频繁",
    "3433": "一窍不通",
    "3434": "全球",
    "3435": "升级",
    "3436": "失误",
    "3437": "光是",
    "3438": "亲手",
    "3439": "这天",
    "3440": "猜猜",
    "3441": "读完",
    "3442": "学到",
    "3443": "不得了",
    "3444": "硬",
    "3445": "意料",
    "3446": "小事",
    "3447": "好评",
    "3448": "打扰",
    "3449": "姐夫",
    "3450": "追问",
    "3451": "飞涨",
    "3452": "长跑",
    "3453": "强度",
    "3454": "罚",
    "3455": "送上",
    "3456": "大山",
    "3457": "低下",
    "3458": "过头",
    "3459": "收场",
    "3460": "活泼",
    "3461": "开朗",
    "3462": "熬夜",
    "3463": "楼道",
    "3464": "率",
    "3465": "不定期",
    "3466": "脏",
    "3467": "男性",
    "3468": "上下班",
    "3469": "朝着",
    "3470": "退票",
    "3471": "手舞足蹈",
    "3472": "步骤",
    "3473": "程序员",
    "3474": "限制",
    "3475": "出路",
    "3476": "获利",
    "3477": "一对",
    "3478": "组",
    "3479": "初",
    "3480": "语无伦次",
    "3481": "生活费",
    "3482": "命",
    "3483": "得奖",
    "3484": "吃亏",
    "3485": "指导",
    "3486": "消失",
    "3487": "进来",
    "3488": "箱子",
    "3489": "热心",
    "3490": "拍摄",
    "3491": "登",
    "3492": "路边",
    "3493": "兴隆",
    "3494": "纠纷",
    "3495": "加薪",
    "3496": "体力",
    "3497": "利息",
    "3498": "帐户",
    "3499": "打发",
    "3500": "义务教育",
    "3501": "细心",
    "3502": "干干净净",
    "3503": "乱来",
    "3504": "毅力",
    "3505": "购票",
    "3506": "多多",
    "3507": "片段",
    "3508": "临时",
    "3509": "乡下",
    "3510": "恭喜",
    "3511": "教授",
    "3512": "传销",
    "3513": "小组",
    "3514": "一年一度",
    "3515": "显示",
    "3516": "实时",
    "3517": "数字",
    "3518": "干活",
    "3519": "植物",
    "3520": "出名",
    "3521": "描写",
    "3522": "达",
    "3523": "马拉松",
    "3524": "嫌疑人",
    "3525": "正义",
    "3526": "重视",
    "3527": "平安",
    "3528": "萎缩",
    "3529": "罪行",
    "3530": "国人",
    "3531": "心脏",
    "3532": "酒精",
    "3533": "尽可能",
    "3534": "渡过",
    "3535": "实力",
    "3536": "津津有味",
    "3537": "上台",
    "3538": "主观",
    "3539": "说好",
    "3540": "球技",
    "3541": "九点",
    "3542": "无力",
    "3543": "共享",
    "3544": "冷漠",
    "3545": "折服",
    "3546": "间谍",
    "3547": "怎",
    "3548": "误会",
    "3549": "顺序",
    "3550": "一月份",
    "3551": "保密",
    "3552": "类型",
    "3553": "亲自",
    "3554": "贿赂",
    "3555": "游戏机",
    "3556": "阻止",
    "3557": "赔",
    "3558": "袋",
    "3559": "上帝",
    "3560": "荣誉",
    "3561": "模糊",
    "3562": "上天",
    "3563": "向往",
    "3564": "当今",
    "3565": "不平",
    "3566": "枯燥",
    "3567": "喜",
    "3568": "美观",
    "3569": "急躁",
    "3570": "欲速不达",
    "3571": "试穿",
    "3572": "带笔",
    "3573": "历程",
    "3574": "言",
    "3575": "个别",
    "3576": "不在乎",
    "3577": "运营",
    "3578": "战无不胜",
    "3579": "群发",
    "3580": "明确",
    "3581": "花纹",
    "3582": "小小",
    "3583": "收下",
    "3584": "草稿纸",
    "3585": "写字",
    "3586": "初步",
    "3587": "算错",
    "3588": "一模一样",
    "3589": "体育课",
    "3590": "居民",
    "3591": "歌咏",
    "3592": "辜负",
    "3593": "等到",
    "3594": "争夺",
    "3595": "不知所措",
    "3596": "最初",
    "3597": "诈骗",
    "3598": "高大",
    "3599": "翻",
    "3600": "趋势",
    "3601": "投",
    "3602": "友情",
    "3603": "上级",
    "3604": "排",
    "3605": "插",
    "3606": "输",
    "3607": "提",
    "3608": "讲究",
    "3609": "逃",
    "3610": "转",
    "3611": "躲开",
    "3612": "再说",
    "3613": "药品",
    "3614": "深入",
    "3615": "天下",
    "3616": "窗口",
    "3617": "输入",
    "3618": "自学成才",
    "3619": "低价",
    "3620": "实际上",
    "3621": "心存",
    "3622": "透",
    "3623": "辞退",
    "3624": "家具",
    "3625": "消费者",
    "3626": "孝敬",
    "3627": "赡养",
    "3628": "春季",
    "3629": "期望",
    "3630": "火候",
    "3631": "留恋",
    "3632": "做起",
    "3633": "爱美",
    "3634": "漫漫",
    "3635": "急于",
    "3636": "等于",
    "3637": "显胖",
    "3638": "除非",
    "3639": "至",
    "3640": "缓解",
    "3641": "体虚",
    "3642": "抗病",
    "3643": "减弱",
    "3644": "证实",
    "3645": "感冒药",
    "3646": "泛指",
    "3647": "药剂",
    "3648": "中药",
    "3649": "风寒",
    "3650": "风热",
    "3651": "音乐会",
    "3652": "换位",
    "3653": "好感",
    "3654": "对视",
    "3655": "渴求",
    "3656": "世界观",
    "3657": "补助",
    "3658": "泪水",
    "3659": "显著",
    "3660": "设定",
    "3661": "劳动权",
    "3662": "加班加点",
    "3663": "加点",
    "3664": "劳动法",
    "3665": "按劳分配",
    "3666": "核心",
    "3667": "股份",
    "3668": "资本",
    "3669": "买进",
    "3670": "卖出",
    "3671": "桶",
    "3672": "运转",
    "3673": "不当",
    "3674": "对外",
    "3675": "大牛",
    "3676": "前景",
    "3677": "酝酿",
    "3678": "行情",
    "3679": "相较",
    "3680": "交易额",
    "3681": "合并",
    "3682": "重组",
    "3683": "代码",
    "3684": "耽误",
    "3685": "行程",
    "3686": "使用者",
    "3687": "停工",
    "3688": "应对",
    "3689": "停机",
    "3690": "电气",
    "3691": "应急",
    "3692": "处置",
    "3693": "机制",
    "3694": "回访",
    "3695": "复",
    "3696": "广告牌",
    "3697": "构思",
    "3698": "可见",
    "3699": "展销",
    "3700": "播出",
    "3701": "厂商",
    "3702": "蜂拥而上",
    "3703": "一则",
    "3704": "冗长",
    "3705": "倾向",
    "3706": "内部",
    "3707": "介绍所",
    "3708": "刊登",
    "3709": "一并",
    "3710": "张贴",
    "3711": "波谱",
    "3712": "磁力仪",
    "3713": "勘测",
    "3714": "中期",
    "3715": "实验室",
    "3716": "词汇",
    "3717": "脑部",
    "3718": "技师",
    "3719": "指示",
    "3720": "含水量",
    "3721": "扫描仪",
    "3722": "玩意",
    "3723": "振孔",
    "3724": "隙度",
    "3725": "磁化率",
    "3726": "电动",
    "3727": "振仪",
    "3728": "女士",
    "3729": "腰酸背疼",
    "3730": "病因",
    "3731": "喜庆",
    "3732": "元素",
    "3733": "埋头",
    "3734": "盯屏",
    "3735": "节后",
    "3736": "谈论",
    "3737": "专发",
    "3738": "忍",
    "3739": "点击",
    "3740": "爱人",
    "3741": "楼上",
    "3742": "指定",
    "3743": "外交",
    "3744": "垂危",
    "3745": "伙儿",
    "3746": "卧床",
    "3747": "其它",
    "3748": "台大",
    "3749": "创伤",
    "3750": "革新",
    "3751": "能手",
    "3752": "白求恩",
    "3753": "追赶",
    "3754": "钱财",
    "3755": "推行",
    "3756": "节水",
    "3757": "灌溉",
    "3758": "缩短",
    "3759": "发达国家",
    "3760": "引进",
    "3761": "补",
    "3762": "飞跃",
    "3763": "高超",
    "3764": "粗心大意",
    "3765": "以防万一",
    "3766": "考查",
    "3767": "上岗",
    "3768": "日夜",
    "3769": "探亲",
    "3770": "区政府",
    "3771": "家属院",
    "3772": "供电",
    "3773": "吊唁",
    "3774": "死者",
    "3775": "跪",
    "3776": "乞求",
    "3777": "如实",
    "3778": "救者",
    "3779": "遇难者",
    "3780": "搜救",
    "3781": "事理",
    "3782": "伤者",
    "3783": "局面",
    "3784": "拆开",
    "3785": "灾区",
    "3786": "破格",
    "3787": "仪式",
    "3788": "相识",
    "3789": "解放",
    "3790": "课件",
    "3791": "打印",
    "3792": "乞丐",
    "3793": "河",
    "3794": "女排",
    "3795": "马虎",
    "3796": "截止",
    "3797": "表白",
    "3798": "尊严",
    "3799": "台湾",
    "3800": "号召",
    "3801": "征服",
    "3802": "暴露",
    "3803": "童童",
    "3804": "从早到晚",
    "3805": "不快",
    "3806": "洗",
    "3807": "大一",
    "3808": "前边",
    "3809": "手里",
    "3810": "天阴",
    "3811": "买好",
    "3812": "几件",
    "3813": "多云",
    "3814": "来看",
    "3815": "酒吧",
    "3816": "请客",
    "3817": "快点",
    "3818": "有益",
    "3819": "各位",
    "3820": "厨房",
    "3821": "饭后",
    "3822": "酸",
    "3823": "轻",
    "3824": "换下",
    "3825": "带酒",
    "3826": "超出",
    "3827": "重量",
    "3828": "试衣间",
    "3829": "顶",
    "3830": "坐在",
    "3831": "喝水",
    "3832": "身患",
    "3833": "公众",
    "3834": "堂姐",
    "3835": "癌痛",
    "3836": "困扰",
    "3837": "二手烟",
    "3838": "污染源",
    "3839": "心脏病",
    "3840": "器官",
    "3841": "癌变",
    "3842": "一无所知",
    "3843": "危害性",
    "3844": "机能",
    "3845": "退化",
    "3846": "轻微",
    "3847": "阅读",
    "3848": "坚守",
    "3849": "南极",
    "3850": "疯玩",
    "3851": "任意",
    "3852": "穿越",
    "3853": "十字路口",
    "3854": "礼让",
    "3855": "左右",
    "3856": "张望",
    "3857": "数不胜数",
    "3858": "不耐烦",
    "3859": "喇叭",
    "3860": "抵制",
    "3861": "中国式",
    "3862": "生命线",
    "3863": "人行横道",
    "3864": "待人",
    "3865": "艰苦创业",
    "3866": "先辈",
    "3867": "后人",
    "3868": "穿孔",
    "3869": "无关",
    "3870": "实施",
    "3871": "内置",
    "3872": "无限",
    "3873": "匹配",
    "3874": "研制",
    "3875": "终端",
    "3876": "机密性",
    "3877": "安全性",
    "3878": "奖项",
    "3879": "上装",
    "3880": "驱动",
    "3881": "节省",
    "3882": "商业区",
    "3883": "最高",
    "3884": "评为",
    "3885": "医切",
    "3886": "切准",
    "3887": "要害",
    "3888": "紧紧",
    "3889": "与时俱进",
    "3890": "垂死者",
    "3891": "微弱",
    "3892": "察觉",
    "3893": "丝",
    "3894": "迹象",
    "3895": "加快",
    "3896": "微型化",
    "3897": "测量",
    "3898": "便携",
    "3899": "化",
    "3900": "体育馆",
    "3901": "测试",
    "3902": "考核表",
    "3903": "原始",
    "3904": "保留",
    "3905": "源于",
    "3906": "活字",
    "3907": "印刷术",
    "3908": "打字机",
    "3909": "打出",
    "3910": "空位",
    "3911": "附张",
[...]
